[PAD]
[UNK]
[START]
[END]
0
1
2
3
4
5
6
7
8
9
a
b
c
d
e
f
g
h
i
j
k
l
m
n
o
p
q
r
s
t
u
v
w
x
y
z
{
}
[
]
(
)
.
,
:
;
+
-
*
/
%
&
|
^
!
~
_
#
$
@
&&
||
??
=>
=
==
!=
<
>
<=
>=
<<
>>
+=
-=
*=
/=
%=
&=
|=
^=
<<=
>>=
++
--
?
::
"
'
wf
if
else
loop
in
out
type
prm
desc
token
comp
seq
leqr
lner
lnor
lgtr
lger
lltr
ller
leqrand
lnerand
lnorand
lgtrand
lgerand
lltrand
llerand
leqror
lneror
lnoror
lgtror
lgeror
lltror
lleror
ltrue
ltrueand
ltrueor
string
integer
decimal
boolean
datetime
object
exp
proc
the
of
to
returns
is
set
sets
get
new
this
list
true
an
creates
that
for
value
request
null
method
add
from
name
local
current
create
button
exception
response
file
text
var
size
and
all
header
result
index
parameter
data
http
with
key
false
number
not
called
throws
path
property
when
assert
instance
used
message
dictionary
tab
content
layout
return
array
form
adds
box
params
given
user
as
location
item
otherwise
first
state
system
be
default
node
gets
status
label
time
auto
on
query
code
table
asserts
color
controls
operation
or
position
client
are
parameters
source
label1
log
line
stream
error
check
start
equal
empty
builder
post
element
style
context
scale
##s
api
function
event
input
valid
use
read
date
body
windows
end
pair
forms
field
point
argument
try
info
write
append
reference
mode
service
view
there
filter
column
buffer
test
command
image
model
by
class
values
back
menu
next
group
initialize
select
at
output
task
throw
types
remove
range
items
count
update
box1
component
bytes
server
database
json
accept
url
resource
label2
reset
asynchronously
length
same
grid
window
last
handler
no
find
into
resumes
connection
tree
version
suspends
cancel
checks
button1
entry
cache
document
tool
application
visual
byte
base
uri
format
up
entity
directory
collection
target
has
was
attribute
copy
drawing
strip
xml
delete
row
page
representation
expression
accepts
it
send
control
authorization
panel
flag
manager
load
rest
search
font
variable
clear
process
settings
constructor
action
axis
should
main
transaction
dimensions
map
link
lock
character
options
border
picture
configuration
block
order
can
convert
console
expected
run
one
elements
changed
edge
panel1
calculate
queue
debug
perform
execute
invalid
resources
left
save
between
matrix
width
parse
container
project
found
clicked
maximum
address
apply
open
sends
vector
height
segment
selected
memory
vertex
hash
dialog
actual
headers
game
call
populate
information
cursor
provider
root
bar
split
results
received
register
async
label3
files
##n
transform
nodes
subscription
show
account
been
child
properties
btn
##1
graph
objects
password
only
web
level
offset
progress
change
button2
right
clicks
custom
random
dispose
parent
will
max
##2
folder
generate
match
stack
template
writer
label4
full
thread
store
tag
config
close
distance
replace
coordinate
record
unit
dictionarystring
product
description
repository
stop
chart
minimum
display
timer
disable
cell
characters
changes
session
top
about
title
times
combo
zero
non
single
click
sql
span
bit
over
total
access
tuple
lista
camera
int
validation
label5
have
script
insert
report
assembly
two
handle
frame
build
move
sum
##d
extension
validate
rule
schema
icon
area
contains
player
mock
other
label6
names
trace
##ing
invocation
txt
arguments
anchor
card
member
available
screen
rows
active
wait
reader
beginning
seconds
points
cancellation
lusid
texture
converts
min
messages
mesh
suppress
updates
category
enable
down
finalization
package
requires
chain
device
enabled
contents
##ed
columns
packet
##r
lbl
second
view1
generic
executed
storage
calculates
least
removes
space
using
keys
rectangle
symbol
draw
pipeline
part
previous
case
app
pool
strings
services
generator
double
channel
statement
invoke
exists
ensure
requested
any
specified
labels
writes
deserialize
port
each
nttt
policy
endpoint
dock
print
pointer
angle
html
attributes
login
rotation
definition
destination
metadata
strip1
option
##t
continue
weight
interface
after
original
email
direction
host
series
long
profile
##a
edit
render
module
callback
factory
margin
enables
quantity
sdk
its
iteration
required
execution
setup
step
background
canvas
multi
prefix
complete
machine
selection
initial
instruction
scope
matches
currently
batch
do
loaded
mouse
##e
where
center
culture
domain
events
resets
language
##m
added
verifies
flow
internal
enter
network
verify
exit
per
amz
guid
logger
moves
##er
box2
relative
site
controller
contract
mark
shape
connect
created
public
failed
asset
interval
binding
sub
raw
before
selector
##3
job
old
sequence
amount
media
ref
entities
tile
pattern
policies
enum
customer
cancels
section
gui
drop
sort
editor
temporary
pixels
notification
world
yields
username
remote
fields
##l
initializes
plugin
track
browser
replaces
buttons
binary
normal
supported
temp
singleton
rich
configure
disk
mapping
registry
timeout
args
download
scene
working
identifier
vertices
enumerable
counter
successful
hit
##y
horizontal
word
role
side
computes
reads
condition
present
based
##o
fixed
structure
warning
begin
environment
float
region
security
timestamp
implementation
sample
bottom
radio
authentication
support
##i
prints
serializer
disposed
moid
whether
allowed
containing
tasks
maximize
unsigned
export
global
absolute
than
entries
form1
cloud
metodo
fill
scroll
make
helper
put
tables
listener
lines
chunk
iterate
activity
completed
dependency
partition
rules
does
##c
namespace
success
que
break
bundle
details
bucket
person
tip
visible
contact
members
quaternion
num
short
verse
net
plane
validates
##p
##f
we
blob
predicate
users
balanced
bounds
methods
signature
logs
encoding
lower
tests
inner
light
depth
rect
alignment
animation
already
groups
proxy
obj
setting
##x
difference
payload
csv
unique
parses
origin
checked
allow
receive
rendering
tracing
starts
existing
plan
cfx
retrieve
work
factor
patch
since
day
tpm
##able
done
appends
relation
score
vertical
formatting
constraint
lus
bitmap
sent
socket
how
mask
curve
minimize
actions
convenience
velocity
##4
documents
exist
clone
delta
primary
provide
representing
displays
sprite
submit
##0
book
errors
identity
updated
closed
help
feature
delimited
hl7
none
displayed
foreground
fired
id1
upper
audio
certificate
int32
bits
library
peer
switch
most
refresh
encoded
param
serialize
subject
value1
fail
id2
shader
equivalent
price
ids
shows
wrapper
face
limit
average
azure
compatible
lookup
pipe
release
pixel
route
white
##es
engine
simple
pinned
schedule
associated
vector3
dto
layer
necessar
preview
wallet
chained
cluster
worker
dynamic
liststring
loads
numbers
rate
char
secret
year
parts
bad
children
comment
example
play
priority
coordinates
offer
components
microsoft
frm
resolve
whitespace
letters
hyper
ptr
removed
thrown
transition
free
program
reply
trigger
pending
products
subtree
utf
frequency
scan
value2
represents
correct
##g
upload
visibility
go
history
prepare
records
unity
optimized
solution
requests
styles
panel2
core
volume
pos
big
guard
initialized
flags
modified
running
inventory
sync
completion
milliseconds
video
virtual
saves
summary
zip
separator
converter
adjusts
credentials
naming
bound
descriptor
slot
compute
iterator
behavior
month
must
registration
invoice
viewer
disposes
dot
encountered
manifest
segments
units
circle
skip
tags
variables
categories
loading
metro
picker
edges
opens
clip
decrease
paths
days
possible
##5
additional
processed
room
import
sender
assertions
connected
delay
native
trie
##al
##b
cast
devices
extract
occurs
registered
sorted
telemetry
tokens
alias
enqueue
iterates
material
visa
fetch
static
convention
enumerator
join
configures
my
nplanilia
owner
permissions
quick
radius
round
delegate
protocol
detail
feed
resize
shared
blocks
rotate
accepted
hand
filename
states
transient
auth
bounding
processing
around
cached
implemented
many
##u
ascii
commit
greater
css
square
symbols
tick
admin
bind
radians
syntax
underlying
validator
city
construct
duration
inverse
merge
resolver
fore
plot
raise
cross
external
tools
closes
corner
master
polygon
safe
val
period
asynchronous
builds
foreign
ray
constant
deleted
executes
missing
arquivo
devuelve
note
sign
bulgarian
deal
finds
january
off
performed
runtime
runs
translation
comments
private
colors
hyperflex
marker
presses
1st
agent
collections
generated
operator
regex
copies
transactions
unwrap
compare
grain
marks
mass
pass
power
force
numeric
problem
seed
determine
parser
workspace
##h
indices
taskbar
transfer
deletes
compares
multiple
necessity
prop
snapshot
base64
cannot
defines
ejecuta
logging
relationship
standard
their
vref
capture
occurrences
team
trim
adapter
diagram
high
payment
##ly
health
notify
assemblies
bearer
special
without
confirm
patient
platform
await
clause
effect
references
browse
extensions
occurred
usage
cells
cfr
folders
push
ratio
testing
cookie
extended
serialized
speed
best
commands
diagnostics
graphics
padding
regular
term
dev
ret
retry
board
meta
partner
reading
installed
slider
suspend
tmp
direct
failure
sound
wrap
family
models
msg
packages
red
stat
basic
bus
cmb
geo
operations
res
another
hex
toggle
vector2
cmd
distribution
low
parsing
accessor
constructs
images
renderer
started
assertion
bone
resume
words
notes
particle
stats
complex
disables
latest
permission
pin
tryn
accounts
fails
dependencies
endian
md5
real
while
catalog
connections
doc
emit
func
instances
receiver
clamp
more
sheet
dgv
filters
pre
aggregate
flushes
forward
multiline
##k
iam
orders
stored
verbose
##v
cost
employee
final
phone
pic
surface
zone
algorithm
encrypt
attachment
formatted
negative
utc
common
directories
intersection
mapper
them
##6
balance
being
calendar
indicating
portable
arc
credential
diagnostic
issues
consumer
major
see
alpha
claim
encode
java
tabstop
##ion
##z
applies
col
define
focus
marshal
pressed
##8
draws
geometry
subscribe
undo
configurator
eine
hides
org
refreshes
until
analysis
comparer
encrypted
handlers
redirect
scenario
struct
transport
decrement
less
specific
then
##7
instead
kind
occurrence
onto
quad
resolution
spaces
tbx
addresses
control1
evaluate
include
math
roles
starting
because
coroutine
locale
shift
black
drag
equals
mod
acceleration
buckets
generates
topic
which
##int
branch
compilation
declaration
degrees
deprecated
getter
str
tooltip
archive
container1
letter
now
processor
unknown
##or
building
home
mime
prefab
cards
share
creating
disallow
features
need
principal
theme
collider
descripcion
instantiate
nearest
prompt
signed
substring
against
lists
positions
delivery
m11
vlan
cbx
endpoints
matrix2
osp
passed
trynttt
##id
claims
increment
receives
signal
triangulation
zoom
angular
owners
processes
storer
written
creation
ordered
pairs
reason
remaining
assets
bitwise
campaign
fragment
nothing
spec
charge
defined
head
item1
latin
logged
parsed
promotion
src
voxel
bool
frames
lambda
mean
organization
pages
amazon
flight
nis
nos
semantic
svn
brush
consensus
framework
heap
issue
keyboard
phase
scoped
##9
chapter
checkbox
definitions
dimension
override
sleeps
binance
finished
links
reporting
resp
stage
templates
tracking
conversion
ensures
rad
serial
temperature
you
align
corresponding
license
logo
managed
ticks
translate
##ar
clean
could
country
cyrillic
incoming
management
physical
transformation
triangle
attach
begins
calls
partitioner
##w
cycle
digits
instructions
navigation
actor
authenticated
encryption
inserts
pdf
serialization
gradient
inline
pane
pushes
ranges
vectors
binds
closing
compile
don
finish
formats
listint
normalize
opened
ready
undefined
exchange
executable
gen
half
persistent
piece
polynomial
serializes
slice
steps
alphanumeric
ascending
green
hide
item2
jobs
matrix1
mss
tcp
invoked
transparent
declares
dir
indentation
pop
sector
sources
threshold
alert
coluna
enumerate
evidence
hour
install
layers
recent
returned
view2
gallery
gas
handles
interfaces
ldap
mappings
pagination
skill
ssl
startup
viewport
watch
wonka
acquire
audit
expand
firehawk
hmac
integers
met
sharp
ticket
##ation
backup
decrypt
destroy
driver
linear
linked
measure
##en
ast
bindings
dirty
loader
matching
nega
question
quit
scrapers
vla
combine
elapsed
nfrom
projection
take
tangent
way
##le
attempt
contacts
demonstrates
dia
partial
roll
scheme
tenant
waits
##ment
bag
candidate
clock
digit
holder
mail
merchant
outer
pitch
raycast
simulation
sorts
stopwatch
exceptions
quote
so
##ic
binder
dispatches
equality
flat
instrument
liefert
literal
metres
normalized
ntttt
orientation
revision
targets
week
##on
cpu
decode
energy
formula
highlight
known
magnitude
objeto
segmentn
zurueck
accessible
cipher
connector
currency
fit
included
invariant
metric
place
yes
analytics
dict
installer
methode
pairstring
rank
reverses
seeks
shadow
trade
turn
upsert
##in
closest
duplicate
applied
buffered
conditions
favorites
privacy
vat
blog
but
chk
dequeues
documentation
enumeration
ignore
m22
made
parallel
protected
released
rtb
saved
scheduled
typed
##is
arrow
assignment
company
ftp
init
win
answer
detected
minutes
profiles
capacity
faces
favorite
guild
meters
party
peers
review
samples
shell
unicode
bar1
counts
expects
formatter
keep
nome
norm
percent
rpc
setter
avatar
determines
dom
fix
m12
money
named
providers
splitter
want
divide
intercept
mapped
outgoing
precision
appearance
compressed
doesn
ends
envelope
locations
m41
modify
portfolio
routes
views
wrapped
box3
degree
git
hub
indicator
valor
appointment
arg
chat
dialogue
dispatch
hack
namespaces
padded
players
sphere
subscriptions
toret
tracker
##nt
checkpoint
combined
drive
infos
kws
matter
moving
pause
specifies
upgrade
voice
android
dataset
diff
escape
registers
swap
transforms
com
curves
debugging
embedded
every
ext
observable
pet
producer
terminal
##q
caption
encuentra
manual
provided
receipt
thumbnail
##object
##us
author
bulk
course
excel
gedcomx
mvc
nonce
ntt
prototype
restore
still
terrain
checksum
expectations
generation
hot
look
m13
projects
purposes
statistics
trailing
correlation
die
dump
figure
modifier
monthly
pnl
student
##ize
alive
chunks
demonstration
inputs
just
maps
market
middle
mnu
notifies
province
signing
sink
sorting
boundary
compiler
everything
listing
once
press
procedure
specification
tangible
##ized
converted
dead
dice
filtered
mocked
paint
parametros
prev
strategy
sure
conversation
dodaje
immutable
interceptor
live
navigates
never
playing
quaternion2
referenced
reverse
scheduler
tipo
availability
behaviour
blue
bot
buffers
cosine
daily
diese
manage
metrics
require
uppercase
vault
##j
association
button3
extra
keyword
learning
realm
retorna
rev
sales
sleep
versions
##te
dashboards
directive
dispatcher
employees
expressions
front
indexes
initialization
listeners
meter
multiply
nplanar
overlay
phrase
props
publish
sha
sha256
##nttt
##se
abstract
aes
copyright
cubism
legend
m21
quaternion1
replaced
sine
smtp
workbook
assign
bank
consume
criteria
delimiter
failures
floating
functions
hashes
mid
modules
needed
outputs
pub
queries
redeemed
relationships
routing
successfully
triangles
unable
wants
authority
composite
contain
credits
fade
fire
like
logic
m33
marsh
monitor
nested
pivot
primitive
runner
small
channels
clr
except
increments
listen
multiplier
necessary
planet
rigid
streamer
suffix
tds
textures
weights
welcome
workflow
adjust
allocate
approved
breadth
classes
counters
epoch
expiry
fake
https
nendpoint
opacity
secondary
unitless
within
##to
allocation
crypto
enemy
music
queues
##ent
##st
arr
aspect
collision
creature
disabled
escaped
fallback
highest
m31
middleware
pod
reg
telegrafs
under
##os
dictionaryint
falken
hello
inside
int64
invoker
m24
m34
movement
needs
palette
promise
releases
salt
stores
udf
variant
voucher
were
yaw
##ble
candle
cart
extend
hook
leading
m14
mempool
pack
percentage
played
renders
resolved
slash
touch
uuid
##th
cmf
hl7segment
popup
positive
reminder
sketch
webhook
##ce
##ive
broadcast
human
lerp
lowercase
seek
shown
sibling
todo
##ge
##ity
##px
bin
caller
clears
colour
column1
comparison
concept
dark
deck
deserializes
disposable
enrollee
fichier
listobject
minor
observer
redemption
age
always
arrays
banner
cancelled
coin
dns
doors
efault
flush
loc
m42
neighbor
quality
schedule1
silo
software
some
unlock
wall
website
xaml
xor
##it
annotation
attachments
conventions
dashboard
def
delays
door
embed
lifetime
matched
regions
selects
self
spawn
statistical
##ate
borrowed
both
combobox
compression
descending
dummy
evaluation
hint
ins
ion
lab
launch
lst
pad
recalculates
scaling
scores
shortcut
something
tsb
widget
##ator
##ch
##list
ads
einer
exported
feedback
kernel
m23
osu
preparation
queryable
rdf
rectangular
replacement
subtract
visited
waiting
##ck
attr
birth
blank
descriptions
design
developer
exhibit
games
gps
imports
leaf
m32
near
nullable
reports
represent
##ting
##ue
aas
activation
arm
choose
circular
cookies
expiration
flash
hover
impl
iterations
joint
kii
latitude
m44
provides
reached
reward
rsa
semaphore
smart
splash
tex
union
##2d
##ant
assertionn
attached
bug
copied
dest
erzeugt
explorer
grammar
histogram
indicates
puede
recipient
scenes
super
tcs
wire
##3d
##re
ability
atom
beam
capability
choice
future
general
hours
increase
logout
longitude
luna
optional
retries
scalar
scrollbars
spacing
subsystem
xms
##box
##et
##file
assignable
calculation
catch
derelate
hidden
merged
operand
par
placement
registries
retried
shapes
testee
thickness
timeline
unauthorized
##um
business
capabilities
chars
dynamo
evaluates
finalize
learn
resizes
retrieves
secure
sin
steam
submission
tiles
tray
tries
triggered
trip
uint
##ty
activities
car
comma
corners
cube
deployment
detect
dog
dpi
forbid
google
invert
learner
m43
magnetic
markdown
mutex
notifications
ocp
paged
ping
rating
reflection
resultado
rotates
saga
sharing
splits
star
texto
training
tttt
twin
##ir
agreement
boot
brain
cbo
codes
coefficient
confirmation
fat
gray
immediate
inclusive
invalidates
lib
noise
normals
rename
repo
sci
squared
uploaded
util
visit
##nce
##ped
##ts
adding
built
clients
configured
downloaded
excluir
firmware
flip
glyph
grip
kimono
paginated
pick
profiling
retorno
severity
via
writing
##ers
##ted
acceptable
adaptive
alarm
article
assigned
bmp
completes
consumed
desktop
dream
idx
intensity
languages
ldc
localized
monster
pan
performance
playlist
produto
repeat
respond
scripts
sites
street
swagger
threads
watcher
anonymous
bundles
cleanup
cloned
codec
deposit
describes
dll
fault
inactive
outline
packets
persistence
poll
retrieved
rhs
speech
telephone
toolbar
weapon
##ns
##rs
##tring
##ve
attack
concurrent
continuation
cos
cron
ctrl
determinant
disconnect
dtp
excluded
exports
fast
idle
implements
lazy
migration
parents
rendered
ribbon
sessions
sid
slug
tween
utility
vnwrg
vulnerability
##nd
##up
3x3
aus
certificates
chart1
deliveries
denominator
deploy
expires
form2
gateway
hierarchy
kronos
listbyte
listdouble
logical
measurement
performs
ports
probability
sand
staking
takes
temporarily
toggles
##ff
##ies
##ise
##ps
##type
bars
clipboard
dates
disconnects
good
ground
hold
motion
multicodec
ntp
people
portal
recorded
solid
subtitle
tabs
tanta
triggers
tsmi
veve
water
worksheet
##ntttt
##text
##tion
axes
blueprint
box4
cold
column2
crystal
cvi
disconnected
encoder
enumerates
env
expense
fee
fluid
invokes
jsonization
lite
measurements
modification
months
nav
overlap
recording
recurring
redis
sprites
stopped
trynvior
valued
viewer1
##ure
acceso
aliases
approval
beta
biz
centre
collect
compensation
configurations
constraints
customers
dep
ellipse
expect
grid1
lowest
namespaced
paragraph
placeholder
prefs
recalculate
redirects
sending
slots
snap
streaming
subtracts
terms
timer1
visitor
##el
##end
##ms
analyzer
appointments
claimed
clm
dao
detection
detector
equation
gizmo
handling
ihi
leaderboard
leave
listening
midi
multiplies
nud
ops
playback
point3d
questionnaire
quotes
redo
reflected
signs
suite
teams
unflagged
vimeo
weak
backtest
cancelar
defaults
deliveryn
episode
integration
jump
ndarray1
plain
rankine
reloads
remainder
restarts
sizes
telegra
unsupported
advanced
again
angles
attempts
canceled
conneg
decrypts
established
floor
hits
imported
indexed
instruments
life
little
mac
movie
peak
plate
searches
skips
subscribes
substance
tail
timelines
tolerance
wheel
##ization
alt
areas
automatic
broker
chosen
creator
deals
debugger
delegat
dependent
dequeue
dst
exactly
fuse
fuzzy
genre
horizontally
kas
lru
modal
neighbour
paused
pen
plugins
protection
seen
shard
stops
subscriber
suggested
ultra
##ie
##key
##map
##om
##ry
##ter
animator
anything
apm
dataframe
issuer
levels
me
minimal
moved
odd
online
ordinal
passphrase
pie
places
recursive
repositories
rights
rooms
rtf
sale
ship
shipping
stamp
station
traffic
##an
##byte
##data
##me
##ne
##ra
act
apps
aux
baseline
bones
calling
cash
checkboxes
coefficients
connects
density
estimate
even
exact
exhibits
extracts
gate
insights
invalidate
late
len
magic
mud
neuron
pid
pwd
readable
schedules
sec
tweet
unregisters
vector3d
##ence
anomaly
behaviors
bios
bulg
cable
celsius
cubic
emits
expired
fork
forum
grant
heartbeat
here
img
installs
interactive
journal
linq
membership
nombre
point2d
presence
qualified
ring
router
tax
ttttt
us
wizard
wlang
your
##ll
actividades
attaches
browser1
buildern
dicom
dlg
down1
exe
exec
fold
forest
hosted
interaction
loops
markup
mem
movies
point1
pointers
purchase
shaders
shuts
switches
tls
uid
##ance
accessed
addition
aligned
analyze
automation
benefit
blend
buy
cam
cap
connecting
deserializer
different
drawn
enters
executor
fatal
fish
gesture
hashtable
installation
jwt
keywords
matcher
photon
preferences
presentation
preset
recursively
restart
sections
semana
subtest
synchronization
sys
third
validated
wave
xen
##ect
##il
##led
##ma
##ness
advance
bubble
comparator
deviation
editable
filtering
flagged
goes
infon
interception
inv
lazily
legacy
lnk
pay
pose
published
retention
scrollbar
shifts
spans
timed
trades
ttt
updating
ventas
void
win32
##if
##ke
##ul
according
banned
bases
brute
cert
charging
cim
couchbase
credit
delayed
dense
digest
dimensional
enrolment
far
focal
gold
heuristic
hue
launcher
lead
league
leaves
locator
makes
meshes
mismatch
ncase
ndarray
oddu
offsets
paging
prepared
provisioning
reload
req
restores
reviews
rfid
rotated
three
trits
umbraco
unhandled
uses
watching
win32exception
##im
##info
##ring
##tor
ack
activate
activated
ajout
authenticate
backing
beatmap
clones
coins
compiled
contexts
deep
desired
directions
exclude
fullscreen
gene
held
highlights
hnd
href
kilograms
knf
korisnici
lang
lsb
matrices
neighbors
offline
overridden
photo
por
pressure
scrolls
senha
separated
skipped
theater
trying
weather
what
##de
##ur
##val
above
activator
bezier
boxes
cadastro
canonical
circuit
compound
concrete
dam
deserialized
dic
directly
dist
elevation
expectation
filepath
implement
intersect
irc
learnern
localization
mais
monedha
muscle
mutable
opportunity
orbit
point2
pow
publisher
pull
quads
rectangles
sair
saving
segmentnclass
shutdown
stacked
submits
suggestions
theta
too
validatable
yellow
##bool
##ling
##per
##ta
acc
aggregator
allocates
aws
benchmark
concatenate
confirmed
crc
dane
dash
declaring
during
effects
equipment
err
flp
fluent
food
frees
grupo
hart
ignored
indent
indicate
inserted
interop
lyrics
npgsql
personal
posted
producto
randomly
rasd
regulations
rgb
rounded
sense
std
t21
they
timezone
verification
##at
##db
##io
##ities
##rn
##string
aceptar
acquires
adjustment
arn
brightness
chooser
eps
expanded
fully
hostname
interpreter
intervals
joints
lifecycle
logarithm
mini
minute
necessarios
quarter
referral
resized
sparse
spinner
sudoku
terminated
tickets
udp
vert
weightings
yet
##ap
##ary
##as
##ction
##ee
##est
##go
##ular
alerts
annotations
ball
bridge
cancelable
checkout
coded
dropdown
executing
exponential
franchise
friends
garbage
identifiers
infinity
info1
kfs
large
lift
list1
listade
maybe
mobile
msh
ole
oracle
organizations
pdb
peptide
preferred
reaction
routine
scanner
sectors
sequences
servers
species
tbl
tracer
ttb
underscores
uniform
unsafe
urls
versioned
vote
vouchers
zaboravljena
##age
##ated
##ct
##ec
##ition
##nobject
##ping
animations
caml
checking
clearing
clusters
communication
computer
conn
controllers
correctly
descripion
descriptors
discovery
downloads
editor1
endregion
fixture
greeting
handled
huffman
id3
ime
interpolated
interpolation
jerk
joins
lsv
magnetometer
masked
mnemonic
participant
pt1
quantidade
recipe
responses
rng
scintilla
scopes
shuffle
ssh
titles
tracks
txb
ucsm
unload
unspent
unused
visualization
voronoi
voxels
xdoc
##bar
##der
##float
##ia
##let
##name
##ning
ancestor
apache
col1
collidable
commerce
crypt
designer
draft
effective
facebook
flex
fonts
frustum
gravity
having
idea
implicit
largest
locked
macro
messaging
midpoint
mix
molecule
mutate
notebook
nttttt
organisation
orgs
patterns
roman
sanitize
sea
separator1
shards
signals
sku
solver
stencil
structures
symmetric
tbb
tempo
transparency
trx
uma
xyz
##ac
##out
##point
##rate
##table
##va
aborts
achievement
auth2
blur
changing
cliente
commandn
compose
configurable
dalton
dont
ffmpeg
gender
gift
grouping
highlighter
icons
importer
indexer
invoices
ldarg
meeting
mscorlib
multiplication
numerator
nve
obj1
opening
png
proven
pure
puzzle
qos
quota
registro
simulator
spline
stylesheet
trend
variance
vector4
##ase
##code
##double
##ite
##izing
##ls
##sion
##ze
accuracy
alternate
anim
autodesk
bias
button4
caret
clsid
coinbase
collected
colliders
constants
construction
dialog1
discount
easy
elastic
encodes
expr
filesystem
finder
forces
guest
injection
jira
loss
median
modifiers
newton
olv
paper
persist
persisted
polyline
professional
qualification
reg2
registrations
rpg
secrets
serializable
social
stale
statements
structured
subset
themes
traversal
traverse
unary
unexpected
unmanaged
vehicle
warnings
winner
##cy
##gs
##ial
##ine
##nis
##rd
##ual
accelerometer
accessing
accumulator
adaptor
balancer
beat
brackets
busy
cadeiras
collapse
cover
dds
declared
decoded
decoder
deposits
derive
destroys
did
domains
flux
forecast
glavni
holes
holidays
hull
icon1
invite
issued
jpg
kelvin
ltra
luminous
mongo
navigator
parametro
pch
planet2
plug
preparer
profit
purge
soap
streams
strength
supports
texture2d
triple
trynmethod
tuning
vitals
vpe
walk
##ding
##ification
##ration
##res
##ri
abs
adjacent
advances
alterar
asp
assume
authenticates
authorize
authorized
backward
commodity
converters
databases
differences
div
divisor
dyn
editing
epic
euler
extends
facade
fact
footer
four
goal
goedle
grade
hat
inicial
integrations
isolated
lighting
lights
lobby
markers
nif
objs
op0register
owned
paste
persists
polling
preconditions
prefixes
rel
replication
reservation
risk
satellite
selections
sensor
shop
skeleton
skin
slave
spatial
specifications
spreadsheet
stdout
stroke
tab1
thumb
todos
tos
trading
tuplestring
unindented
utils
utxo
vector3wide
warn
web3
whole
why
wms
##ating
##ber
##board
##button
##flow
##izer
##less
##long
##tn
##use
assigns
assumes
attachmentn
automatically
avoid
cadena
calculated
cameras
challenge
chance
classe
compatibility
critical
damage
datos
declare
describing
det
digital
downloader
edits
extractor
faction
federal
fingerprint
genome
getting
hero
hole
incorrect
kill
located
merkle
municipal
name2
operating
pieces
polygons
polynom
population
prepend
prime
q2b
quoted
reduce
referrer
rental
reversi
rounds
screenshot
sequential
settlement
shoot
sig
slide
stateful
stock
stretch
survey
tagged
tells
tensor
trimmed
vendor
walls
##am
##ay
##day
##ess
##ex
##ible
##ised
##que
##ttt
activates
argb
ask
away
classifier
continuous
ctx
daggerfall
deactivates
discussion
dtg
emoji
enterprise
extent
foxhound
gis
ignite
ini
keyed
lua
mediatype
medium
mft
modelname
num3
nusing
palm
patron
persons
pesquisar
pile
precondition
profession
python
raised
readonly
recovery
riak
sampling
sentiment
snippet
sourceobject
spectr
spectrum
stride
subscribed
suggestion
tabbed
tangents
tester
textbox
ticker
tokenize
topics
trans
translated
ttf
unregister
usages
versioning
vocabulary
writable
xresult
##cion
##form
##ft
##ger
##ified
##ks
##path
##uint
alternatives
appropriate
assignments
basket
bold
bonus
caches
cal
candles
cat
collector
conflict
derived
descendant
duplicates
emails
enough
fau
forwarded
friendly
gizmos
gpu
group1
hard
holding
hyperedge
identification
installer1
int16
ioc
later
mtu
newly
nexus
overrides
patches
peptides
phonebook
prefabs
raises
react
reg1
relations
reserve
reserved
revit
rod
spot
studio
t22
tabla
thing
tour
translator
trynveve
unmarshaller
v8value
vcenter
xsd
years
zig
##ca
##fs
##na
##ss
##tt
##tttt
##ut
##ving
aad
alter
animated
apple
below
bookmark
brand
calibration
captured
computed
const
contour
coupon
cycles
death
decrypted
demo
descendants
discord
doctor
documento
dte
durability
edm
establece
fam
flights
foo
futures
gradle
heat
holdings
humidity
inspectors
kills
lat
limpiar
mat
measures
mensajes
messagen
modulus
mono
multipart
ndarray2
occupied
octofy
player1
plays
prepends
printer
rates
rec
replacements
resistance
scripting
sidebar
solve
story
succeeded
synchronize
transpose
trytes
type1
uint32
weighting
wildcard
www
yaml
zed
##back
##char
##count
##ist
##la
##line
##man
##mp
##op
##ot
##sh
addr
adjacency
agency
alice
ambient
artifact
audience
avg
awaiter
backend
bed
bigger
blueprints
carga
casts
cil
coding
col2
con
consistent
container2
corporate
correction
corrector
costs
deny
distances
distributed
dragged
east
edited
electric
electron
epc
eval
evaluator
existe
eye
feet
fld
focuses
freedom
going
hashed
hosts
iee
inject
injected
int32s
inter
intro
limits
lla
logon
node2
north
nveve
oid
oof
op1register
orphan
outlet
parcel
pictures
planilha
please
posts
queued
raven
reach
recall
recipients
replica
restaurant
rhino
rig
ruta
sampled
setstring
sha1
shot
silos
substances
telephones
terminate
terminator
through
tracked
transaction2
transitions
triples
vaadin
validity
very
weighted
yield
##ality
##ame
##ian
##ig
##ile
##ions
##message
##ml
##nto
##red
##ro
##sn
##so
ace
acr
ago
allocations
alternative
antenna
aprs
area1
bundled
chest
cidade
cleaned
composition
conclusions
courses
decision
dictionaries
division
dotnet
dtv
ecef
entrar
estimated
exclusive
exits
exponent
favor
fourier
fraction
intermediate
intersects
invitation
isolation
legal
liste
locker
lsn
machines
mana
mathematical
mdi
mfd
motor
normalizes
notice
optimize
page2
picker1
plaintext
plus
prikazi
priorities
production
protect
rejected
remain
replay
requestn
resizable
resolves
seleccion
smoothing
soft
spanbyte
spelling
stub
submesh
submitted
suggest
sums
t11
tbn
telnet
textured
tips
uncompressed
upserts
verified
vpn
webcam
who
wrong
yaf
##ag
##ain
##down
##fa
##ip
##ler
##les
##load
##max
##min
##most
##net
##ors
##ow
##pe
##si
3px
account6
acquired
administration
ahead
air
anp
appender
apples
artifacts
bitvector
blending
boost
borders
brokerage
bullet
buyer
camel
cases
cha
charcters
clan
codigo
colh
comic
committed
compared
compress
concat
constrained
constructors
containers
crewild
crm
crumb
cut
deferred
dft
discard
discover
este
farmer
filled
frontier
generators
github
grab
gyro
hanlder
hyperlink
imaginary
inbound
inc
indexing
ingrediente
initiate
iscsi
javascript
junk
key1
keyframe
lean
lexer
libreria
male
manually
marked
national
natus
newtons
npc
opposite
outcome
oval
pacientes
panel3
php
picks
pooled
postal
potential
purchases
qualifiers
raising
regulation
rem
responsestring
responsible
rijndael
ruleset
sas
season
significant
sim
slope
stelligent
storyboard
submodel
synchronous
tee
timing
train
tris
uncertainty
usuarios
utf8
validating
verifica
volumetric
wraps
##ability
##and
##cing
##cl
##ged
##ght
##ifier
##ish
##ng
##no
##num
##oc
##ode
##rm
##sl
##tic
##tle
##ulate
##ute
##ver
accum
acl
acquisition
aggregates
algorithms
alphabetical
also
anchored
associate
australian
autostart
batches
bitcoin
blacklist
blanks
bookmarks
budget
button5
caution
checkpoints
chords
classification
clipping
cms
column3
conductivity
conqat
consent
controlador
controlled
cors
cumulative
decodes
delegates
deletion
den
dodaj
dropped
dxf
eccentricity
efficiently
endianness
facility
flattened
flexible
funds
gilles
gitea
grove
grow
income
indirect
invalidated
iso
iten
ith
joules
label7
launches
lineage
loggers
mag
materials
microphone
mobility
modeln
momentum
moon
mosaic
nacional
nvips
obj2
onboarding
opcode
operators
outside
overwrite
parity
perspective
predicates
pregled
problems
prod
prov
questions
razor
redeem
refund
relying
repos
restored
rewrite
rfs
rho
schemas
sentence
sides
spine
subreddit
superset
supplied
toast
travel
trees
ulong
unpack
unsuccessful
vec
verbosity
wavenumber
whitelist
wolf
x509certificate2
yyyy
zag
##ata
##cp
##ded
##ector
##em
##ging
##ical
##ido
##ik
##ld
##light
##low
##ments
##ok
##ort
##ose
##pp
##rule
##un
##view
0x00
2px
alle
arrange
autoscaler
bairro
blockchain
breakpoint
bring
bson
cargo
central
conta
contained
coord
cuenta
cur
cursors
declarations
deferral
del
diagonal
disc
discovered
distinct
dps
dtls
earth
easter
enumerablestring
euclidean
evaluated
expands
expenses
extracted
fetched
flexibility
follow
formal
fps
furniture
guess
guids
header3
hovered
inductance
instantiated
kinematic
licence
lockable
marcas
matured
message2
metre
mqtt
neighbours
networked
newer
nreturns
numero
our
overlapping
overwrites
packed
packs
pads
pcr
pesquisa
prices
profiler
pt0
recursion
rend
reorder
reported
reversal
set1
shp
sms
snake
song
source1
south
specifier
stages
stopping
string1
svg
synthesized
t12
tank
tear
teleport
transit
trynfunction
turret
typeof
universal
uvs
varint
vericut
viewers
voltage
vrtk
widths
##ace
##ax
##base
##cia
##gh
##her
##ier
##ka
##mission
##mo
##off
##ox
##ple
##pt
##tive
##ui
3rd
abort
acknowledgement
agl
album
aligns
allows
applicable
backslash
barcode
become
bob
bsp
buffering
capacitance
carray
criterium
cultures
data1
deactivate
debitor
deserialization
drawable
drops
either
emitter
eve
examples
exited
explosion
fahrenheit
faulted
finishes
framebuffer
freq
gizmox
gyroscope
hatch
header1
heading
identify
indicators
individual
initializer
instructor
intercepts
item3
itemn
joined
jpeg
kilometers
lhs
lucene
microfocus
minima
mods
mshtml
nation
nickname
omitted
opt
orchestrated
past
payroll
physics
placed
pops
prd
preference
putty
ratings
rdl
recommended
rent
rocksdb
segmented
semantics
sfh
sheets
signatures
snmp
sourcebool
spawned
sproc
students
style1
t31
taken
tan
tilt
trackable
truncate
trust
typing
udon
unencrypted
unordered
v1id
vector2int
west
withdrawal
wood
##ave
##ef
##hs
##iation
##ix
##length
##od
##ol
##py
##set
##sive
##time
##u00e
4x4
aggregation
alarms
allocated
att
b2q
base32
basis
batalla
billing
bnt
capsule
carro
club
confidence
connectors
contable
contextn
coroutines
coverage
ctor
dbr
dbrps
destroyed
detached
diffuse
experiment
extern
feeds
film
fuel
generating
gfx
gpa
graphic
guide
gun
imu
instrumentation
isolate
latency
limited
log4net
longest
managers
mocking
modem
multiplexer
nui
occurences
octave
op2d
permutation
person1
phi
pipe2
plans
prior
probe
radial
rebate
rebuild
recorder
ref1
replies
reporter
school
sensitivity
serilog
setnecessator
signer
spawning
spell
stiffness
strokes
tabuada
tap
tbs
tft
tlp
today
toto
tpm2policy
tryntttt
tryte
u0060
uninstall
unix
unmapped
unmarshal
unsubscribes
unwraps
uploads
variants
vec3f
veveveveveveveveveveve
viewer2
war
wcf
wmg
workforce
##ach
##address
##cation
##ds
##field
##graph
##ings
##itution
##ium
##late
##ned
##nk
##pos
##size
##tance
##tes
##value
##written
##ym
1000ms
accumulated
addin
affected
apartment
articles
awake
badge
bar2
billboard
biomass
blit
blobs
blocking
bolt
bread
caching
callbacks
carry
catalytic
checkmark
cid
cmenu
conditional
conductance
conversations
crayon
criati
criterion
cue
cylinder
debu
decorator
dim
displacement
dispute
droplet
encerrar
english
episodes
ethereum
exhibitables
fin
finger
firewall
flows
focused
forwarding
gltf
hashcode
illuminance
informational
insertion
interact
interior
ints
itself
libraries
linenttt
liststringn
manipulator
marshaller
maximal
means
mental
molar
multisig
navigate
neighbouring
nest
notices
obrisi
ocpp
octo
orleans
outdated
ovf
own
painter
permutations
pif
pintable
player2
poolable
popups
practices
progression
proper
rabbit
randomize
recalls
ref2
reflect
relational
repeatedly
responsen
resultados
retornar
returning
scoring
searcher
separate
separators
ser
sincos
sqrt
tournament
triangular
trynve
universe
unlink
v2g
validations
verifier
vevec
viscosity
von
wide
zgc
##array
##ato
##book
##dor
##eat
##get
##ide
##ient
##isk
##lot
##m2
##menu
##nia
##ql
##test
##une
##ura
##vel
##ware
0b0100
absorbance
acceptables
accounting
agreements
alloc
amex
amt
anime
announce
anos
artist
assistant
award
batched
bluetooth
books
btnsave
buildings
careful
causes
chains
charecter
chin
cmdlet
codeword
coerced
compass
consulta
consultar
crop
cubed
datasource
datum
deadlock
decompressed
depending
dialogs
dis
doublet
doubly
endereco
entered
exif
expando
facing
factors
facts
female
filenames
fov
fund
hardware
he
hexa
historical
hnd3
homographs
hosting
illegal
imbalance
inbox
injects
insight
jacobian
jar
junction
key2
kit
ldr
ldvirtftn
lease
listfloat
locate
m4x4
macros
matrix4x4n
message1
mirror
mixed
monomial
multiformatted
municipio
namen
nano
node1
nok
num2
observation
observed
obsolete
offers
operands
overview
panes
pathfinding
payments
payout
planes
pools
positioned
pref
privileges
procedimiento
psi
rcon
recognize
regression
relevant
rewriter
rubric
ruling
scaled
schemes
screens
shortest
sol
specify
sqlite
steel
subclass
summaries
supplier
switchn
synced
taxi
thin
tic
timecard
tokenizer
transformer
translations
tutorial
type2
unlocks
variation
vision
vmedia
websocket
witness
##3f
##ables
##ade
##ake
##als
##ba
##ched
##co
##ents
##hort
##ick
##ict
##isim
##lation
##lock
##men
##mit
##ner
##new
##number
##ord
##rator
##ttttt
##ude
##vr
##za
##zed
aar
acesso
analog
anos2
appatizers
arrows
authorizer
avm
backups
baud
bracket
ccw
cfg
charting
collectable
colours
combination
compilation0
conf
continuations
corregir
crt
dados
dbrp
dec
dispatcherstring
docked
droite
due
ending
entering
escaping
evd
everest
explicit
exposed
fall
federation
finding
flatten
friend
gaussian
grpc
hashing
header2
highlighted
ideal
imm
inheritance
instant
italic
jack
jogar
knight
kvm
label9
layouts
list2
lost
mediator
medida
mocks
modifications
moon1
networkconfig
nfile
nplanilha
observations
ordering
outbound
outbox
outstanding
overall
overflow
parsedobject
pets
picasa
pipe1
pizza
planets
pods
pro
produce
propagate
psz
ptrs
pulse
radegast
receiving
recover
redirection
removal
renderers
repositorystring
required1
restricted
retrying
rnd
sbyte
schreibt
sensitive
simplified
simulate
slim
spawns
subnet
summation
surfaces
synchronously
systems
tbc
tela
throttle
tipe
tlb
tower
transmitter
trivia
truncates
tsc
underline
unloaded
updater
val2
valores
vars
verb
vereador
watson
x509store
xps
##axis
##ception
##chain
##ctor
##erate
##ful
##ight
##ire
##nconstructor
##nik
##nreturns
##ny
##of
##og
##ous
##port
##pr
##put
##ral
##returns
##rr
##rry
##sed
##ses
##ture
##ube
##ud
##vation
##veve
##ward
##wn
0xff
able
acct
adhoc
adjusted
aggregated
aim
altitude
animate
ankh
ans
answers
appended
approximate
attractor
awaitable
ban
bet
bittrex
blocker
blurb
bond
boundaries
buf
bytecode
canceling
caps
charts
chrome
cli
codenis
collapsed
collation
compliance
custo
cyclone
decoration
denied
derivative
des
describe
detailed
disclaimer
driven
dup
earn
eccentric
ecdsa
ellipsis
employment
enums
evaluatable
expire
fecha
finite
floats
folding
gamma
gauche
goto
grating
hexadecimal
higher
identical
impact
implementations
increases
indice
influx
informations
inst
installers
interactable
lozinka
maintenance
mandatory
massive
maze
mensagem
metering
migrations
miliseconds
model1
modes
movimiento
mru
multiselect
mute
ndarray4
neto
news
nuevo
omega
pawn
peering
permanent
picking
pickup
plant
pointing
previously
prog
projected
projectile
qualifier
ranking
rear
remover
requirement
retourne
revoke
rfc2898derive
robot
rtm
ruler
rulings
sampler
scenarios
scored
sculpt
shear
signup
simplify
sizeof
slack
source2
spa
storm
style2
subgroup
submodels
surname
symmetry
t32
tabindex
thread2
timeslot
timeslots
timespan
tipoejecucion
tnt
traceback
trail
transformed
tri
truncated
trusted
tsp
twitter
une
usd
verlan
vertex1
vertex2
vertically
well
workspaces
##art
##ass
##ath
##be
##bed
##bility
##btn
##cal
##cd
##ci
##coded
##color
##dd
##do
##dy
##een
##eg
##ew
##ey
##fi
##fy
##gar
##ho
##html
##ibility
##ift
##index
##iny
##ivity
##ject
##lusion
##mal
##mt
##ncy
##node
##one
##pa
##ram
##ref
##rp
##struction
##tb
##txt
##ufficient
##ulation
##umed
##und
##ust
##vi
##x4
##ype
aabb
adapter1
adfs
agro
ajoute
annulla
ansi
appt
arg1
artifact1
asyncmethods
atlas
blazor
bodies
calendars
carpeta
certain
changelog
chord
cloneable
collapsible
color2
concatenates
concepts
conenction
consumers
cypher
damping
debris
decompress
deselect
detaches
dht
disassembly
disp
downstream
ec2
elevated
ended
epsilon
equity
erl
executer
factoryn
finalizers
flicker
flips
forget
frozen
gauge
handlern
highlighting
hnd1
hol
homophone
hooks
hotkey
imdb
incomplete
inherited
intersections
intervalle
ipc
ipmio
iws
joystick
kargo
kinds
llabel
manager1
medicare
mine
miner
muscles
nuspec
obtiene
orthographic
ownership
pairint
parenthesis
particles
partir
path2
platforms
polls
portrait
preserve
protocols
provision
pwm
radian
receipts
referred
refunds
relatorio
remact
replicator
requirements
residual
result1
reversed
rewarded
rid
rsp
say
semi
ships
shuffled
skills
skyer
sliding
soundex
spins
stars
stash
strand
stringification
submitting
subtotal
subtype
such
suppressed
templar
territory
thumbprint
timestamps
trailer
trynis
typen
unavailable
uninstalls
unset
unsubscribe
unwrapped
ushort
vertice
veveveveveveveveveveveveve
visualiser
visualizer
weeks
wind
winners
wlan
zeros
##8px
##act
##ait
##atable
##bx
##bytes
##certificate
##ces
##component
##core
##cs
##cted
##da
##def
##dk
##ead
##ear
##ecessity
##ection
##eros
##etric
##filled
##ges
##ice
##ises
##ja
##lex
##lication
##lk
##m1
##mand
##mat
##mos
##nel
##over
##pad
##property
##quest
##rative
##rk
##sor
##tk
##uation
##uction
##ves
##where
##ws
##xy
500ms
5th
7th
abilities
administrator
als
analyzes
animal
apr
archivo
arial
asn
assumed
authorizations
bill
breaks
brep
btm
calculator
cbc
cel
centroid
chargify
chips
chromatogram
classified
classroom
colmap
comfort
compilation1
constructed
corpus
countdown
ctap
darkness
decompression
deg
dictionaryuint
difficulty
disassociate
disposables
drivers
duty
dynamically
eligible
eliminar
encarga
entire
enviar
everyone
exch
exclusion
executa
exiting
fabric
fees
float4x4
fmpeg
following
funnel
gap
gaze
ghost
grants
gravatar
group2
grouped
grp
gum
headset
identities
infinite
inspector
instrucao
intent
interest
irr
irt
jiggle
jtk
justify
kcm
kvp
land
landscape
ldelem
leagues
ledger
line1
line2
lives
mathf
meal
mechanism
migrate
migrated
mines
mocha
multicast
multireddit
nivela
notified
nresult
nstring
nvalue
offset1
okay
omnidirectional
orbital
pain
park
passwords
pcb
picbox
populated
postfix
predictor
preload
presenter
presets
pricing
printing
project0context
purpose
recurrence
relay
reliable
repeated
respective
resulting
rigidbody
rmim
sanitized
scanned
sdl
servo
skyline
slider1
slow
sockets
sounds
spaceship
specular
srm
ssid
sss
staging
statuses
straight
stripline
subjects
subscribers
surrogate
swipe
tablet
tbox
thinned
toolbars
torque
tttttt
turrets
unallocated
unpacks
upcoming
use2d
uui
vac
valor1
vector3int
venues
victory
view3d
vpc
weekly
werewolf
worth
x86
xdt
yearly
zeroes
##1segmentn
##ana
##ao
##ative
##bin
##bing
##bit
##check
##ctions
##date
##eed
##gen
##hip
##iction
##ided
##ifies
##ify
##ime
##ique
##ith
##jercicio
##joint
##lib
##maps
##ob
##ork
##oss
##ponent
##range
##rew
##ries
##rios
##row
##rst
##sement
##son
##ster
##struct
##ti
##tile
##tled
##token
##tr
##uity
##unction
##ved
##way
##wer
##x3
##ys
10f
aborted
accion
adb
addon
ado
adorner
am
analyzers
appliance
artifact2
autocomplete
auxiliary
azimuth
bandwidth
bend
beneficio
bidirectional
bindable
bio
blender
blink
booking
boxed
brace
cad
callsign
carriage
cartesian
caught
cdf
cds
changeset
checker
chess
chromosome
cht
clipper
col3
commits
compiles
complement
compressor
conc
conent
configurer
corrective
countries
daemon
dangerously
ddd
declined
deleting
department
deregisters
descricao
descrip
detach
detects
devic
director
distributor
drives
dttg
earliest
ease
eigen
ein
einen
elf
emblem
endian16
enrollment
enviroment
equivalency
estate
exo
expansion
expecto
experience
finally
flashing
flask
fog
forbidden
geocode
glob
graphs
hotbar
houses
hpio
hsv
hud
icone
imf
impulse
inertia
infer
injector
intended
jada
joe
know
komponente
kreditor
kwm
landing
leg
licenses
loaders
localhost
logarithmic
longer
mailbox
manhattan
manufacturer
midpoints
minus
misc
mocknttt
modelo
motors
msi
mult
neues
neutral
nhdb
operaciu00
optimization
osps
overlapped
owns
part1
part2
path1
patronum
pbr
periods
pgp
pins
planet1
plannumberlabel
porast
portion
precursor
prescription
prijava1
probabilities
programs
prohozeni
prompts
proposed
prune
pv4
quadrilateral
quickstart
rays
reimage
related
resultn
revert
rfc
rvt
sandwich
scanning
scopevisio
scor
searching
seven
shallow
similar
smime
somato
son
spending
spi
spin
spl
spring
stake
stanza
statistic
strips
subst
substitution
subtypes
sweep
synchronized
teamwork
templated
tested
testnet
thick
thread1
tld
toggled
topology
trajectory
transports
unauthenticated
unbinds
upgrades
val1
valor2
vehicles
walking
wallets
watched
watermark
worker1
workers
worlds
zones
##00f
##1id
##2id
##4b
##5f
##ak
##aved
##bb
##builder
##ced
##client
##coding
##collection
##dt
##enumerator
##eral
##ero
##esh
##face
##ffff
##fied
##ga
##gies
##ha
##iable
##ication
##icator
##ics
##ied
##ients
##iling
##imal
##inal
##ination
##ink
##ino
##king
##li
##lic
##lish
##loc
##mer
##ming
##ncreates
##objects
##ont
##ories
##ph
##pi
##pl
##rect
##ree
##return
##rg
##rid
##rie
##rt
##s2
##segment
##ssor
##tal
##uble
##uesta
##ula
##ulong
##urable
##urance
##utor
##values
##vm
2nd
6th
actionstring
adder
advertising
affinity
airport
ancestors
annul
ano
aog
ara
arama
architecture
art
assembler
atoms
attachement
balloon
batle
battle
beacon
book1
bpm
breadcrumb
broken
bypass
c2c
casing
cats
chapters
choices
chunked
cincos
combobox1
compra
consistency
cooldown
core14ntttlock
crit
crow
crust
customization
cyan
dado
datan
decoding
definite
depart
differential
discrete
disks
distr
district
docs
docu
drawer
drone
dthd
duck
e10
e100
eci
encrypts
engines
envia
epa
examine
excess
exporter
factories
fading
faster
fibonacci
fix64
flurl
formulas
framerate
fur
gdip
geography
globals
guilds
gzip
hangfire
heal
iap
ica
includes
incremental
ind
indy
inference
infrastructure
iniciar
insets
interpretation
intersected
introduction
jagged
jitter
joke
kapat
kepler
kilogram
levenshtein
lockout
loyalty
lumos
mantissa
maxima
md5crypto
menit
mensaje
menus
merch
merit
metal
mipmap
modbus
monitored
monitoring
natvis
ndarray5
nhs
nugget
o2w
obligacion
obtain
obtains
occur
odustani
office
okpb
ones
opr
osd
partitions
pascal
patents
patients
perimeter
pfx
pip
pipelinen
plural
posicion
positional
printed
quadtree
quitter
rangecontext
ranked
razeni
rdo
reachable
reasons
recognition
reconnect
renewal
rep
reportar
resultstring
rewards
rock
rom
roots
routed
russian
salads
saml
sanity
scheduling
scratch
screenshots
sentinel
sentinent
setups
sgr
sharepoint
sip
smallest
sourcen
spectator
sqs
standalone
statisticlabel
strong
sts
study
styled
subcurves
surveys
sut
task1
teacher
technique
tekst
things
timers
toolstrip
topological
totals
traces
trainer
trns
trynttttt
twist
twob
unloads
utilities
v2alpha1cron
valuen
venda
waypoints
wearable
whitelisted
wims
writers
yolol
##1segment
##4u
##ab
##achy
##ad
##ador
##ads
##ail
##ajo
##amento
##api
##area
##ash
##ates
##au
##bound
##bs
##buf
##cc
##cessary
##cimal
##cise
##class
##dos
##eak
##ell
##ement
##enter
##ered
##esa
##ethod
##ext
##fc
##format
##gence
##gue
##harp
##hy
##ias
##icao
##icon
##ident
##iness
##ional
##iting
##ived
##label
##left
##link
##lls
##lo
##logy
##lse
##lts
##mesh
##nate
##nf
##ni
##nts
##ona
##ote
##otype
##query
##rated
##rds
##right
##rity
##run
##s1
##script
##ser
##site
##sk
##span
##stagetype
##str
##stream
##tation
##tpoint
##ub
##uce
##ugh
##uit
##ule
##ult
##ups
##ux
##verage
##wind
##xx
##ync
100ms
32x32
50ms
8th
analyses
annotate
ant
applications
archivos
arithmetic
arrival
assessment
attenuation
aurthor
balances
bdd
benzinga
bicycle
bitfield
blerje
bloom
bumpy
ca1
cadastrar
callvirt
candidates
cant
cantidad
caused
cheat
chpx
circles
citizen
clickable
cloning
closure
cncelle
colons
communicate
confeaturator
consider
coolanttype
counted
cts
customize
dal
data2
daten
dbase
decryption
delimiters
demographics
denomination
dictionarychar
dijkstra
directed
dispatched
disposal
divider
dragging
drawables
droplets
dtd
dunge
dvd
easing
elapse
email2
encapsulate
encounter
enqueued
entrez
enumerators
erstellt
etag
extraction
fechar
figures
filler
finalizes
fires
fixes
folded
foldout
foobar
forked
fqr
frequencies
gbx
gcm
generation0
geolocation
geom
geotab
gossip
gremlin
grounded
growth
grpcinter
gu00f
guna2
hash160
holiday
hols
horiz
hotel
hungry
ibm
iit
imap
index1
inflate
infragistics
initializers
inserir
inspect
integral
interp
intrinsics
izvjestaj
k3p
katals
keydown
keyframes
kusto
leaving
legend1
localisation
locks
lon
mathematics
mdg
memo
mention
mlb
molecules
monsters
moq
mosaics
msb
msg2
musical
natural
nbyte
nearby
nethereum
netstandar
nexcessary
node3
numerical
oauth2
oib
op2register
opaque
opcao
pager
pairing
parcial
passworld
pcap
pearl
ped
percentages
perf
periodic
picked
pipelines
pix
pkg
podfile
poly
portables
position1
pr1
presents
printable
processors
prodaja
protobuf
psych
qty
quotation
reaer
reattach
recognizer
rect2
redirected
refer
registrar
reject
renamed
repair
respected
response1
resumption
robots
salvar
satisfied
sb1
scaffold
searched
seeds
sektor
selectable
serializing
sftp
shares
sliders
smoothed
solves
spaced
spots
sps
studenti
summarize
switchnttt
symbolic
tabela
tac
tarifs
teaches
tensors
testable
thumbs
tim
timerserie
tint
tip1
toc
toe
took
topping
truck
turtle
twitch
typeface
unchecked
unconfirmed
uni
unitario
unmarshalls
vals
variations
vector3f
verfify
viewport3d
violation
visualisation
voltar
voter
vystup
wake
wav
waypoint
wireframe
wmf
wsa
xri
yql
zaboravi
zipped
##7f
##acion
##aging
##aje
##alize
##ample
##ard
##atic
##ats
##avi
##bl
##bo
##can
##cast
##cio
##cript
##cular
##d1
##det
##dh
##di
##ea
##eet
##eff
##email
##ente
##ep
##eriliste
##event
##fier
##fore
##hash
##hat
##head
##idad
##ield
##iff
##ilet
##ips
##ism
##ister
##izes
##kes
##ledge
##lining
##log
##lon
##lt
##mark
##mb
##mber
##nch
##nge
##nreturn
##nte
##olate
##ore
##ost
##ound
##ount
##ovment
##pose
##position
##proj
##rams
##rea
##rencies
##ret
##ron
##rough
##sbyte
##sible
##sist
##tc
##tchart
##tein
##ten
##term
##ton
##tra
##track
##tribute
##u043
##uch
##uctor
##ught
##ump
##ured
##uring
##usted
##ution
##vo
##vs
##w2
##world
##x1
##x2
##ya
1ki
200ms
abis
accetta
acknowledged
acs
adult
advisor
agregar
aid
alchemy
allocator
altinn
antialiasing
approximation
arcs
arrangement
associations
authenticator
avro
bayon
bbb
beatmapset
better
bid
biggest
bitmaps
blades
blah
branches
broad
brotli
bst
caja
callable
callout
candelas
carrier
carry2
cbbx
cencel
certify
characteristic
chbx
classifications
clipped
cng
cocoapods
coerce
cols
combinations
compact
compaction
companion
complexity
concentration
cone
conectar
confirmar
confirms
contador
containment
containsment
contrast
conveyed
coptic
corrected
coverages
covers
crawler
cred
cuboid
curl
danmaku
datumu
deadline
decisions
deconvoluted
decryptor
deitel
deliver
designers
dial
dictionnary
digester
diluted
dir2
disruption
dividend
dlc
dna
docker
dtm
dumps
ecran
editors
egg
eject
elasticsearch
elem
embeds
emo
encryptor
escapes
estimator
eth
exceptional
exumai
fanout
farm
fhir
finalized
fine
flattens
flipbook
fu0438
fxcm
gantt
geometries
geometrique
give
globalization
glue
grapple
greatest
gripper
hasher
haven
hdfs
heart
heightmap
heights
henrys
hertz
hierchical
hndout
ice
ilars
impersonal
inf
initiated
insn
instrumented
intercepted
interfaz
interrupt
inventories
kerning
kinect
lane
leader
lengths
letra
linux
liquid
listbox
listed
liveness
loz
lsl
lvl
maidenhead
marc
matriz
may
mdl
military
miller
mining
mirrored
mismo
mni
mobj
mrm
mssql
multipliers
mutation
ncommand
negate
nei
newern
newpass2
newtonsoft
night
nin
nms
nnodes
nof
notation
novo
numbered
obscured
ocr
odata
ohms
oldest
operacion
optician
orchestration
oriented
osc
out2
overlaid
papx
parentheses
partials
passengers
payslip
pbx
persister
person2
pessoa1
piranha
polyline3d
polynome
popover
poussez
pragma
prefill
preloaded
previewing
privilege
producers
propertiesnecessator
publication
pup
quant
quat
quilt
quotas
rabin
ranks
raspberry
rational
rebinds
redeploy
registracija1
reinstall
reloading
remember
repaint
resizing
result2
road
roslyn
rtbim
sagas
satisfies
satisfy
saw
scott
scritp
scrolling
seance
segmentbyte
sharding
shitje
shut
siemens
sigla
similarity
simulates
slashes
snapped
snr
spent
spread
starter
stream1
stu
subjec
submissions
suitable
suspending
sword
syn
syncs
t3000
testdata
text1
text2
tgt
threhold
tiddly
titulo
together
topo
touched
trailers
transfers
trims
trk
turning
u043
u0441
ubl
ucs
unregistered
usuario
uwp
vector128
vega
venue
vhd
vlane
vowels
vsm
waves
weaver
weekday
widgets
wins
withdraw
would
x2trans
zookeeper
##1n
##2x2
##3n
##aa
##ado
##ained
##alized
##all
##ar2
##aria
##ario
##ature
##binding
##body
##br
##case
##cer
##ciado
##cient
##cle
##cr
##cribing
##dc
##did
##dl
##ek
##ency
##ento
##eous
##ere
##erior
##essor
##ete
##eter
##eu
##fe
##fx
##gable
##getter
##gi
##graphic
##ign
##ii
##ilities
##ind
##inguished
##ione
##item
##ivate
##ivation
##job
##ki
##lect
##lent
##lines
##links
##lm
##lname
##luence
##mar
##marks
##mate
##mization
##mm
##mod
##mpt
##nation
##ncing
##nda
##nder
##nds
##nes
##nical
##null
##nure
##ogy
##oid
##oo
##p1
##page
##paper
##pass
##ply
##points
##prev
##quence
##rack
##rain
##result
##ria
##rio
##root
##saj
##scale
##scribing
##short
##sr
##stand
##stavi
##sts
##sword
##sx
##tem
##tible
##tore
##ttb
##u8
##uc
##uid
##uild
##uip
##ullanici
##ulo
##ulty
##ument
##umption
##unk
##uous
##ural
##uration
##url
##utation
##vaci
##var
##vate
##vy
##xt
##ytes
##zable
##zing
1l24
784px
abi
accel
accessors
accnt
acknowledge
actividad
adapters
addto
adjudication
agree
agrirouter
agropecuarias
alg
aluno
amplitude
anchors
annual
aot
arg2
articulation
attendee
auth2s2s
authors
automaton
avi
axe
base58
battery
bearing
beg
beside
bessel
bewegung
bicycle2
bigtable
boxt
bridge1
bridge2
bruger
burn
cadre
captcha
care
carousel
carry3
cbox
cer
changer1
chg
chiudi
chkb
civilian
clans
class2
clb
cleans
cleared
closer
cnn
coarse
cod
coda
codeudor
coll
color1
colorize
combat
commented
comprobar
concatenation
conceal
concurrency
configurationn
construir
containern
contenedor
contracts
contribution
convection
convert2
corregido
cosinus
cosy
datapoint
decomposes
deepest
dep2
der
deselects
dff
dfs
diffs
dir1
dirs
disas
discontinued
disposition
distributions
divided
dob
dolni
dots
dotted
doughnut
dow
dtos
e2e
ecc
edition
ellipsoid
elliptic
emission
enclosing
enemies
eng
enricher
enumerableobject
eol
escher
exceeded
executors
experimental
explanations
exposure
exsiste
fac
face1
facial
families
father
fav
fenced
fiber
fieldstring
firstname
five
flags1
form3
fourth
fragments
gbox
genesis
giant
girl
grapheme
grayscale
grd
grids
harmony
harvest
hesapla
hip
hit2d
hoc
holedia
host1
iend
inches
inconclusive
incremented
inited
installing
internet
interstitial
introduced
inverted
invites
ion1
ips
kay
kept
keyn
keypair
king
knife
knob1
kode
kotori
kupovine
kurset
lam
larger
ldfld
lession
lesson
lex
lightness
lis
listens
lldb
localize
locals
lossy
loves
loy
maker
mandate
manner
margins
marshals
matrice
matrix3
med
menue
mil
mission
misura
mixture
mod1
mod2
modelreport
monedhat
moon2
mostrar
multiplied
narrows
naslov
nat
navigacija
ned
neighborhoods
nett
newline
node5children
normalises
normalization
nota
notifying
nplan
nplanes
nplanet
num1
number2text
nviopment
observe
occured
offset2
onboard
onsite
otri
outcomes
outlets
panel4
pascals
patched
pbkdf2
peaks
pedido
penalty
perm
perpendicular
pessoa2
pirate
planar
planned
pngdata
pokemon
pot
preamble
prefeito
preparing
prestiged
prim
professions
programa
prop2getter
property1getter
prox
pseudo
pulled
queried
queryint
quickly
quirks
radii
rainbow
ran
randomized
raster
rdd
receivers
recommendation
reconfigure
recycle
redraw
redraws
reduced
refs
remarks
rents
represented
responsys
restoring
resumed
retrieving
rewriting
rgba32
rheometer
rifiuta
rot
savable
sayi
scales
scriptable
selenium
sellable
separator2
seperator
serialised
sha256managed
shade
shadows
shake
shapefile
shipment
shippings
shortcuts
shortened
shorts
sky
sma
spaper
splitter1
squares
sso
sta
stable
stiletto
strb
striggered
styling
submeshes
submitter
sunlight
suspended
sve
switcher
swizzle
synchronise
tangential
taxonomy
tech
tiff
timings
tips2
tips3
titre
titular
tmr
tones
torch
torrent
tpm2
trixel
trunk
trv
trytttt
tvi
tweets
txtbox
txtejercicio
ucss
uint256
unbind
unescapes
unified
unobserved
unresolved
urn
userid
v8context
vector2struct
verts
viewing
viral
visiting
vit
votar
voting
walker
wiimote
wiki
wolfe
won
woopsa
worklog
wpf
wxc
xmax
xmin
xrds
zigzag
zoomed
re
these
had
think
really
ve
actually
those
much
she
laughter
his
let
applause
got
said
lot
thank
her
come
ll
ca
tell
talk
doing
might
great
went
him
few
000
important
thought
women
understand
came
technology
love
wanted
feel
ever
looking
believe
million
imagine
science
comes
thinking
talking
kids
making
across
told
moment
man
happen
interesting
happened
young
pretty
almost
ways
often
myself
quite
asked
probably
happens
living
education
coming
community
dollars
looked
amazing
men
billion
someone
society
learned
works
became
everybody
stuff
mind
sometimes
stories
knew
though
africa
completely
others
says
six
united
heard
hope
mother
oh
basically
decided
government
research
looks
taking
reality
turns
30
100
saying
couple
lots
companies
nature
ourselves
50
early
woman
yeah
cars
century
cities
disease
cancer
hear
huge
powerful
themselves
thousands
beautiful
difficult
felt
ideas
happening
worked
eight
fear
somebody
american
perhaps
behind
guy
gave
particular
america
rather
economic
violence
eyes
economy
blood
china
along
happy
simply
york
technologies
yourself
realized
anyone
humans
seeing
knowledge
alone
##ally
animals
began
god
speak
born
house
incredible
teachers
absolutely
hundreds
political
turned
ted
tried
feeling
poor
carbon
hands
lived
nuclear
industry
law
oil
europe
millions
stay
eat
whatever
scientists
realize
climate
growing
neurons
seems
teach
india
telling
tiny
wonderful
developed
recently
stand
gone
guys
interested
kid
understanding
brought
modern
spend
sun
indeed
40
everywhere
explain
girls
ok
schools
university
theory
truth
journey
cool
crazy
eventually
giving
incredibly
literally
sex
asking
computers
development
hundred
revolution
societies
wrote
meet
miles
obviously
sitting
cause
nobody
several
situation
beyond
democracy
especially
baby
likely
nine
perfect
attention
developing
seem
showed
nice
chinese
loved
mom
networks
solar
wo
institutions
becomes
further
genes
suddenly
fun
gives
knows
older
extraordinary
killed
putting
scientific
innovation
medical
soon
traditional
wife
crisis
medicine
showing
college
died
leaders
truly
among
approach
blind
electricity
grew
meant
sit
wish
anybody
anymore
communities
exciting
fly
led
teaching
totally
towards
creative
designed
fight
however
politics
thousand
##land
somewhere
brains
certainly
hospital
individuals
morning
talked
thanks
african
governments
malaria
ocean
particularly
poverty
taught
wonder
biology
drug
speaking
worse
driving
humanity
museum
police
200
boy
clearly
becoming
capital
dance
diseases
standing
supposed
##ists
compassion
complicated
develop
expensive
photos
decades
drugs
peace
practice
usually
essentially
experiences
remarkable
smaller
understood
improve
involved
fundamental
helped
international
matters
village
ancient
anyway
colleagues
himself
including
insects
lose
surgery
tend
treatment
challenges
dangerous
familiar
glass
highly
nearly
##ious
500
doctors
evolution
financial
impossible
mr
somehow
bees
invisible
religion
silk
victims
coal
hey
knowing
paid
unfortunately
citizens
daughter
emotional
era
passion
serious
streets
terrible
bringing
dad
engage
excited
immediately
useful
brings
farmers
genetic
hair
meaning
obvious
painting
quantum
tv
afghanistan
beings
earlier
epidemic
investment
president
bacteria
chris
cultural
decade
easier
markets
rain
rise
solutions
strange
survive
urban
experiments
extremely
mechanical
noticed
sat
seemed
therefore
worry
fashion
healthy
sorry
surprising
sustainable
throughout
cheap
civil
laws
tissue
although
creativity
european
extreme
husband
lie
risks
scientist
anywhere
brother
bunch
despite
easily
feels
higgs
legs
stress
apart
aware
beauty
career
decide
differently
famous
iran
slightly
spider
studies
town
trial
western
##ters
afford
afraid
artists
believed
birds
feelings
forever
helping
illness
importantly
industrial
john
justice
mostly
plants
popular
responsibility
river
upon
waste
##ans
affect
army
bang
depression
everyday
invented
nervous
possibly
prison
sight
surprise
engineering
evolved
forth
israel
microbes
studied
walked
whose
##sing
california
chemistry
consciousness
eating
happiness
intelligence
joy
willing
##ets
arab
benefits
british
desire
dollar
efficient
enormous
hearing
inspired
lack
london
majority
moral
oxytocin
professor
respect
san
sister
ultimately
worst
##istic
brazil
collective
curious
economics
essential
fantastic
harder
imagination
lying
minds
prove
religious
sell
slowly
soil
stuck
summer
twice
whom
##ins
americans
cognitive
described
effectively
einstein
em
etc
tough
treat
trillion
various
voices
##ens
babies
cheaper
dry
dung
experienced
explore
fascinating
foundation
ignorance
moments
predict
silence
suffering
tons
trained
valuable
vast
##lin
20th
accident
aging
chemical
cure
effort
fairly
influence
neighborhood
normally
race
safety
sick
spirit
underneath
##ants
##ations
2008
awesome
billions
biological
carefully
economies
entropy
faith
gotten
gut
heads
immune
iraq
marketing
meat
mountain
narrative
opportunities
phenomenon
phones
produced
rural
savings
sexual
stick
suicide
terrorism
vaccines
virus
wealth
##rating
arms
atmosphere
belief
canada
civilization
flu
followed
france
galaxies
hate
institution
japan
kenya
launched
lucky
mars
mosquitos
photograph
poetry
principles
struggle
teeth
##ably
##ked
bought
brown
childhood
chip
deeply
enjoy
french
hiv
novel
papers
patent
politicians
religions
reputation
strangers
surprised
##med
2010
asia
bear
britain
depends
destruction
dr
egypt
election
entirely
fair
fewer
forced
gdp
germany
homes
paris
possibilities
possibility
prize
radiation
roads
scared
september
shame
threat
toilet
tumor
videos
##ology
artificial
brilliant
conference
cooking
cyrus
disability
domestic
dying
elephant
hospitals
invest
lies
nations
passionate
protein
songs
studying
violent
worldwide
##by
##ric
##tions
boys
broke
centers
considered
de
dealing
dinner
dreams
elections
fighting
funny
grandfather
grandmother
helps
honest
hum
keeps
labor
mexico
ordinary
profound
proteins
smell
sold
stood
suffer
supply
typical
unless
versus
younger
##tors
argue
australia
capable
constantly
efficiency
emotions
engineers
environmental
fell
fundamentally
generations
hopefully
increasingly
notion
proud
shoes
survival
talks
tomorrow
transportation
viruses
wearing
youtube
##des
##place
acting
advice
awareness
bright
convinced
crispr
debate
deeper
doubt
ears
explained
foot
grown
hi
mentioned
mouth
mystery
rare
seriously
silent
therapy
thinks
treated
wow
##cent
##ians
##tain
##ulated
2009
21st
accurate
adults
advantage
anger
comfortable
court
danger
demand
designing
disorders
diversity
experts
exploration
fellow
fossil
garden
goods
haiti
honor
laboratory
leads
loud
manufacturing
mile
organized
perfectly
personally
practical
serve
struck
sudden
ten
tens
trouble
vulnerable
##its
##ures
abuse
achieve
agriculture
bomb
businesses
closely
consequences
deaths
democratic
disappear
disaster
educational
emissions
fibers
gain
generally
hell
interests
killing
march
mistake
mistakes
naturally
necessarily
oceans
pig
pleasure
quiet
ride
sanitation
soul
wondering
##car
##ery
##hed
##ished
##ons
##rable
##sm
coffee
connectome
cortex
desert
ear
empathy
figured
forests
hall
increased
jealousy
lay
losing
magazine
marriage
married
meaningful
mice
organ
principle
providing
remind
sees
sentences
solving
southern
specifically
stayed
stem
stronger
technical
techniques
unlike
washington
wear
worried
##ah
##ama
##bly
##my
aids
alzheimer
beach
bg
church
conscious
curiosity
ecosystem
embrace
equally
existence
faced
inspiration
introduce
memories
molecular
mortality
needle
obsessed
operate
physically
potentially
richard
roughly
solved
stone
thoughts
toward
traveling
##bia
##bling
affordable
amongst
challenging
chose
classrooms
consumption
council
covered
drove
emerging
engaged
entrepreneurs
explanation
fiction
formed
fought
grateful
humanitarian
hypothesis
indian
invited
lessons
los
microscope
organs
ours
perception
puts
sad
shaped
television
tradition
ultimate
vaccine
variety
wanting
weapons
wild
wk
##ky
##unt
admit
ages
anderson
anti
attacks
babbage
beetle
circumstances
clinical
commercial
cook
crying
cutting
earthquake
elderly
electronics
exercise
galaxy
heroes
innovative
interview
mit
opinion
pakistan
planning
pounds
prostate
seat
staff
standards
surely
surgeon
tied
tom
tonight
traveled
wheelchair
##ering
##ily
##uck
afternoon
angeles
arrived
bird
breakfast
commitment
conflicts
crime
crucial
deception
disorder
flying
fuels
gates
graduate
grows
harvard
implications
importance
interactions
island
jail
james
lady
lecture
milk
nobel
partners
personality
poorest
prosperity
radical
selling
sir
spiders
spreading
taste
technological
tissues
##ars
##ast
##ney
##sis
2000
badly
barely
bee
birthday
camp
coast
confident
continent
convince
creatures
essence
francisco
george
globe
hurt
ii
industries
iphone
judge
leather
maintain
nerves
nor
nowhere
offered
optimistic
oxygen
painful
paintings
participate
pm
presented
remains
researchers
saudi
scary
ss
succeed
suggests
tremendous
trick
uncle
usual
victim
wars
##hood
##ners
##pers
##sa
##ulating
academy
agreed
ai
al
aspects
colleague
competition
concerned
courage
drinking
ecosystems
emergency
engaging
england
evening
friday
gather
german
ghana
hoping
illusion
improvement
intelligent
june
keeping
leadership
measured
missed
mothers
paying
pocket
rapidly
relatively
rely
rice
severe
soup
stands
sweet
symptoms
weird
wondered
##aries
##ators
##ically
##ological
##ologist
##ored
##ory
##ray
##tter
##uate
##ung
##zy
2012
45
capitalism
carried
clarity
classic
clever
comet
computing
contribute
crops
dancing
diagnosed
dignity
dozen
environments
expertise
express
fortunately
grand
heavy
holds
horse
inevitable
infection
injustice
inspire
intellectual
interacting
largely
literature
metaphor
micro
occasionally
offices
organic
poem
populations
precisely
productivity
rats
sophisticated
speakers
taliban
teenagers
thomas
treatments
uncomfortable
wisdom
yours
##ages
##atory
##ography
##ome
##rine
##rts
##ug
2007
35
allowing
angry
awful
boat
burning
centuries
co2
coach
coke
colony
contrary
crowd
david
delivered
deserve
eastern
electronic
falling
falls
figuring
flowers
fresh
globally
goals
granted
increasing
insurance
islands
leonardo
literacy
mad
miss
mustache
organize
plenty
polio
prevent
prisoners
rocket
roof
secondly
served
spinal
staying
swimming
telescope
universes
warming
wherever
##etic
##iest
##iles
##lands
##ond
##posing
##rging
##room
##shed
##side
##stic
##ties
##uing
##ways
19
2001
2050
appreciate
aside
capita
celebrate
cents
clothes
collaborative
convey
cup
cybercriminals
debt
definitely
drill
edi
encourage
explaining
exploring
farming
fascinated
flower
frankly
grave
harm
investors
involves
journalist
leap
liked
measuring
movember
neither
newspaper
plastic
rarely
reconstruct
retina
retirement
rising
shelter
trials
tricks
trucks
van
whenever
whereas
##aking
##ale
##bi
##els
##fully
##house
##imize
##ina
##ined
##ites
##ives
##ley
##ously
##rant
##try
##zi
250
800
amounts
apparently
autism
bell
bow
breath
burden
cambridge
chicago
conclusion
congestion
crash
damaged
deadly
diverse
dramatic
ecology
efforts
engineer
existed
expanding
expert
fifth
focusing
folks
frank
functional
funding
genius
healthcare
horrible
instantly
institute
jeopardy
ladies
lens
mt
nanopatch
neural
oyster
parties
penis
physician
pink
poet
refugees
relate
reminded
renewable
reveal
seeking
singing
stanford
struggling
stupid
subway
suggesting
sustainability
swim
ta
tape
tesla
trends
underwater
universities
voters
walks
warm
youth
##acy
##are
##cus
##dle
##ility
##ively
##ntial
##pel
##rey
##ris
##tte
##work
achieved
activist
agenda
airplane
anatomy
arts
baseball
bats
beetles
behave
believing
blow
breaking
bush
calculating
carrying
chaos
climb
co
compete
concern
coral
corruption
cry
cute
defense
doodling
drink
emotion
empowering
epidemics
fallen
forgotten
former
generous
genomes
graduated
harbor
helpful
immigration
independent
influenced
invested
journalists
likes
lord
marry
mess
minister
multiverse
obesity
objective
pace
parking
paul
personalized
pigs
rat
recognized
richer
schizophrenia
sciences
sculpture
shit
shooting
similarly
spoke
stability
stations
surrounded
surrounding
teenage
tony
tragedy
typically
ugly
ultrasound
vital
wider
winter
wired
yesterday
##amine
##ching
##cies
##eer
##ened
##fit
##hand
##ike
##iled
##itive
##mon
##olve
##otic
##race
##rian
##rted
##ually
##vable
##via
##we
acts
adoption
affects
ah
announced
artwork
bathroom
beautifully
breathe
brothers
buses
causing
ceo
collagen
collecting
comedy
conclude
cooperate
diet
discuss
distant
donor
elected
entrepreneur
fusion
guilty
headed
hearts
herself
imaging
infected
ink
integrated
intervention
israeli
japanese
knock
la
lake
lets
luxury
mainly
makers
mathematician
methane
michael
microbial
morality
movements
naked
nasa
northern
nose
nutrition
official
overcome
paradox
participation
passive
photographs
professionals
properly
punch
robotics
russia
sadly
safer
separation
shock
shopping
shoulder
sisters
sits
speaker
surgeons
surveillance
sweden
syria
tackle
tension
threats
unusual
ward
##ari
##ational
##atts
##berg
##bert
##bits
##cence
##dies
##eers
##ica
##ils
##lan
##lap
##lities
##orn
##rises
##ucked
##unting
agencies
altogether
anxiety
approaches
archimedes
balls
band
begun
besides
blindness
breathing
cage
christmas
clue
concerns
corals
diarrhea
dogs
dozens
dramatically
economists
educated
egyptian
eh
electrical
engagement
ethiopia
experiencing
extinct
fabulous
footprint
foxo
golden
ha
hanging
homework
incentives
inequality
intact
jewish
jews
kingdom
laid
laugh
letting
lifespan
lovely
manipulate
medication
mexican
muslim
muslims
nelson
nerve
organism
organisms
ought
parkinson
parks
performing
physicist
pole
produces
proof
propose
rwanda
safely
saharan
sebastian
shifting
shocked
shy
silicon
situations
smile
smoke
spiritual
spoken
sports
stays
stranger
suit
terrorist
terrorists
texts
toy
traditions
ubiquitous
veterans
websites
##af
##gan
##gate
##gation
##ill
##inate
##inated
##inating
##ior
##ired
##lize
##mi
##nse
##ole
##omy
##ony
##ope
##ota
##plied
##posed
##pression
##rap
##rates
##ridge
##sions
##tric
##ua
##unted
##wing
##ying
1970s
99
academic
adapt
africans
arabic
astronomers
barrier
behavioral
biases
boom
bottle
buying
chair
chances
chemicals
collaboration
compelling
condoms
confused
congress
contemporary
continued
crack
december
designs
dig
dioxide
disabilities
disappeared
dominant
drew
dust
earned
educate
empire
evil
evolutionary
excuse
failing
fears
fingers
flew
forgot
gathering
gentlemen
gradually
grandchildren
grasp
grass
guns
happier
hardly
highway
horizon
hormone
imagined
interestingly
invention
lawyer
legislation
leverage
mammals
mandela
mate
mathematicians
minority
monkey
motivated
neanderthals
ngos
obese
originally
painted
philosophy
predicted
pretend
primarily
producing
programming
proportion
ptsd
pushing
quarters
quest
reaching
reactions
remarkably
resilience
revolutions
rolling
satellites
selves
senses
sensors
slowing
smarter
smoking
someday
spanish
stepping
strategies
subtle
suitcase
suppose
survived
survivors
talent
tie
ties
trauma
trustworthy
tuberculosis
villages
volunteers
whatsoever
##30
##cks
##den
##ila
##ining
##lies
##logist
##matic
##nating
##nded
##nding
##oked
##oration
##plication
##rous
##sia
##uated
##ubs
##uts
##vating
##vity
##zation
700
70s
72
80s
adventure
advocate
airbnb
alien
andrew
applying
archie
arctic
armed
artistic
asks
assumptions
attitude
boson
buried
challenged
charges
charles
continuing
conventional
costa
darwin
demands
depend
depressed
diagnosis
downtown
dutch
economist
emerges
eric
estimates
evolve
excellent
exhibition
fed
football
freespeech
fruit
gabby
generosity
greek
hang
hormones
huh
hydrogen
innovations
invent
joel
lego
liberal
luck
lung
mary
miracle
musicians
nets
nights
officer
pasted
patience
petition
philosopher
photographer
photography
pointed
pollen
pollution
poop
poster
pregnant
primate
primates
profits
programmable
promised
pushed
resist
saturn
shouting
sing
solly
somewhat
speaks
spectacular
steve
storytelling
surprisingly
tall
tears
texas
thirds
threatened
throwing
tired
trustworthiness
uber
vessels
visualize
wedding
wires
wolves
##70
##ades
##ancy
##ang
##che
##cho
##ctive
##eries
##esis
##fuse
##han
##iac
##ilia
##ken
##lated
##len
##lessly
##lessness
##mise
##mons
##more
##nated
##ncies
##olation
##ong
##pathy
##pic
##places
##pped
##rade
##ream
##rence
##ressive
##ried
##rily
##rove
##sity
##tate
##vasive
##vision
##water
2006
32
95
accent
agricultural
ambitious
anniversary
antarctica
appeared
architects
assistance
attacked
august
bat
beer
beliefs
belong
blame
borrow
boston
bother
bricks
briefly
calculations
cares
cave
cleaning
clinic
clouds
colored
competitive
congo
conservation
cope
corporations
counting
cow
crossing
crushed
curriculum
cuts
daf
differ
dose
ebola
ecological
embracing
emerged
empowerment
equations
explains
facilities
fate
finance
flies
freely
frustrated
garage
gathered
gay
gg
glacier
grades
halls
healing
honestly
hurricane
impression
ingredients
insect
inspiring
islamic
jesus
kansas
kick
labs
laughing
learns
lied
lit
lunch
males
managing
manuscript
mechanics
mechanisms
memorial
mk
mosquito
mountains
ms
narrow
neck
netherlands
nigeria
nowadays
nurses
occupy
officers
openness
opinions
paradigm
paralyzed
perceptions
perspectives
pete
pilot
posters
powers
productive
proved
pump
reasoning
reduction
refused
remained
retired
robotic
rocks
secular
selfish
significantly
singapore
sons
sounded
sperm
sticks
stolen
stones
strongly
syringe
tattoos
tedtalk
thirty
tragic
treating
understands
valley
venice
virtue
whoa
widely
widespread
##ane
##arily
##berry
##cination
##city
##clusion
##ctic
##ders
##elling
##ening
##ern
##ert
##ever
##fted
##fying
##gain
##herent
##ibly
##ited
##lity
##nal
##nic
##nter
##ones
##orous
##ploy
##ployed
##rawl
##raying
##ress
##rial
##runk
##rus
##rush
##tend
##tended
##tling
##tory
##ttered
##tude
##ubling
##urse
##ury
##vated
##ven
##verse
##ville
##vis
##vised
404
accountable
activists
adopted
appeal
appear
arrested
atomic
attractive
audiences
authorities
backwards
banks
barrels
barriers
bhutan
biodiversity
bite
bla
blast
bombs
boss
brian
brooklyn
cables
civic
clues
coca
cola
consequence
county
couples
crew
dancers
dating
decline
dedicated
defend
deforestation
disgust
eaten
egyptians
enabling
establish
exploitation
fan
fancy
february
feeding
females
films
firing
flowing
foie
fortune
founded
fueled
gaining
gore
gras
guinea
habitat
handed
homeless
housing
hunger
impacts
improving
independence
infections
infectious
informed
injury
innovate
insecure
interventions
intimate
islam
killer
kitchen
korea
lawyers
lifted
limestone
listened
mainstream
marine
martin
meetings
merely
millimeter
ministry
narrator
novelty
november
nutrients
obama
olds
origins
pervasive
polar
powered
presidential
prey
projections
prosthetic
psychology
rainforests
rape
rapid
recognizing
regularly
remembered
renewables
replicate
revenue
ringing
rivers
rna
rose
rush
shall
shine
shops
slides
slums
soldier
soldiers
soviet
specialized
stomach
suffered
sunday
supermarket
suspect
tea
terrified
terror
texting
theoretical
theories
titan
traditionally
traits
transmit
traumatic
tunneling
twenty
unbelievable
unprecedented
visitors
vocal
wealthy
wikipedia
william
wireless
worm
##12
##ack
##alin
##ason
##away
##beration
##bic
##bra
##cope
##dication
##duced
##gram
##gy
##hi
##hing
##icides
##ifying
##ild
##ines
##iring
##irs
##ison
##jo
##las
##lating
##lets
##lie
##mmer
##mond
##nald
##nces
##oe
##ool
##power
##ptic
##races
##rge
##ribute
##rious
##rise
##sisted
##sty
##tail
##take
##ths
##trating
##tting
##ued
##unding
##urn
##usive
##uting
##vise
##wed
abandoned
accomplished
alongside
amazed
analogy
arabia
architect
astonishing
atlantic
augmented
babylon
barbershop
basement
basics
bears
bike
biologists
blowing
boring
breakthrough
breast
broader
cairo
calculus
ceiling
chairs
charged
cheese
chef
clay
communicating
communications
constitution
controversial
cooked
cooperation
cord
countless
criminal
damn
delight
desk
despair
diffusion
dirt
distinction
dragline
elsewhere
emotionally
evan
exploit
farms
farther
fence
fits
flourish
fool
forming
gained
givers
graffiti
gravitational
guests
historically
hitting
horror
hurts
immigrants
indigenous
insane
iranian
iron
jean
jh
jihad
korean
labeled
landed
laptop
lasted
lectures
libya
losses
magical
magnificent
mario
mastery
meanwhile
medications
metronome
monkeys
motivation
murder
na
obstacles
odysseus
organizing
palestine
panels
panic
parliament
partnership
passenger
peaceful
perceive
ph
phenomena
philosophers
physicists
pockets
practically
predictions
pride
proposition
proust
psychological
pyramid
queen
realization
reef
replacing
revealed
ridiculous
risky
robust
significance
silks
silver
socially
spends
sport
staggering
sticky
synapses
syndrome
tbp
teenager
terrifying
theirs
thrive
tide
tiger
till
toll
tomato
tongue
transducer
trapped
trash
trips
truths
tube
tumors
twins
upside
utterly
youngest
##aded
##aks
##ards
##aze
##bration
##break
##ches
##door
##dus
##east
##eds
##eeks
##eering
##eration
##ession
##ette
##fire
##fish
##front
##hips
##iary
##iate
##iated
##icious
##icity
##inning
##ishes
##iss
##itions
##ius
##ival
##kers
##lay
##lia
##mes
##nap
##nny
##olis
##onia
##pes
##pet
##pies
##pressed
##quity
##ren
##rged
##rians
##rified
##rify
##rim
##rming
##thy
##uating
##ucks
##ucky
##ules
##using
##vin
##zer
1945
1999
38
86
abortion
absence
abundance
accelerating
accidents
adam
adapted
affairs
affecting
altruism
ambulance
appears
approaching
arabs
assemble
assumption
astronauts
authentic
automated
bacterial
bamboo
beating
behalf
brands
bridges
budgets
canadian
cartoon
cathedral
charity
chile
chimpanzee
chronic
circuits
cochrane
collaborate
confined
continues
controlling
covering
daisy
dan
dare
dear
decent
decides
delicious
dental
desperately
devastating
disagree
discoveries
discussions
dominated
dress
ed
eggs
electrons
emma
empowered
encouraging
endless
engineered
enhance
exercises
exponentially
extroverts
fastest
feminine
fifty
findings
fishing
fitness
foster
geographic
germ
girlfriend
grandparents
greece
guarantee
handful
happily
healthier
heforshe
hemisphere
henry
herd
heritage
hire
histories
hometown
honey
hopes
hotels
household
hp
identified
improved
inch
incident
informal
injured
investigate
jane
jaw
jennifer
jerusalem
judgment
july
jumped
jungle
kicked
kidding
knees
lifelong
limitations
luckily
lymph
malarious
mall
masters
mere
mic
missouri
mouths
muhammad
mutations
myth
neuroscience
nike
norway
october
offs
onstage
optimism
oxford
palestinian
passing
passions
pasting
peoples
pharmaceutical
philadelphia
phrases
pity
planted
politician
poo
portraits
precise
prefer
prince
programmer
programmers
propaganda
protecting
pulling
pursue
rainforest
rb
reasonable
receptor
regardless
regime
rescue
responded
revenues
riding
sacred
sandy
sarah
saturday
scholars
seats
seemingly
sexting
sexually
sexy
shelf
shirt
shorter
shortly
silly
simultaneously
skeletons
smells
smith
spain
spheres
staring
stealing
straightforward
structural
sugar
sustain
synthetic
tale
tendency
tends
terribly
textbooks
toilets
ton
transforming
transplant
trap
tuition
tunisia
tunnel
uganda
upset
urge
ushahidi
vibrating
virtually
vivid
waited
weigh
whale
winning
woods
##20
##ague
##ams
##aring
##arity
##asis
##boards
##cting
##dam
##dled
##ections
##eologists
##even
##fies
##fold
##fuge
##fulness
##ginable
##hade
##ham
##have
##he
##hop
##hore
##ially
##iance
##idal
##igating
##ima
##inable
##inary
##inted
##isms
##itch
##ivating
##iving
##laws
##lers
##licate
##mic
##nied
##night
##non
##nster
##ntities
##ntity
##oids
##ois
##ologists
##oms
##oring
##pack
##piece
##play
##plify
##ptive
##rch
##reed
##ribed
##rifying
##rill
##robable
##roid
##ruce
##scopic
##sign
##sters
##tee
##tel
##tly
##tone
##uba
##uct
##uilt
##uins
##ull
##unce
##uns
##urge
##urs
##ursor
##usion
##uted
##wood
absorb
absurd
accelerate
actively
advent
afterwards
agents
alcohol
amazingly
apartments
approximately
april
arranged
ashamed
attending
authenticity
automobile
autos
awkward
basketball
beloved
belt
bicycles
boyfriend
bruno
bubbles
bump
burned
burst
calories
carnegie
catastrophic
celebrity
charter
chemist
chimpanzees
chocolate
citizenship
cleaner
communal
conor
consists
consuming
convincing
copying
cosmic
cosmos
cracks
critically
crossed
daniel
deaf
demographic
demonstrate
demonstrated
determined
devil
dh
diameter
diego
diplomacy
discipline
discrimination
disturbing
doodle
dopamine
drawings
emerge
encouraged
enormously
faint
faiza
fans
fathers
feminist
foods
footage
friction
frightening
gallon
gear
glad
gods
gon
goodness
guitar
habitats
hamburger
hannah
headlines
hebrew
heroic
hired
historic
hollywood
holy
honesty
honeybees
ill
illnesses
imagining
immense
immigrant
impressive
improvements
incomes
indonesia
initially
intangible
intense
intriguing
intuition
ironic
italy
jam
johnny
joshua
journalism
jupiter
kidney
kilos
laboratories
lander
lanes
liberia
liberty
littlebits
lungs
manuscripts
mohammed
mood
mum
museums
naive
neanderthal
negotiate
nl
nurse
oecd
offering
ongoing
opposed
overnight
pacific
parasite
participants
passes
pathway
pathways
peculiar
persuade
philosophical
pigeon
placing
planting
pollination
popcorn
positioning
pound
practicing
precious
predictable
pregnancy
prevented
prisons
privileged
promote
protests
psychiatric
psychologist
pursuit
qualities
realities
recommend
reconciliation
refuse
reinvent
relatives
relief
reporters
retire
rezero
romantic
rubble
salary
sarajevo
secretary
seduction
shaking
sighted
singers
skull
skype
slavery
smooth
socioeconomic
somalia
sooner
sp
spacecraft
st
steal
stimulation
storycorps
striking
sufficient
supreme
switched
sydney
teen
temple
tenth
textbook
threw
thrilled
thus
tone
trains
tsunami
underground
unhappy
unintended
urbanization
urgent
useless
victorian
vietnam
virgin
vivian
weighs
whales
wheels
whoever
wings
wise
witnessed
wives
worms
wrist
yard
##60
##79
##ading
##ains
##aked
##akers
##amination
##arl
##asant
##bc
##berate
##brate
##care
##cha
##cial
##cid
##cipe
##cities
##cles
##clusive
##dance
##dden
##dder
##duce
##ductive
##elor
##ends
##eology
##eric
##fusion
##gers
##graded
##hew
##icial
##igorous
##imate
##imeter
##istrust
##istry
##itimate
##itors
##ker
##legic
##lete
##listic
##lix
##los
##lum
##makers
##mates
##mented
##metric
##metry
##minate
##mine
##nial
##obe
##ods
##oke
##ola
##omical
##onal
##oning
##ots
##oyal
##pia
##print
##ption
##pus
##rass
##rassed
##ribe
##rip
##rist
##rit
##rize
##rosion
##round
##scent
##sta
##state
##sy
##tification
##tles
##uard
##uded
##uel
##ues
##uistic
##ulous
##urfing
##urity
##uum
##yan
##yl
##zar
abundant
accenture
accountability
acids
activism
actors
adopt
ag
aged
alex
alexander
allies
amen
antibiotic
antibiotics
arrive
asian
asphalt
ate
atlanta
attacker
attracted
aunt
backed
bacterium
bake
barrel
batteries
bay
bc
beaten
believes
belongs
beneath
bites
blown
boil
boltzmann
brave
brief
bronx
campaigns
campus
cared
carol
catholic
celebrated
cerebral
characteristics
chasing
circuitry
classmates
cloth
coined
collaborator
compassionate
conditioning
connectomes
conservative
conspiracy
cousins
cruel
cues
curator
daughters
deer
denial
deserts
desperate
determination
devastated
difficulties
digging
displaced
dive
documented
documenting
donna
dropping
educators
el
enforcement
enzymes
equilibrium
ethical
excitement
exhausted
exile
expecting
expressed
extinction
famously
fixing
fluctuations
foundations
fragile
friendship
fulfill
functioning
gandhi
gaps
genocide
glaciers
governance
gowanus
guards
guilt
hackers
halfway
harry
heaven
highways
holmes
honduras
hop
hunter
iceberg
idiot
illustrate
imagery
inherently
initiative
injuries
innovators
inorganic
instinct
institutional
intention
intentions
interpret
interviews
intrigued
inventing
inventor
investigation
investing
invisibility
irrigation
jr
lamb
laser
lee
lhc
limbs
livestock
loans
lolcats
looting
louder
marduk
maria
marriages
marrow
meerkats
membrane
messy
millennia
mimic
mirrors
mm
mo
moreover
newspapers
noises
nonetheless
obtained
officials
operated
orb
orbiting
originals
outward
participating
partly
pee
phenomenal
phoenix
plasma
polarization
politically
prayer
prediction
princess
procedures
professors
programmed
promising
prosthetics
protest
psychotic
punishment
purely
purple
radically
reaches
reactor
realistic
rebuilding
recession
recovered
reduces
refugee
reinventing
reminds
researcher
resilient
responds
reuse
revolutionary
rises
roger
rough
rubber
sake
scholar
scream
screening
senior
settled
shifted
shining
shower
sierra
simpler
sized
skeptical
slower
smartphone
snow
spark
specimens
stigma
stockholm
stressed
stretched
struggled
stuxnet
supporting
surgeries
surgical
surplus
surviving
systematically
talented
tanks
tehran
tenderness
threatening
thriving
toes
touches
touching
towns
toxic
trafficking
transferred
tribal
tribe
trillions
trivial
un
ups
vacation
verbal
viewed
volunteer
voyager
wasted
wine
wing
wound
yale
yr
zimbabwe
##13
##40
##85
##aid
##ainable
##ament
##arse
##ases
##ashed
##atch
##att
##avor
##aw
##azz
##bbie
##bian
##bled
##bm
##born
##bow
##cidence
##cinations
##cist
##claim
##coming
##con
##crew
##ctuation
##cture
##dar
##dest
##dic
##diction
##die
##dified
##doors
##ees
##efficient
##elves
##ensation
##ensible
##eological
##eping
##ese
##estimate
##eze
##faction
##fall
##fes
##ffle
##fic
##force
##gic
##give
##giving
##gle
##graphy
##ground
##harks
##heads
##heat
##here
##hold
##hou
##ials
##iaries
##iating
##ich
##icted
##ides
##ilation
##ilized
##ingly
##ini
##iously
##iped
##ipes
##isa
##istress
##itative
##itched
##iture
##ivable
##ivor
##lain
##lash
##lave
##lee
##lizing
##lly
##mart
##mas
##meter
##mill
##moving
##nging
##nity
##nna
##not
##ntly
##ographic
##ologically
##olving
##omic
##ood
##ops
##orate
##oric
##ought
##ows
##passed
##phone
##plete
##plicitly
##plicity
##pling
##ploded
##posal
##production
##quez
##rading
##rals
##rands
##ras
##rations
##read
##rection
##requent
##rest
##rick
##ride
##riving
##rture
##rude
##ship
##sional
##stitute
##structive
##style
##sume
##suming
##tach
##tar
##tarian
##tch
##tent
##think
##tical
##tie
##uana
##ubble
##ucted
##uding
##uiz
##ulsion
##ulus
##umble
##umbling
##umen
##ums
##unes
##unts
##uo
##urbs
##usable
##vans
##vator
##venient
##version
##vine
##vio
##vitation
##xed
##xious
##zone
##zzing
1900
1930s
1950
1980
1991
1995
2002
48
60s
abused
accurately
ad
advantages
adventures
afghan
aiming
ak
ambition
amino
angels
annoying
answering
appreciation
argentina
assembled
assembling
asylum
attract
backyard
bali
battles
bedroom
ben
bimetal
biologist
bizarre
blew
boiling
bonds
bonica
brick
bucks
butler
camps
captain
chad
chernobyl
choosing
christian
cinema
clothing
collaborators
colorful
coma
comparing
competing
complained
conductive
confession
confronted
consciously
continents
corrupt
couch
coworkers
cream
creatively
crimes
cultivate
da
dances
daycare
defending
delighted
deserves
destroying
diabetes
dinosaur
disrupt
domingos
dude
dynamics
eager
elementary
embraced
emergence
empower
enjoying
entrepreneurial
ethic
evaluating
evolving
ex
exhausting
expressing
facilitate
fantasy
fashioned
filming
filmmaker
fingertips
firm
fled
florence
fluorescence
fooled
formation
fracking
fraud
fright
ft
futureless
gasoline
genetically
gigantic
glimpse
golf
grading
grains
grandma
gratitude
greenhouse
gross
guided
gulf
hacking
hal
hardest
harmful
heavens
heel
hence
hill
hoped
hug
hybrid
ian
imperative
implanted
implication
impose
impressed
inadequate
indoors
infect
inform
integrity
intensive
intricate
intrinsic
introverts
irony
italian
jb
jealous
jeff
jet
joining
josh
kiss
koran
lastly
laughed
le
leaning
lethal
limitation
lion
liver
loan
logistics
longing
magnets
mankind
maslow
meets
metabolic
milky
millennium
minded
miners
modest
mysterious
nanotechnology
ngo
nightmare
noisy
noticing
numeracy
nutritious
occurring
olympics
opec
opera
origami
overseas
packaged
pants
paralysis
parenting
passively
perceived
phd
physicians
pill
piracy
portuguese
posed
poses
potter
pour
pouring
prioritize
problematic
profoundly
prone
publishing
punched
reacting
realizing
recruit
reducing
reefs
reinforced
relentless
renaissance
researching
resistant
responsibilities
restaurants
revenge
rides
robert
rockets
rolled
roofs
rooted
rosetta
scares
scotland
seas
sensing
sensory
serving
shocking
shoe
shots
shout
shrink
sidewalk
spare
specialist
speeding
spill
spiral
spoofer
spreads
stakes
stephen
stepped
strike
strive
supplies
sustained
tanzania
targeted
taskrabbit
temples
temporal
terrific
theft
thermal
thermo
throat
tight
tk
transformative
transmission
transported
tricky
troll
tropical
ubuntu
uk
ukraine
undergraduate
unpredictable
vantage
vary
veteran
vice
virginia
virtues
volumes
volunteered
voted
vr
wash
weaving
wheat
woke
wooden
zealand
id
selecting
summing
subquery
donation
incidents
identifies
dividing
initiatives
donors
donations
usa
averaging
vessel
respectively
startups
suppliers
q1
missions
vegan
investments
tours
recycling
multiplying
faculty
violations
eco
warehouse
fare
2017
dishes
limiting
wells
31
q2
garments
attorney
specifying
vulnerabilities
autonomous
artworks
cruelty
attendance
accommodations
tokyo
policyholders
donated
garment
founder
excluding
attendees
attorneys
q3
aircraft
shipments
tourism
certified
conducted
1000
expenditure
publications
underrepresented
departments
florida
attended
broadband
oceania
partitioning
wellbeing
southeast
00
certification
exhibitions
recycled
workout
tourists
shipped
participated
athletes
concerts
awarded
dish
ingredient
beds
cuisine
subtracting
personnel
sequestration
partitioned
cybersecurity
compliant
workouts
lag
fairness
sourced
clinics
vegetarian
unions
cte
esg
manufactured
landfill
ethnicity
permits
inspections
manufacturers
certifications
quantities
inspection
competency
timber
peacekeeping
adaptation
dateadd
genres
preservation
caribbean
mitigation
founders
dispensary
seattle
clauses
5000
athlete
concert
biotech
dispensaries
founding
excavation
pedagogy
accessibility
mediterranean
cosmetics
bookings
followers
shariah
regulatory
skincare
destinations
sourcing
wildlife
calorie
strain
divides
playtime
donorid
esports
residential
cotton
midwest
permit
districts
lgbtq
contractor
moisture
visits
playerid
policyholder
eu
complaints
warehouses
accommodation
combines
strains
subqueries
wastewater
americas
dissolved
restorative
astronaut
retail
borough
q4
h1
endangered
policing
acidification
toronto
extracting
vendors
wage
ny
contractors
fleet
separately
datediff
getdate
northeast
berlin
investor
artistid
biosensor
drought
oregon
rainfall
colombia
mineral
contributed
salesperson
expeditions
filed
06
displaying
colorado
textile
explainability
diversification
spacex
fares
removing
kg
sightings
workplace
enrolled
explainable
advocacy
programid
donationamount
seafood
bargaining
decentralized
fiscal
bioprocess
hashtag
latinx
corresponds
assessments
meals
consecutive
satisfaction
developers
ethics
makeup
readers
salaries
oakland
deployed
apac
donationdate
illinois
inclusion
doe
gluten
10000
workshops
mumbai
capacities
gameid
albums
##sales
dysprosium
freight
siteid
mw
nationality
##year
seoul
cannabis
fabrics
inserting
popularity
hr
miami
advisories
employed
2024
investigative
racial
drilled
tx
bikes
trainings
cosmetic
maritime
neodymium
streamed
lending
impairments
emergencies
frameworks
workplaces
programname
horsepower
ip
memberid
peru
algorithmic
dams
funded
offenders
medals
performances
##projects
ontario
trunc
volunteerid
hashtags
urbanism
##score
pallets
spacemissions
disasters
101
assists
asterisk
expectancy
mined
purchased
boeing
europium
creators
restricts
50000
categorized
operational
iot
vancouver
averages
basin
expenditures
arizona
terbium
aquaculture
households
polyester
trenches
curdate
harvested
corp
considers
hourly
antarctic
attorneyid
rio
memberships
advisory
postpaid
rd
gadolinium
janeiro
vaccinations
1001
hiredate
corn
precipitation
querying
esportsevents
ethnic
modifies
salinity
ota
complaint
excludes
residents
soccer
barcelona
excavationsites
rome
##00
jazz
counties
geopolitical
prevalence
abc
sitename
drilling
negotiations
viewership
covid
nba
depths
gram
bangladesh
cbt
festivals
heritagesites
johnson
citations
hires
airline
workshop
h2
hispanic
hydroelectric
occupancy
temperatures
tonnage
100000
1500
directors
premium
customerid
malaysia
biosensors
contributors
festival
gaming
malware
garcia
studentid
copper
hectares
installations
negotiation
austin
denver
northwest
policytype
acres
specialty
ethically
provinces
scooters
cyber
textiles
tourist
taxis
emea
michigan
nyc
affordability
considering
rated
contributions
ridership
31st
employeeid
salmon
alphabetically
departure
exoplanets
multimodal
turbines
unemployment
255
humanities
volunteerhours
attractions
correlated
therapists
madrid
restaurantid
acidity
assigning
ev
haircare
impacted
retailers
##types
houston
awards
rigs
gb
thailand
impressions
preceding
preparedness
##events
georgia
chatbots
geothermal
rovers
shale
ensuring
nonprofit
beijing
donorname
lanthanum
nevada
policyid
portland
administered
summed
tunnels
greenbuildings
depleted
deployments
fruits
halal
minerals
nonprofits
pd
sighting
spacecrafts
airbus
agroecology
engagements
exhibited
galleries
involving
reserves
therapist
impressionist
trench
dapps
offshore
readings
yoga
delhi
eventid
aggregating
aliased
approvals
categorize
365
tilapia
flown
intake
##location
mwh
startdate
varchar
tonnes
##tech
menuitems
quebec
hockey
inspected
tournaments
##programs
navy
applicants
landfills
restrict
retailer
semester
gamename
ntile
expedition
##amount
##country
##products
09
alaska
burger
productid
ree
gym
456
coalesce
nato
prepaid
shark
philippines
policyholderid
rica
depletion
disinformation
communityhealthworkers
platinum
supplierid
vesselid
aquatic
capitalization
towers
countryid
spacetech
enrollments
hydro
locally
naval
rounding
tier
valuation
##budget
500000
5g
bipoc
druga
samarium
southwest
workouttype
acre
farmed
speeds
studios
datepart
galactic
gametype
lastname
adoptions
aircrafts
caloric
packaging
stadium
astrophysics
conferences
crane
financing
lipstick
microfinance
offender
otas
preserved
vaccinated
fl
greenland
mariana
arrivals
converting
establishment
##000
citya
impressionism
teamid
classical
contributor
stocking
uninsured
##hours
##revenue
countryname
esa
manufacturerid
accordingly
cargos
consultations
cultivation
fintech
lipsticks
oceanography
phishing
trams
##scores
claimamount
lockheed
frequently
hectare
interacted
occupation
suburban
vegetables
chicken
dallas
wastegeneration
compounds
eliminate
hemp
kwh
tennis
voyage
08
30th
artpieces
greentech
pc
wa
assuming
defendant
diagnoses
grams
outreach
representative
subcategory
##stations
1000000
gamedesign
melbourne
nepal
paulo
projectid
quinoa
courier
nitrogen
precinct
volcanoes
##cost
##level
##status
baltic
jan
summarizes
admission
dept
filing
offense
sanctuary
signups
##game
alberta
cape
portugal
quantitysold
breakdown
chatbot
coastal
forwarder
km
practitioners
recyclable
stadiums
vaccination
voyages
##001
launchdate
mentalhealthparity
routeid
safetyrating
veggie
yttrium
biome
cricket
freshwater
minorities
rn
sculptures
##category
artifactid
jersey
leed
achieves
allergens
appearances
cultivators
dairy
fertilizer
laborers
mammal
precedents
caseid
enddate
holmium
lakers
marinelife
ohio
researchgrants
weatherdata
exam
identifying
linking
philanthropy
pottery
reform
rover
##games
##incidents
##initiatives
##materials
8000
artworkid
cityname
impairment
joindate
permian
tops
unionid
assistive
defendants
geological
manufacture
percentile
residing
serviced
shelters
##history
artistname
eventdate
regionname
releaseyear
unesco
aquafarm
harvests
troops
weekdays
afterward
columbia
islander
nfl
regionid
appetizer
attraction
cb
courts
forestry
liters
merchandise
roaming
sanctuaries
unionized
##capacity
##demographics
##quantity
##stats
7000
amountdonated
cityb
mbps
montana
playergames
racing
raytheon
renewableenergyprojects
spacecraftmanufacturing
volunteerprograms
beneficiaries
collaborations
dapp
financially
sativa
temperate
tenure
tram
##costs
##garments
##region
29
aum
acme
cargoweight
culturalcompetency
il
iss
issustainable
marcellus
rollup
saledate
spacecorp
workerid
cultivator
cycling
evaluations
hazardous
modifying
precedent
##consumption
##ratings
##transactions
##ports
201
louisiana
oklahoma
praseodymium
recyclingrates
surrealism
utah
warriors
agroecological
analyzed
archaeologists
bills
boroughs
excavations
lenders
linen
seasons
sodium
vuln
##streams
4g
amsterdam
defenseprojects
montreal
orgid
playerids
safetyincidents
sophia
svalbard
turkey
volunteerdate
ambulances
billable
fines
genetics
headquarters
machinery
medal
outdoor
pivots
rebounds
sequestered
sharks
spills
sqft
##accommodations
##inspections
1970
artifacttype
electricvehicles
hong
jakarta
jobtitle
mineid
spotify
supportprograms
thc
accessories
airports
appliances
cargoes
decommissioned
dismissed
drills
durations
ferry
follower
genders
geostationary
hiring
hospitality
initiation
insured
maintained
offenses
reviewed
riders
shrimp
therapeutic
wages
weekends
##usage
##ending
103
20000
billingamount
eagle
eventtype
graduatestudents
isro
incidentdate
kong
militarypersonnel
miningsites
roscosmos
sids
smartcontracts
arriving
assisted
audits
backgrounds
clearance
contributing
denim
fetches
indica
knots
lender
m3
oncology
productions
psychotherapy
sequencing
unsold
##gender
##ids
##missions
##statistics
12345
asean
autoshows
cerium
donortype
farmid
fishspecies
ford
gamesessions
garmentid
heartrate
leo
morocco
pilates
solana
waterusage
automotive
benefited
billed
booked
boreal
carriers
datasets
determining
firefighters
gardens
grad
immunization
onshore
podcasts
populous
regional
shirts
sponsored
stocks
tanker
v2
##impact
##violations
##atches
##ills
001
15th
2030
750
alabama
buildingpermits
bulls
caspian
environmentalimpact
fifa
genreid
healthequitymetrics
maxspeed
monday
rodriguez
taylor
ticketsales
unionmembers
vip
allergen
exoplanet
extractions
fraudulent
inmates
interviewed
juvenile
mangrove
nail
priced
scooter
smartwatch
truncating
##records
##sea
##sites
animalpopulation
brazilian
claimdate
clientid
departmentid
istanbul
latam
miningoperations
salad
timestampdiff
tofu
totaldonation
tuna
achievements
advertiser
completions
constellation
coordinator
country1
country2
diamond
paraben
races
rail
soybean
sustainably
targeting
##123
##dates
##insurance
##investments
##maintenance
##players
##research
##sessions
averagespeed
contractorid
drama
drugc
dubai
erbium
excavationsite
ipo
intelligenceoperations
kyoto
louvre
measles
membershiptype
opendate
patel
premier
swift
vradoption
vehicletype
workoutdate
xl
affiliation
census
disputes
farmland
funder
hearings
indicated
instructors
investigator
issuance
marginalized
negotiated
pivoted
quartile
representatives
resulted
tenured
underwriting
##attendance
##cases
##details
##locations
##outcomes
##price
##source
##workers
105
bolivia
cardano
designerid
eventname
fda
facultyid
gamegenre
gamesplayed
hawaii
hawaiian
languagepreservation
latino
nhl
productname
renewableenergy
responsetime
totalrevenue
vendorid
ytterbium
asteroids
belonging
concentrate
crafts
cte1
disbursed
entertainment
ethnicities
exchanges
listings
openings
phosphorus
scorers
specialize
underwriter
votes
wellness
##003
##01
##brands
##corp
##duration
##factories
##gb
##species
##itation
cityx
cybersecurityincidents
disabilitytype
ghi
indigenouscommunities
inspectiondate
legends
militaryequipmentsales
museumid
pennsylvania
projecttype
rotterdam
shanghai
shooter
climatechange
concierge
dining
dresses
earnings
excavated
ferries
fragrance
influencer
involve
jeans
judges
ore
qualifying
reservoirs
rider
sentencing
unemployed
utilization
zinc
##21
##america
##buildings
##farms
##items
##services
##visitors
##action
##dge
##ntid
##uality
agegroup
bronze
cityc
digitalassets
fortnite
gmo
gamepreference
guardian
iceland
moscow
nairobi
neighborhoodid
playername
republic
sao
são
transactiondate
uae
venus
wastetype
advocates
agri
annually
bedrooms
captains
categorizes
ceramic
cm
fewest
hypertension
journeys
kw
manned
mediation
mentions
oceanic
recirculating
reservoir
rugby
seller
spectators
turnover
##11
##categories
##donations
##employees
##facilities
##farm
##training
##waste
##ername
##ruit
##vals
2013
301
75000
asc
aerospace
ahmed
ammonia
bangkok
baroque
cve
celtics
drugb
gogh
haze
instagram
jordan
manufacturername
mentalhealthscore
stddev
songid
stellar
admissions
alters
asthma
edibles
enclosed
entree
fleets
flood
forwarders
gallons
opted
pollutant
populates
premiums
serves
shuttle
solo
storing
##002
##funding
##policies
##safety
##alth
##ingdate
##our
##pent
##ruck
##xide
2026
2xl
3001
501
aapi
andes
barents
brandid
chw
carbonoffsets
cityid
cybernetic
dbt
dota
grumman
guatemala
hoursplayed
jamal
kush
lagos
nullif
nissan
northrop
promethium
rivian
tvshows
tencel
ticketssold
trout
volunteerevents
xs
beans
dives
fouls
hazard
headsets
implying
intel
intersecting
outages
petitions
seating
sq
turbine
upcycled
utilizing
veganism
##10
##87
##airlines
##artworks
##beds
##countries
##genre
##health
##launches
##program
##typeid
##culture
##erid
##erial
##own
##ror
artcollection
astronautid
brandname
cs
causeid
communityhealthworker
departmentname
detroit
drugd
exhibitionname
kim
militarybases
og
oak
pasta
requestdate
restoration
santos
smartcities
storeid
trainingtype
visitorid
warehouseid
yankees
yemen
astrobiology
av
bipolar
birthdate
commission
dessert
droughts
enterprises
investigations
latter
pharmacy
polish
profitable
seismic
specialists
telemedicine
underwriters
unvaccinated
weekend
##80
##assessments
##month
##prices
##results
##temperature
##visits
##abilities
##ai
##air
##ects
##ences
##old
##ouse
##reme
##utions
##wan
##wners
accommodationtype
acid
artifactanalysis
austria
bakken
boutique
charlie
citydata
dc
druge
falcon
infrastructureprojects
jaxa
kahlo
osaka
practicearea
queensland
researchpapers
routename
safetytesting
soybeans
suppliername
sushi
traditionalarts
virtualtours
volunteername
williams
acreage
airlines
archaeologist
cba
complied
correspond
counseling
exams
floors
footwear
graduation
hailing
influencers
jurisdiction
mature
mph
multiplayer
outage
parabens
penalties
phylum
portfolios
preserving
region1
rehabilitation
seals
separates
smokers
spacewalk
submersible
summarizing
telescopes
therapies
unloading
upgraded
uranium
##bycountry
##certifications
##company
##conditions
##devices
##eo
##emissions
##members
##percentage
##speed
##vessels
##waterusage
##acial
##alm
##craft
##ctors
##dom
##gin
##icide
##iesel
##inct
##iscose
##lor
##losed
##lots
##ora
##rease
##sian
##tangible
##ther
##tilities
##umba
##urglary
##vative
##xcavation
##xpenses
astrocorp
bae
bohemian
cafe
cambodia
casebilling
casetype
collectivebargaining
communityengagement
countryb
defensecontracts
ets
extractiondata
gamedesigners
metropolitan
moderna
pfizer
picasso
policynumber
portid
releasedate
renewableprojects
riskscore
salesdata
securityincidents
signupdate
streamingdata
ticketprice
totalbilling
totalsales
unbounded
uniswap
vessela
westside
abbr
acted
arrests
assist
averaged
checkup
coaches
coowners
corporation
decommission
decreasing
exceeds
fertilizers
firms
geology
heaviest
hospitalizations
influenza
journals
malicious
mortgage
olympic
orbits
pharmacies
plots
practiced
proficiency
quarterly
referencing
refillable
spacewalks
stablecoin
walkability
wool
##centers
##disabilities
##mines
##performances
##population
##sc
##sightings
##ago
##alls
##ara
##come
##eetings
##ices
##igation
##iner
##iverse
##mail
##outs
##reak
##system
##town
##unities
##ush
##utreach
##uty
##vators
##vements
##wal
##wards
##°c
5678
accra
arabian
artforms
artifactcount
bistro
cvss
cityy
communityevents
communitypolicing
designstandards
ema
foia
facilityid
fashiontrends
fundingsources
gamea
landfillcapacity
marinespecies
messi
mississippi
orgname
pablo
panda
pompeii
portvisits
prizepool
productingredients
puerto
streamingplatforms
teacherid
textilesuppliers
toyota
wyoming
advisors
bono
cardio
cuisines
diversion
docking
exploited
lunar
mediators
microplastics
neurology
playlists
prolific
railways
recreation
rehabilitated
subtraction
tabular
team1
teletherapy
tugboats
vineyards
##005
##456
##50
##789
##activity
##advocacy
##areas
##artists
##departments
##exhibitions
##fabrics
##levels
##make
##ocean
##played
##player
##properties
##reports
##routes
##sustainability
##trends
##wage
##wh
##ackets
##ae
##ampaigns
##atre
##avorable
##dium
##ecord
##edan
##ensitive
##eployment
##evice
##forestation
##hargingstations
##havior
##hoes
##ht
##iod
##ising
##ision
##letics
##lood
##mary
##mitted
##oard
##ook
##oon
##ower
##pan
##pecial
##peech
##reaks
##rofessionaldevelopment
##rotected
##uilty
##vers
##wear
002
1m
andalusia
animalname
artheritage
autonomousvehicles
biotechnology
bollywood
bowl
budgetallocation
budgetamount
bunny
corr
circulareconomy
countryx
creationdate
eastside
explorers
farmerid
frida
garmentsales
hiit
knicks
lifeexpectancy
mentalhealthscores
menuid
museumname
nj
norwegian
oilwells
programdonations
publicworks
purchasedate
quantityused
roi
raptors
reportdate
spf
skincareproducts
sudan
uefa
uptown
vesselname
vincent
wnba
abbreviation
agroforestry
anomalies
apparel
autonomy
basins
borrower
canyons
chargers
decreases
depot
dietary
discharge
divisions
dyes
eia
endemic
es
eyeshadow
facilitator
implementing
incrementing
indoor
mascara
newsletter
oceanographic
partnerships
potency
quartiles
railway
refinery
remediation
rented
restock
scorer
sedans
sponsor
tb
telecom
utilizes
vol
wholesale
##99
##adoption
##artifacts
##bank
##clinics
##defense
##department
##donors
##eek
##fares
##finance
##free
##inventory
##justice
##material
##reserve
##start
##station
##stock
##transportation
##units
##vehicles
##wins
##angerous
##articipation
##bon
##bservation
##cientist
##ciety
##dent
##diting
##eal
##evees
##ez
##fication
##fined
##fts
##gible
##hare
##hin
##hreats
##ificance
##ights
##illage
##lution
##mation
##names
##ntrol
##oetry
##omain
##otatoes
##quality
##raction
##reat
##sure
##urb
appalachian
autonomousdrivingresearch
banking
barnett
categoryid
champions
closedate
clothingitems
contractnegotiations
cubist
culturalcompetencyscore
dade
desserts
dispensaryname
districtid
drugx
eur
educationprograms
employeedata
employeetraining
fairtrade
fishstock
ga
galapagos
gamelibrary
gamesales
guggenheim
healthworkername
healthyharvest
humanitarianassistance
inuit
investmentstrategies
languageid
languagename
liga
ltd
lutetium
mls
mno
machu
mahal
massachusetts
monet
oceanfloormapping
orbittype
organizationid
oslo
pi
pms
panama
peacekeepingoperations
picchu
platformid
rhapsody
rico
ruralinfrastructure
senegal
showdown
skincaresales
sofia
spacemission
speciesid
speciesname
springfield
statename
sustainablepractices
switzerland
tate
traditionalart
trendname
typeid
wales
yearsofexperience
advertisers
aluminum
analyst
aquafarms
assistants
auctions
bail
bioreactor
breaches
checkin
concatenating
curators
decreased
dentists
departed
driller
erosion
factory1
featuring
follows
formulate
infant
insider
learners
literary
mascot
maturity
meditation
nationalities
parcels
participations
penguins
psychodynamic
readership
residence
servings
team2
transgender
turtles
usernames
verdict
##0000
##88
##accidents
##attendees
##community
##compliance
##emission
##footage
##library
##metrics
##model
##operations
##playtime
##productivity
##publications
##regions
##response
##responses
##sources
##spending
##startups
##strategies
##subscribers
##temp
##times
##treatmentplants
##yield
##adar
##ala
##aleprice
##bservations
##cific
##cts
##dvocates
##eals
##ederal
##egotiations
##elicopter
##ension
##ervation
##esult
##eviews
##ezos
##gal
##hops
##icro
##icy
##idity
##ille
##illed
##imation
##inations
##ita
##lished
##lower
##neys
##nings
##nology
##nscious
##ntent
##oter
##pdate
##phere
##quent
##rains
##ributor
##rors
##rque
##rter
##ruits
##runcates
##sco
##ssue
##tellar
##ucing
##ume
##umped
##urrencies
##west
##xpenditure
##yer
additionally
aircraftmanufacturing
aircraftmodels
allocationdate
assistivetechnology
avalanche
bmi
beaufort
berkeley
cbd
co2emissions
cityd
claimid
coownershipproperties
coachella
communitydevelopment
conditionid
constructioncost
countrya
customersizes
cybersecuritystrategies
denmark
disasterpreparedness
donationid
donorcountry
drip
ecuador
emily
employeedemographics
equipmentsales
eventattendance
finland
freightforwarders
habitatpreservation
indo
leopard
mpg
mx
menuitemid
militarytech
militaryvehicles
nft
numcases
olivia
operationid
orange
pizzeria
playercountry
playerprofile
programcategories
projecttimeline
providerid
ras
recyclingrate
regiond
renters
ruraldev
safetyscore
saleid
southside
starry
startyear
streamcount
sunshine
surrealist
sustainabilityrating
teamname
totalcost
trainingprograms
unionname
vesselc
vesseltype
veteranemployment
wastedata
wastequantity
wonders
accesses
acquisitions
adopters
advocating
analysts
appetizers
applicant
artisans
beef
blockchains
blues
cardiology
cardiovascular
casualties
chronological
committee
commonly
concentrates
conditionally
coniferous
coowner
craft
defenders
detections
earning
elephants
enacted
eyeshadows
habitable
hygiene
imposed
interpreters
investigators
matte
merges
municipalities
nursing
organizer
ounce
overtime
partnered
pest
philanthropic
prevention
rangers
ransomware
readability
reductions
researched
resident
roster
seagrass
shuttles
spaceflight
specialization
spicy
sulfate
temps
unsustainable
welfare
##004
##02
##101
##22
##47
##activities
##added
##aircrafts
##billing
##contributions
##courses
##created
##ethnicity
##harvest
##languages
##management
##orgs
##platforms
##practices
##preferences
##rank
##requests
##satellites
##school
##sequestration
##systems
##testing
##trips
##vehicle
##vulnerabilities
##weight
##won
##years
##alaries
##ald
##alk
##ambia
##anual
##aster
##ball
##bservatory
##bus
##cated
##cept
##cepted
##cked
##eb
##entity
##esolution
##fect
##fforts
##gated
##hase
##hulium
##ician
##ience
##ighting
##iji
##irculating
##ird
##ishing
##isions
##istoric
##istration
##itives
##ivers
##kee
##keepers
##km
##lator
##lu
##modity
##mous
##mplete
##nforcement
##novation
##nus
##ocate
##odcast
##ogical
##olling
##onds
##ossil
##otion
##ou
##owners
##oy
##pirit
##pm
##proved
##racy
##ransit
##ravel
##reen
##rocery
##ships
##ssessment
##tegration
##teractive
##thics
##tica
##tics
##trusion
##urement
##urrency
##utes
##very
##warded
##wnership
##wns
##xic
##yon
##zon
au
algorand
ariana
artform
bakery
carbonoffset
carlos
classattendance
cleanenergy
clinicaltrials
conquest
consumerpreference
corps
culturalcompetencytraining
dailywaterusage
daysopen
disabilitysupportprograms
dolphin
donorprograms
evsales
entrees
equipmentid
exhibitionid
farmlocation
farmstocks
fighter
fiscalyear
fry
fuelconsumption
genderidentity
grande
greenbuildingprojects
greenpeace
hometeam
honda
investorid
iowa
jobcategory
jones
lng
loadingcapacity
makeupproducts
malawi
manchester
menuitem
mike
militaryequipment
pqr
petra
pharmacorp
productionvolume
racers
regionc
resolutiondate
royale
shap
safetytests
sargasso
slam
spacecraftvisits
starship
stir
studentaccommodations
sustainablematerials
tess
tasty
textilesourcing
threatintelligence
totaldonations
vesseltypes
victoria
volunteercount
waterconservationinitiatives
waterconsumption
xxl
zipcodes
aliasing
bankruptcy
busiest
circulation
coldest
committees
contamination
cranes
featured
freelance
governmental
housekeeping
incarcerated
infra
li
lithium
marathon
marketplace
mediums
metalwork
milestone
mpa
municipality
mutual
nutrient
operatives
pallet
pit
probes
promoted
promoting
refineries
refrigerated
regenerative
reindeer
remediate
reservations
servicing
stablecoins
subfield
submarine
tigers
tin
utilized
victories
wearables
##007
##65
##999
##access
##applications
##attended
##certification
##certified
##coast
##crueltyfree
##density
##dispensaries
##efficiency
##exploration
##farming
##fashions
##feedback
##forests
##heritage
##inspection
##kl
##market
##mentalhealth
##o2
##pieces
##plants
##providers
##sourcing
##startdate
##users
##vegan
##volunteers
##acebook
##acket
##acks
##ael
##ailed
##ainwater
##alent
##alyst
##ananas
##apon
##arfare
##arm
##atched
##avannah
##bal
##cher
##chizophrenia
##chloric
##ciation
##cooters
##cos
##counts
##creening
##culus
##dated
##dfulness
##du
##ducation
##dvisories
##eadows
##ebris
##eddate
##elt
##eople
##epth
##ests
##eta
##eutral
##eviation
##ghum
##gulators
##hampion
##harity
##hics
##hreatintel
##ibou
##ickel
##idge
##ikal
##ilots
##ilt
##intage
##inutes
##irates
##iscontinued
##ishable
##issile
##istered
##ital
##itigated
##itutions
##ivorce
##kirts
##lved
##mated
##mith
##nage
##nant
##ncounters
##ngagement
##nit
##nsive
##obotics
##ogram
##ohn
##oia
##oing
##olice
##ols
##oman
##oney
##orks
##pace
##pact
##paid
##pecs
##pending
##preter
##rcount
##racking
##rand
##ransparency
##rash
##rchaeology
##rena
##reter
##ription
##rofits
##rotocol
##rout
##rror
##ruiters
##standing
##sting
##stitutions
##taining
##terpreter
##thing
##tories
##uary
##uma
##uments
##uno
##used
##utan
##utism
##uture
##uy
##vement
##vent
##vings
##wap
##weet
##xplanation
##zes
agriculturalinnovations
bmw
beyonce
billie
buildingid
catfish
chen
citye
civilizations
companyx
cuisinetype
customername
dach
defensediplomacy
diversitytraining
evs
eilish
emerald
emergencycalls
employeetrainings
expressionism
fatima
fauvism
fishfarming
folk
gots
gamedesigndata
gamegenres
garmentproduction
haynesville
healthcarefacilities
hepatitis
hireyear
historicalcontexts
hubble
isp
inclusivehousing
investmentrounds
isorganic
issuedate
jackson
jamila
jazeera
lakes
launchyear
localbusinesses
mpas
menusales
militaryspending
minename
moma
obesityrate
overwatch
persian
playerdata
playerdemographics
playerregion
poland
policystate
polkadot
portname
productiondate
projectname
projecttimelines
quechua
queens
sa
sigint
salesamount
serena
siberia
specs
starlink
stateabbreviation
strainname
supplychain
sustainabilityscore
sustainableprojects
sustainabletourism
tomb
totalcases
treespecies
tripdatetime
tuesday
tutankhamun
unionmember
universityname
valorant
vehicleid
vehiclesales
vendorname
venezuela
vesselb
vessele
vietnamese
violationdate
w001
waymo
workoutid
workplacesafety
actionable
altered
angel
asteroid
batting
beneficiary
buyers
casting
coastline
commander
commissioned
competed
conceded
cultivated
defender
designation
documentaries
dolphins
doses
ecotourism
edtech
emitting
employers
exceeding
exploratory
geologists
gov
grower
hypothetical
interpretability
inventors
km2
latitudes
lions
litigation
masses
moons
mortgages
offsetting
op
opponent
originating
pct
pediatric
pediatricians
penetration
piloted
plaintiff
ppt
promotions
propulsion
regarding
reggae
rescued
reside
runway
salespeople
spotted
strikes
successes
supporters
tankers
telecommunications
thefts
tract
tundra
turnout
undergone
unlimited
unpivots
vegetable
venture
violated
wastes
yielding
##_
##!
###
##$
##%
##&
##'
##(
##)
##+
##,
##-
##.
##/
##:
##;
##=
##?
##@
##[
##]
##^
##`
##–
##’
stringnamed
##named
ienumerable
intnamed
thisnamed
modifythe
apiresponse
##request
objectnamed
notnull
tsource
waituntil
boolnamed
eventargs
floatnamed
tresult
##options
##context
outnamed
##the
threading
invoking
tkey
tvalue
doublenamed
initiates
opentracing
ilist
refnamed
gameobject
##operation
idictionary
tothe
asyncstate
apis
##mode
##eventargs
tentity
opentk
intptr
webid
##for
asat
canbenull
optionally
##handler
##this
typenamed
tkeyvertex
tedgelabel
tidedge
##manager
tidvertex
uniquely
##element
##config
tkeyedge
tvalueedge
trevidedge
##unit
##provider
##group
##dto
webidtype
icollection
##that
datarow
longnamed
##filter
commandtype
iqueryable
opengl
assertionis
##settings
int32named
nextlink
hints
beginasync
##with
##callback
##instance
succeeds
##from
##method
outupt
##factory
frombody
niwlang
tablename
##ettings
##async
##uri
interne
nummer
##handle
##attribute
cultureinfo
httpcontext
##entry
uint64
##container
disposing
inany
thatdoing
##srequest
fsx
##exception
tnamed
contenttype
tstate
##content
chaining
semicolons
uintnamed
##command
startindex
xelement
xmlreader
fills
tevent
pointf
telegraf
##will
##policy
effectiveat
accountid
##flags
bearertoken
es11
endtime
isn
locationid
oauth
##parameter
textwriter
##only
##variable
fromquery
##service
inattribute
##delegate
##params
multiedge
##user
pagesize
##metadata
##image
##filename
gametime
taskid
methodinfo
##offset
callbackfn
##reference
memberinfo
##tatus
atomically
##function
brevity
graphql
streamnamed
xmlnode
subsequent
##buffer
##update
starttime
##when
intptrnamed
##option
##record
primitives
ofthe
##target
releasing
explicitly
valueformat
xenserver
##error
datatable
resultset
##resource
jobject
##condition
insensitive
##control
##args
##reader
##viewmodel
overload
##ource
tout
vtl
##input
freeing
onexception
resetting
##width
guidnamed
awaited
ilogger
subspace
colornamed
typename
keyselector
loglevel
thecurrent
attrib
fieldname
##typenamed
rectanglef
hashset
##helper
##window
batchsize
sqlcommand
##cache
##tree
dbcontext
iemitter
tpmhandle
uint16
##order
##tream
##tyle
fileinfo
innamed
scraper
##tag
biginteger
chatid
##directory
prepares
returncode
internally
ipendpoint
sortorder
##template
emitted
##height
maxvalue
sticker
groupid
##part
##dir
ttype
##change
eventdata
tproperty
inthe
overwritten
chargebox
chats
cst
objectid
tfactor
vectornav
##after
##changed
##ervice
bearbeiten
xmlelement
##call
##direction
dynamodb
tempomap
##column
##writer
icomparer
sortby
##document
##func
##filepath
##json
##prefix
enumerated
##password
arbitrary
clockwise
profilename
##elements
##kind
##wrapper
urinamed
xmlwriter
##auth
##block
##endpoint
##limit
defining
ilocal
##enum
servicetype
viewmodel
attempting
tostring
##fields
##profile
##server
configuring
newvalue
pointnamed
httpclient
unchanged
##folder
##flag
##frame
hwnd
##create
##device
##header
complex32
ipaddress
translates
##first
##queue
bytenamed
cdn
endasync
entitytype
messageid
methodname
targettype
##account
##host
##output
datatype
orderby
waveform
gaxgrpc
tmodel
ignores
methodbase
##obj
columnname
mongodb
permanently
textreader
userdata
##alias
##elector
##interval
httprequest
slicenamed
##mask
##xml
accesstoken
groupname
nextcommand
texels
##amazon
##which
nodeid
wrapping
##extension
##tags
paginating
prefixed
##process
jsonobject
##tart
geopoint2d
messagetype
pagenumber
paramname
subimage
clicking
idatareader
minvalue
uint32named
anzeigen
ttarget
##files
##report
##resolver
documentid
icomparable
itemid
pname
##has
composed
decorated
elasticache
exceed
geopoint
inherit
resides
snapshots
telement
valuetask
##headers
biometric
bucketname
dashboardid
offername
primcount
resultcode
ruletree
xpath
##channel
##interface
##task
guaranteed
modelflowid
nsobject
objecttype
retrieval
scans
tstep
buffersize
nth
querystring
telegrafid
tkeynamed
bucketid
##factor
##selector
##transform
arg3
doubles
metadatakey
##match
enqueues
ignoring
interpreted
labelid
##arguments
##listener
consisting
ftd2xx
orderid
##grid
imessage
maxcount
requesting
taccumulate
##connect
##generator
##word
allownull
tproducer
##dialog
##into
##note
##vector
##you
allnamed
tfield
##algorithm
##behavior
adaptid
adjustments
jtoken
newest
rfsg
thegiven
titem
willbe
xmldocument
##guid
apiversion
endstring
htmlhelper
jid
msbuild
persistto
requesturi
##based
##mapping
##space
1auth
eeprom
overriding
returnvalue
winbio
##datanamed
##parent
associates
enrolleeid
replicateto
startstring
statuscode
ttl
tuples
##keys
##pec
##project
accountname
edgefilter
fitting
fromroute
instanceid
partially
ram
spritebatch
tenum
tmessage
##before
##predicate
blocked
coerces
fetching
logevent
##pool
boundingbox
cellid
domainname
hresult
stammdaten
truefalse
##editor
##language
changebase
deviceid
jscontext
listview
propagates
stated
telem
ulongnamed
##accessor
##infonamed
##session
bots
decorate
ieee
imagesize
openid
outposts
pdu
publishes
registering
sessionid
startpoint
uuidnamed
##assembly
##converter
##layer
##messages
##role
##specified
##timeout
##userid
classname
commandtext
iexpression
lexmodelsv2
namestring
recipeid
servername
tright
##any
##erver
##paths
buff
hyperbolic
oneach
requestid
testcase
wether
##equest
##progress
andthe
cas
cashflows
foreach
idempotent
optimal
publickey
slices
tinput
##envelope
##infodto
##member
##otherwise
##payload
##scope
idisposable
ifthe
processid
signaled
sizef
supergroup
vtlparser
xdocument
##entries
##namespace
##pair
##pattern
aka
forwards
influxdb
nonzero
ofdm
perpage
robin
rowkey
t10
tobject
vds
##contains
##domain
##formatter
##groupname
##rules
##search
captures
charnamed
collisions
computation
icontent
ifis
maxlength
ppdu
treeview
troot
twhere
float3
gamemode
idtypecode
idtypescope
interactor
jsonnode
localizer
rectnamed
##found
##gateway
##registry
##texture
begintime
chartarea
ciphertext
decrements
fromthe
ignorecase
itemtype
mysql
prevents
t1named
tdlib
tid
##actions
##engine
##methods
##ptr
##snamed
##title
##volume
alpaca
forthe
hyperedges
ienumerator
octet
ospid
phonenumber
refreshed
usedefault
withthe
##amed
##does
##groups
##loader
##module
##nodes
aren
arg4
bivariate
convex
edgeid
fieldinfo
jsvalue
kvmpolicy
layermask
minimizes
multiedges
niwlan
smtppolicy
snmppolicy
solpolicy
startfrom
telegram
texel
treturn
tvertex
uielement
userfields
##basenamed
##mapper
##username
##utc
countrycode
geofence
httpmethod
minimumd
msdeploy
paired
pkm
terminates
terminating
tkey2
treenode
##available
##catalog
##edge
##strategy
arcore
customdata
fromheader
iresponds
mastercard
monad
namefilter
resourceuri
servicekey
servicename
thevalue
toolkit
##datatype
##resources
##schema
##then
##threshold
appdomain
biospolicy
componentid
folderid
onmessage
ris
sshpolicy
strict
ta1
tfirst
tkey1
treturntype
tsecond
tuplewriter
wasn
##cell
##feature
##override
##plane
compartment
filetype
inputstream
itimespan
iwebelement
marshalas
modid
operando
pred
serviceid
serviceimpl
viewbase
##distance
##runtime
##spec
##sresponse
##store
cachekey
collects
downloading
gateways
ipconfig
pageindex
peek
pixelformat
sandbox
##asset
##batch
##card
##parser
##true
bitstring
deltatime
indarray
inputmodel
poco
skpoint
tservice
##camera
##each
##logger
##matrix
##modenamed
##owner
##processor
##qospolicy
##renderer
##treenode
actionid
actionnamed
datastore
fft
merging
onthe
##actor
##changes
##detail
##ignature
##schedule
##ymbol
arg5
candlestick
codenamed
entitiy
hasn
icontainer
inclusivity
predefined
ta2
timeframe
##ask
##database
##encoding
##false
##identity
##nodenamed
##priority
##setting
##trigger
##within
appid
arraylist
centered
contactid
discarded
exclusivity
logentry
lustre
mutates
overwriting
policy1
policy2
rgba
ruleid
tombstone
trueis
usable
ushortnamed
##behaviour
##bucket
##clause
##default
##depth
##must
##person
##storage
##valued
##write
bindingmode
bounded
channelname
contextual
correlating
devops
ina
keyname
linkto
ndarrays
nuget
queryfield
t2named
templateid
traverses
uris
waveforms
xname
##backup
##hould
##required
##topic
##updated
gameobjects
htmlnode
inputted
newindex
notnullwhen
sns
sortfield
targethost
vanilla
##angle
##bot
##but
##calendar
##display
##eventtype
##indicates
##network
##other
##statement
##symbol
##toadd
##vertices
##was
attributeid
broadcasts
compareto
exposes
hdc
initialise
para
pauses
posting
requesturl
resolving
resourceid
swaps
syntaxnode
tagname
textual
theclass
throughput
valuetype
##alignment
##children
##contact
##delete
##font
##mass
##packet
##param
##radius
##send
##until
##variables
capturing
consumes
dialect
dwflags
folds
grabbed
graintype
hbase
ilgenerator
itable
iterating
ndarray3
nirfsg
parentid
reused
sprocname
supergroups
tlimit
tpixel
##build
##character
##chars
##completed
##current
##errors
##eventdata
##instances
##may
##period
##should
##than
##tracker
conjunction
datacontext
dbtype
displayname
externally
filling
fractional
openapi
pulls
runid
sitemap
solids
subkey
targ
tleft
##child
##contents
##ihi
##inclusive
##machine
##package
##product
##public
##rotation
##snapshot
basedata
elasticube
initialises
invertex
ios
ipv4
manages
onwards
outvertex
overriden
positionin
pushconfig
revokes
secretname
sophoslabs
sought
tinner
tinstance
turncontext
vectornamed
##binder
##classes
##delay
##fieldname
##filters
##provided
##received
##shape
a2b
casted
catalogitem
commandline
elementid
ephemeral
foldername
httpcommand
idatarecord
idestudio
imagen
inputvalues
monitors
permitted
pointwise
privatekey
radix
readflags
renames
repetition
sixth
spanner
tableclient
tinterface
tresponse
uniqueness
usingand
vec3
vec3d
xoffset
##bject
##codetype
##existing
##framework
##itemnamed
##manifest
##move
##thread
##vertex
1x1
allgemeine
appending
arg7
bythe
callers
clamped
completing
crud
endpointid
existent
finalizer
iobservable
jsx
newname
obtaining
onsuccess
operandos
patientid
plantuml
postings
projektteam
recreated
regulator
roleid
searchterm
spname
substrings
theand
tidentity
trackchunk
tspoc
tsql
vms
##app
##being
##commit
##copy
##creates
##currency
##defined
##equence
##generated
##proxy
##random
##sets
##tack
##top
##trategy
##viewer
biosunit
bsonreader
compresses
derives
exclusions
iamazons3
idbcommand
imgui
masstransit
msal
opts
quaternions
registrykey
skus
themethod
una
uploading
usedto
xuri
##between
##complete
##criteria
##etting
##init
##onerror
##req
##tablename
##tablerows
##ystem
acpi
apns
asin
bsonvalue
ca1021
capitalized
clamps
combining
createmodel
dataentity
gamelet
gpustate
granularity
initialised
jsonvalue
newpassword
ofuser
pidi
seriesnamed
smpp
spliton
successfull
testpackage
theproperty
typeinfo
unityengine
##amples
##argument
##capture
##contract
##days
##enabled
##hape
##hint
##meta
##next
##panel
##parts
##rc
##returned
##scheme
##section
##sequence
##targets
##torage
##two
##uses
##uuid
##wait
##yntax
apikey
appsettings
archived
arrayindex
bitmask
carriertype
channelid
delim
elementtype
gdi
geovector
indication
informs
inputvalue
isrequired
iwolfclient
kontakte
locates
locking
parentnode
passport
permvalue
populating
publicly
refers
retained
rulesetname
stickers
t3named
tender
tobe
unlocked
value3
versa
vmname
webrequest
yoffset
##active
##add
##cale
##commands
##doc
##entifier
##kb
##layout
##lists
##nametype
##open
##origin
##tep
##timestamp
##uth
arg8
asthey
bitarray
cargar
color4
contiguous
cronjob
dateranges
grainid
inputseries
keyid
mimo
modeltype
nodenamed
owning
pennamed
pointfnamed
pointindex
preceded
pressing
proto
rebuilds
replymarkup
requestbody
resultant
sagemaker
searchquery
searchroot
shield
skipping
sourcepath
sourcetype
specifed
structs
substringof
texception
tlabel
toutput
trevid
tweens
unspecified
v4named
##contour
##entityid
##given
##ific
##int32
##labels
##loaded
##normal
##osition
##pointer
##selected
##threads
##toremove
annotated
aspnetcore
blobname
dayofweek
dbquery
encounters
enforce
enumerating
establishes
fileid
float64
instructs
iprogress
iscreated
jobid
keycode
lparam
meanings
netapp
nwidth
packedkey
parseresult
precedes
quadratic
reloaded
shouldn
startangle
stdcall
steelobject
tcontext
thestored
theswitches
trequest
##assertion
##bounds
##creator
##family
##favorite
##infos
##join
##opt
##reason
##velocity
##warning
##web
##whether
##without
##your
bytespan
consts
contexttype
createuser
dbcommand
downward
elapses
errorcode
failover
hubs
idornumber
inherits
inputfile
interprets
iset
kubernetes
localizes
loggerroot
menucommand
mousebutton
onerror
pageable
picturebox
propertyid
reasonably
redirecturi
reprsenting
rolename
rollback
specifiedin
streamand
tabcontrol
taskname
tcpclient
##curve
##documents
##expected
##hierarchy
##izable
##msg
##now
##pane
##post
##props
##ratio
##sink
##sql
##structure
##success
##supported
##ummary
##updates
##versions
autoack
awaits
cellsize
destiny
disputeid
endings
icommand
imageformat
indexname
invoiceid
ipgroups
iwebdriver
linetype
masks
numerics
oldvalue
omit
omitting
originated
plotting
postgresql
prepended
primarykey
queuename
saturation
seventh
singular
spouse
stacktrace
stringand
threaded
underscore
xpayer
##also
##defaults
##degree
##deleted
##esponse
##export
##gene
##holder
##hub
##hz
##intent
##memory
##operator
##payment
##some
##step
##todo
##tries
##trip
##usernamed
##words
abstraction
accumulate
attaching
bbox
cropping
datareader
deque
devicecodes
disabling
enumtype
ethgine
grainstate
httpcontent
inputstring
interpolate
ipackage
isused
itrace
jarray
jquery
keyproperty
loose
objectname
orbitclient
reflects
revisionid
rotations
rulename
shuffles
snowflake
subarray
subsection
teammember
theserver
tparameter
tpayload
userids
utterances
valuecannot
vertexid
##anager
##center
##chema
##done
##ecret
##edges
##elected
##elegate
##empty
##entities
##folders
##idnamed
##include
##internal
##isation
##local
##modifier
##napshot
##none
##pipeline
##po
##present
##prop
##screen
bsonwriter
chooses
columnindex
echo
expose
formated
formdata
fullpath
iff
igrainstate
implicitly
incorrectly
initiating
traversing
whichever
whos
yvalue
##already
##attr
##browser
##collector
##ctx
##df
##enable
##erializer
##fill
##find
##ipaddress
##lied
##maker
##master
##media
##menuitem
##minutes
##orders
##pecified
##queryable
##register
##sclient
##through
##typename
##valid
##according
##buffers
##close
##contain
##counter
##driver
##drop
##dx
##earch
##exclusive
##models
##modes
##ollection
##plan
##roleid
##sd
##sid
##slot
##sp
##symbols
##visitor
##agent
##arg
##balance
##blob
##cert
##columns
##compress
##ervices
##formation
##groupid
##how
##inside
##invoker
##irection
##peer
##placement
##platform
##positions
##possible
##route
##rows
##share
##tatement
##tocheck
##turn
##ulator
##umber
##visible
##1named
##2232h
##232h
##2b
##4232h
##accessexception
##accountid
##accounts
##ached
##across
##actualizacion
##adjustment
##agentname
##anchorposition
##ardtemplateitem
##arms
##assetpaths
##asynchronous
##asyncresult
##atamodel
##atarepositoryassociationrequest
##atawriter
##attached
##attack
##atus
##ause
##authenticationticket
##av
##availability
##availabilitymonitortest
##baseline
##bat
##binary
##books
##boolean
##botrequest
##bottom
##boundary
##brew
##buildnamed
##busconfigurator
##byindex
##cacheentry
##caller
##cannot
##cator
##ccessary
##changeeventargs
##channels
##chunks
##classification
##closingeventargs
##clusions
##cm
##compaction
##compiled
##contentnamed
##contextprovider
##continuationoptions
##converts
##cord
##countrycode
##credited
##ctured
##cube
##currencies
##datareader
##dclient
##ddress
##delegatenamed
##detectors
##digits
##digo
##dimensions
##dist
##dit
##dn
##downloaded
##downloader
##dump
##eddata
##efault
##effects
##elete
##elf
##ellation
##ember
##encies
##entifiers
##ept
##ersonal
##etch
##etectorversion
##ettingsrequest
##eve
##eventid
##externalmodel
##fector
##filesystems
##fnamed
##following
##generictype
##gestion
##graphics
##green
##gregate
##groupsrequest
##handlernamed
##handles
##heetnamed
##helperbase
##hesis
##hic
##hift
##highlight
##historyrequest
##hits
##hod
##hooking
##hostbuilder
##httpclientfactory
##httpresponse
##hubname
##ialization
##ialog
##icated
##icio
##icular
##idswhen
##iesrequest
##ieved
##ifiers
##ifnotfound
##igator
##ilarity
##ilobytes
##inamed
##inchildlevel
##inforce
##ingdata
##injector
##inspected
##instancestorageconfig
##intentrequest