[PAD]
[UNK]
[START]
[END]
0
1
2
3
4
5
6
7
8
9
a
b
c
d
e
f
g
h
i
j
k
l
m
n
o
p
q
r
s
t
u
v
w
x
y
z
{
}
[
]
(
)
.
,
:
;
+
-
*
/
%
&
|
^
!
~
_
#
$
@
&&
||
??
=>
=
==
!=
<
>
<=
>=
<<
>>
+=
-=
*=
/=
%=
&=
|=
^=
<<=
>>=
++
--
?
::
"
'
tildetoken
exclamationtoken
dollartoken
percenttoken
carettoken
ampersandtoken
asterisktoken
openparentoken
closeparentoken
minustoken
plustoken
equalstoken
openbracetoken
closebracetoken
openbrackettoken
closebrackettoken
bartoken
backslashtoken
colontoken
semicolontoken
doublequotetoken
singlequotetoken
lessthantoken
commatoken
greaterthantoken
dottoken
questiontoken
hashtoken
slashtoken
dotdottoken
slashgreaterthantoken
lessthanslashtoken
xmlcommentstarttoken
xmlcommentendtoken
xmlcdatastarttoken
xmlcdataendtoken
xmlprocessinginstructionstarttoken
xmlprocessinginstructionendtoken
barbartoken
ampersandampersandtoken
minusminustoken
plusplustoken
coloncolontoken
questionquestiontoken
minusgreaterthantoken
exclamationequalstoken
equalsequalstoken
equalsgreaterthantoken
lessthanequalstoken
lessthanlessthantoken
lessthanlessthanequalstoken
greaterthanequalstoken
greaterthangreaterthantoken
greaterthangreaterthanequalstoken
slashequalstoken
asteriskequalstoken
barequalstoken
ampersandequalstoken
plusequalstoken
minusequalstoken
caretequalstoken
percentequalstoken
questionquestionequalstoken
greaterthangreaterthangreaterthantoken
greaterthangreaterthangreaterthanequalstoken
boolkeyword
bytekeyword
sbytekeyword
shortkeyword
ushortkeyword
intkeyword
uintkeyword
longkeyword
ulongkeyword
doublekeyword
floatkeyword
decimalkeyword
stringkeyword
charkeyword
voidkeyword
objectkeyword
typeofkeyword
sizeofkeyword
nullkeyword
truekeyword
falsekeyword
ifkeyword
elsekeyword
whilekeyword
forkeyword
foreachkeyword
dokeyword
switchkeyword
casekeyword
defaultkeyword
trykeyword
finallykeyword
lockkeyword
gotokeyword
breakkeyword
continuekeyword
returnkeyword
throwkeyword
publickeyword
privatekeyword
internalkeyword
protectedkeyword
statickeyword
readonlykeyword
sealedkeyword
constkeyword
fixedkeyword
stackallockeyword
volatilekeyword
newkeyword
overridekeyword
abstractkeyword
virtualkeyword
eventkeyword
externkeyword
refkeyword
outkeyword
inkeyword
iskeyword
askeyword
paramskeyword
arglistkeyword
makerefkeyword
reftypekeyword
refvaluekeyword
thiskeyword
basekeyword
namespacekeyword
usingkeyword
classkeyword
structkeyword
interfacekeyword
enumkeyword
delegatekeyword
checkedkeyword
uncheckedkeyword
unsafekeyword
operatorkeyword
explicitkeyword
implicitkeyword
yieldkeyword
partialkeyword
aliaskeyword
globalkeyword
assemblykeyword
modulekeyword
typekeyword
fieldkeyword
methodkeyword
paramkeyword
propertykeyword
typevarkeyword
getkeyword
setkeyword
addkeyword
removekeyword
wherekeyword
fromkeyword
groupkeyword
joinkeyword
intokeyword
letkeyword
bykeyword
selectkeyword
orderbykeyword
onkeyword
equalskeyword
ascendingkeyword
descendingkeyword
nameofkeyword
asynckeyword
awaitkeyword
whenkeyword
orkeyword
andkeyword
notkeyword
withkeyword
initkeyword
recordkeyword
managedkeyword
unmanagedkeyword
requiredkeyword
scopedkeyword
filekeyword
elifkeyword
endifkeyword
regionkeyword
endregionkeyword
definekeyword
undefkeyword
warningkeyword
errorkeyword
linekeyword
pragmakeyword
hiddenkeyword
checksumkeyword
disablekeyword
restorekeyword
referencekeyword
interpolatedstringstarttoken
interpolatedstringendtoken
interpolatedverbatimstringstarttoken
loadkeyword
nullablekeyword
enablekeyword
warningskeyword
annotationskeyword
varkeyword
underscoretoken
omittedtypeargumenttoken
omittedarraysizeexpressiontoken
endofdirectivetoken
endofdocumentationcommenttoken
endoffiletoken
badtoken
identifiertoken
numericliteraltoken
characterliteraltoken
stringliteraltoken
xmlentityliteraltoken
xmltextliteraltoken
xmltextliteralnewlinetoken
interpolatedstringtoken
interpolatedstringtexttoken
singlelinerawstringliteraltoken
multilinerawstringliteraltoken
utf8stringliteraltoken
utf8singlelinerawstringliteraltoken
utf8multilinerawstringliteraltoken
endoflinetrivia
whitespacetrivia
singlelinecommenttrivia
multilinecommenttrivia
documentationcommentexteriortrivia
singlelinedocumentationcommenttrivia
multilinedocumentationcommenttrivia
disabledtexttrivia
preprocessingmessagetrivia
ifdirectivetrivia
elifdirectivetrivia
elsedirectivetrivia
endifdirectivetrivia
regiondirectivetrivia
endregiondirectivetrivia
definedirectivetrivia
undefdirectivetrivia
errordirectivetrivia
warningdirectivetrivia
linedirectivetrivia
pragmawarningdirectivetrivia
pragmachecksumdirectivetrivia
referencedirectivetrivia
baddirectivetrivia
skippedtokenstrivia
conflictmarkertrivia
xmlelement
xmlelementstarttag
xmlelementendtag
xmlemptyelement
xmltextattribute
xmlcrefattribute
xmlnameattribute
xmlname
xmlprefix
xmltext
xmlcdatasection
xmlcomment
xmlprocessinginstruction
typecref
qualifiedcref
namemembercref
indexermembercref
operatormembercref
conversionoperatormembercref
crefparameterlist
crefbracketedparameterlist
crefparameter
identifiername
qualifiedname
genericname
typeargumentlist
aliasqualifiedname
predefinedtype
arraytype
arrayrankspecifier
pointertype
nullabletype
omittedtypeargument
parenthesizedexpression
conditionalexpression
invocationexpression
elementaccessexpression
argumentlist
bracketedargumentlist
argument
namecolon
castexpression
anonymousmethodexpression
simplelambdaexpression
parenthesizedlambdaexpression
objectinitializerexpression
collectioninitializerexpression
arrayinitializerexpression
anonymousobjectmemberdeclarator
complexelementinitializerexpression
objectcreationexpression
anonymousobjectcreationexpression
arraycreationexpression
implicitarraycreationexpression
stackallocarraycreationexpression
omittedarraysizeexpression
interpolatedstringexpression
implicitelementaccess
ispatternexpression
rangeexpression
implicitobjectcreationexpression
addexpression
subtractexpression
multiplyexpression
divideexpression
moduloexpression
leftshiftexpression
rightshiftexpression
logicalorexpression
logicalandexpression
bitwiseorexpression
bitwiseandexpression
exclusiveorexpression
equalsexpression
notequalsexpression
lessthanexpression
lessthanorequalexpression
greaterthanexpression
greaterthanorequalexpression
isexpression
asexpression
coalesceexpression
simplememberaccessexpression
pointermemberaccessexpression
conditionalaccessexpression
unsignedrightshiftexpression
memberbindingexpression
elementbindingexpression
simpleassignmentexpression
addassignmentexpression
subtractassignmentexpression
multiplyassignmentexpression
divideassignmentexpression
moduloassignmentexpression
andassignmentexpression
exclusiveorassignmentexpression
orassignmentexpression
leftshiftassignmentexpression
rightshiftassignmentexpression
coalesceassignmentexpression
unsignedrightshiftassignmentexpression
unaryplusexpression
unaryminusexpression
bitwisenotexpression
logicalnotexpression
preincrementexpression
predecrementexpression
pointerindirectionexpression
addressofexpression
postincrementexpression
postdecrementexpression
awaitexpression
indexexpression
thisexpression
baseexpression
arglistexpression
numericliteralexpression
stringliteralexpression
characterliteralexpression
trueliteralexpression
falseliteralexpression
nullliteralexpression
defaultliteralexpression
utf8stringliteralexpression
typeofexpression
sizeofexpression
checkedexpression
uncheckedexpression
defaultexpression
makerefexpression
refvalueexpression
reftypeexpression
queryexpression
querybody
fromclause
letclause
joinclause
joinintoclause
whereclause
orderbyclause
ascendingordering
descendingordering
selectclause
groupclause
querycontinuation
block
localdeclarationstatement
variabledeclaration
variabledeclarator
equalsvalueclause
expressionstatement
emptystatement
labeledstatement
gotostatement
gotocasestatement
gotodefaultstatement
breakstatement
continuestatement
returnstatement
yieldreturnstatement
yieldbreakstatement
throwstatement
whilestatement
dostatement
forstatement
foreachstatement
usingstatement
fixedstatement
checkedstatement
uncheckedstatement
unsafestatement
lockstatement
ifstatement
elseclause
switchstatement
switchsection
caseswitchlabel
defaultswitchlabel
trystatement
catchclause
catchdeclaration
catchfilterclause
finallyclause
localfunctionstatement
compilationunit
globalstatement
namespacedeclaration
usingdirective
externaliasdirective
filescopednamespacedeclaration
attributelist
attributetargetspecifier
attribute
attributeargumentlist
attributeargument
nameequals
classdeclaration
structdeclaration
interfacedeclaration
enumdeclaration
delegatedeclaration
baselist
simplebasetype
typeparameterconstraintclause
constructorconstraint
classconstraint
structconstraint
typeconstraint
explicitinterfacespecifier
enummemberdeclaration
fielddeclaration
eventfielddeclaration
methoddeclaration
operatordeclaration
conversionoperatordeclaration
constructordeclaration
baseconstructorinitializer
thisconstructorinitializer
destructordeclaration
propertydeclaration
eventdeclaration
indexerdeclaration
accessorlist
getaccessordeclaration
setaccessordeclaration
addaccessordeclaration
removeaccessordeclaration
unknownaccessordeclaration
parameterlist
bracketedparameterlist
parameter
typeparameterlist
typeparameter
incompletemember
arrowexpressionclause
interpolation
interpolatedstringtext
interpolationalignmentclause
interpolationformatclause
shebangdirectivetrivia
loaddirectivetrivia
tupletype
tupleelement
tupleexpression
singlevariabledesignation
parenthesizedvariabledesignation
foreachvariablestatement
declarationpattern
constantpattern
casepatternswitchlabel
whenclause
discarddesignation
recursivepattern
propertypatternclause
subpattern
positionalpatternclause
discardpattern
switchexpression
switchexpressionarm
varpattern
parenthesizedpattern
relationalpattern
typepattern
orpattern
andpattern
notpattern
slicepattern
listpattern
declarationexpression
refexpression
reftype
throwexpression
implicitstackallocarraycreationexpression
suppressnullablewarningexpression
nullabledirectivetrivia
functionpointertype
functionpointerparameter
functionpointerparameterlist
functionpointercallingconvention
initaccessordeclaration
withexpression
withinitializerexpression
recorddeclaration
defaultconstraint
primaryconstructorbasetype
functionpointerunmanagedcallingconventionlist
functionpointerunmanagedcallingconvention
recordstructdeclaration
expressioncolon
linedirectiveposition
linespandirectivetrivia
interpolatedsinglelinerawstringstarttoken
interpolatedmultilinerawstringstarttoken
interpolatedrawstringendtoken
scopedtype
collectionexpression
expressionelement
spreadelement
wf
in
out
type
loop
prm
desc
token
seq
comp
leqr
lner
lnor
lgtr
lger
lltr
ller
leqrand
lnerand
lnorand
lgtrand
lgerand
lltrand
llerand
leqror
lneror
lnoror
lgtror
lgeror
lltror
lleror
ltrue
ltrueand
ltrueor
string
integer
decimal
boolean
datetime
object
exp
proc
if
__midl_iwintypes_0009
_remotablehandle
abstract
acceptrejectrule
accesscontrolactions
accesscontrolmodification
accesscontrolsections
accesscontroltype
accessrule
accessrule`1
aceenumerator
aceflags
acequalifier
acetype
actionblock`1
activedesignereventargs
activedesignereventhandler
activity
activitychangedeventargs
activitycontext
activitycreationoptions`1
activityevent
activityidformat
activitykind
activitylink
activitylistener
activitysamplingresult
activitysource
activityspanid
activitystatuscode
activitytagscollection
activitytraceflags
activitytraceid
add
addingneweventargs
addingneweventhandler
addressfamily
advf
aes
aesccm
aescng
aescryptoserviceprovider
aesgcm
aesmanaged
alias
alternateview
alternateviewcollection
ambientvalueattribute
ancestordocorderiterator
ancestoriterator
and
annoscope
anonymouspipeclientstream
anonymouspipeserverstream
anonymouspipeserverstreamacl
any
application
appwinstyle
argumenttojscallback`1
argumenttomanagedcallback`1
array`1
arraybufferwriter`1
arrayconverter
arrayenumerator
arrayshape
arrayshapeencoder
as
ascending
asn1tag
asncontentexception
asndecoder
asnencodeddata
asnencodeddatacollection
asnencodeddataenumerator
asnencodingrules
asnreader
asnreaderoptions
asnwriter
assemblydefinition
assemblydefinitionhandle
assemblyextensions
assemblyfile
assemblyfilehandle
assemblyfilehandlecollection
assemblyflags
assemblyhashalgorithm
assemblyreference
assemblyreferencehandle
assemblyreferencehandlecollection
assemblyregistrationflags
associatedmetadatatypetypedescriptionprovider
associationattribute
asymmetricalgorithm
asymmetrickeyexchangedeformatter
asymmetrickeyexchangeformatter
asymmetricsignaturedeformatter
asymmetricsignatureformatter
async
asynccompletedeventargs
asynccompletedeventhandler
asyncoperation
asyncoperationmanager
attachment
attachmentbase
attachmentcollection
attributecollection
attributecontentiterator
attributeiterator
attributeproviderattribute
auditflags
auditrule
auditrule`1
authenticatedstream
authenticationexception
authenticationheadervalue
authenticationlevel
authenticationmanager
authenticationschemes
authenticationschemeselector
authorization
authorizationrule
authorizationrulecollection
automationproxyattribute
await
backgroundworker
barrier
barrierpostphaseexception
base
basenumberconverter
batchblock`1
batchedjoinblock`2
batchedjoinblock`3
bigint
biginteger
binaryexpression
binaryformatter
binaryoperationbinder
bindableattribute
bindablesupport
binder
bindingdirection
bindinglist`1
bindingrestrictions
bindipendpoint
bitarray
bitvector32
blob
blobbuilder
blobcontentid
blobencoder
blobhandle
blobreader
blobs
blobwriter
blockexpression
blockingcollection`1
bool
booleanconverter
booleanswitch
booleantype
boundedchannelfullmode
boundedchanneloptions
break
broadcastblock`1
brotlidecoder
brotliencoder
brotlistream
browsableattribute
bufferblock`1
buffersextensions
builder
by
byte
bytearraycontent
byteconverter
bytetype
caccpropservices
caccpropservicesclass
cachecontrolheadervalue
callinfo
callsite
callsite`1
callsitebinder
callsitehelpers
callsiteops
calltype
canceleventargs
canceleventhandler
capture
capturecollection
case
caseinsensitivecomparer
caseinsensitivehashcodeprovider
cataloglocation
catch
catchblock
categoryattribute
certificaterequest
certificaterequestloadoptions
certificaterevocationlistbuilder
chacha20poly1305
channel
channel`1
channel`2
channelbinding
channelbindingkind
channelclosedexception
channeloptions
channelreader`1
channelwriter`1
char
characteristics
chararraytype
charconverter
chartype
checked
checkoutexception
childrenenumerator
cipheralgorithmtype
ciphermode
ciphersuitespolicy
claim
claimsidentity
claimsprincipal
claimtypes
claimvaluetypes
class
clientcertificateoption
clientwebsocket
clientwebsocketoptions
closure
cngalgorithm
cngalgorithmgroup
cngexportpolicies
cngkey
cngkeyblobformat
cngkeycreationoptions
cngkeycreationparameters
cngkeyhandleopenoptions
cngkeyopenoptions
cngkeyusages
cngproperty
cngpropertycollection
cngpropertyoptions
cngprovider
cnguipolicy
cnguiprotectionlevels
codedindex
codegenerationoptions
codeidentifier
codeidentifiers
codepagesencodingprovider
codeviewdebugdirectorydata
coffheader
collection
collectionbase
collectionchangeaction
collectionchangeeventargs
collectionchangeeventhandler
collectionconverter
collectiondatacontractattribute
collectionextensions
collectionsutil
color
colorconverter
colortranslator
columnattribute
comaliasnameattribute
comawareeventinfo
comclassattribute
comcompatibleversionattribute
comconversionlossattribute
commandbehavior
commandid
commandtype
committabletransaction
commonace
commonacl
commonobjectsecurity
commonsecuritydescriptor
compareattribute
comparemethod
compilermarshaloverride
complex
complexbindingpropertiesattribute
complextypeattribute
component
componentchangedeventargs
componentchangedeventhandler
componentchangingeventargs
componentchangingeventhandler
componentcollection
componentconverter
componenteditor
componenteventargs
componenteventhandler
componentrenameeventargs
componentrenameeventhandler
componentresourcemanager
componentserializationservice
compoundace
compoundacetype
compressionlevel
compressionmode
comregisterfunctionattribute
comunregisterfunctionattribute
concurrencycheckattribute
concurrentbag`1
concurrentdictionary`2
concurrentstack`1
conflictoption
conformancelevel
connectionstate
console
consolecanceleventargs
consolecanceleventhandler
consolecolor
consolekey
consolekeyinfo
consolemodifiers
consolespecialkey
consoletracelistener
const
constant
constantexpression
constanthandle
constants
constanttypecode
constraint
constraintcollection
constraintexception
container
containerfilterservice
contentdisposition
contentdispositionheadervalue
contentiterator
contentmergeiterator
contentrangeheadervalue
contenttype
contextstack
continue
contractnamespaceattribute
controlchars
controlflags
controlflowbuilder
conversion
conversions
convertbinder
cookie
cookiecollection
cookiecontainer
cookieexception
cookievariant
corflags
corheader
correlationmanager
countdownevent
counter`1
cppinlinenamespaceattribute
createinstancebinder
credentialcache
creditcardattribute
cryptoconfig
cryptographicoperations
cryptographicunexpectedoperationexception
cryptostream
cryptostreammode
csharpargumentinfo
csharpargumentinfoflags
csharpbinderflags
cspkeycontainerinfo
cspparameters
cspproviderflags
cultureinfoconverter
customace
customattribute
customattributearraytypeencoder
customattributeelementtypeencoder
customattributehandle
customattributehandlecollection
customattributenamedargument`1
customattributenamedargumentkind
customattributenamedargumentsencoder
customattributetypedargument`1
customattributevalue`1
customdebuginformation
customdebuginformationhandle
customdebuginformationhandlecollection
custommodifiersencoder
customtypedescriptor
customvalidationattribute
dataadapter
databasegeneratedattribute
databasegeneratedoption
datacolumn
datacolumnchangeeventargs
datacolumnchangeeventhandler
datacolumncollection
datacolumnmapping
datacolumnmappingcollection
datacontract
datacontractattribute
datacontractjsonserializer
datacontractjsonserializerextensions
datacontractjsonserializersettings
datacontractresolver
datacontractserializer
datacontractserializerextensions
datacontractserializersettings
datacontractset
datadir
dataerrorschangedeventargs
dataexception
dataflowblock
dataflowblockoptions
dataflowlinkoptions
dataflowmessageheader
dataflowmessagestatus
datamember
datamemberattribute
dataobjectattribute
dataobjectfieldattribute
dataobjectmethodattribute
dataobjectmethodtype
datareaderextensions
datareceivedeventargs
datareceivedeventhandler
datarelation
datarelationcollection
datarow
datarowaction
datarowbuilder
datarowchangeeventargs
datarowchangeeventhandler
datarowcollection
datarowcomparer
datarowcomparer`1
datarowextensions
datarowstate
datarowversion
datarowview
dataset
datasetdatetime
datasysdescriptionattribute
datatable
datatablecleareventargs
datatablecleareventhandler
datatablecollection
datatableextensions
datatablemapping
datatablemappingcollection
datatablenewroweventargs
datatablenewroweventhandler
datatablereader
datatype
datatypeattribute
dataview
dataviewmanager
dataviewrowstate
dataviewsetting
dataviewsettingcollection
date
dateandtime
dateformat
dateinterval
dateonlyconverter
datetimeconverter
datetimeformat
datetimeoffsetconverter
datetype
dbbatch
dbbatchcommand
dbbatchcommandcollection
dbcolumn
dbcommand
dbcommandbuilder
dbconcurrencyexception
dbconnection
dbconnectionstringbuilder
dbdataadapter
dbdatareader
dbdatareaderextensions
dbdatarecord
dbdatasource
dbdatasourceenumerator
dbenumerator
dbexception
dbmetadatacollectionnames
dbmetadatacolumnnames
dbparameter
dbparametercollection
dbproviderfactories
dbproviderfactory
dbproviderspecifictypepropertyattribute
dbtransaction
dbtype
debugdirectorybuilder
debugdirectoryentry
debugdirectoryentrytype
debuginfoexpression
debuginfogenerator
debugmetadataheader
decimalaggregator
decimalconverter
decimaltype
declarativesecurityaction
declarativesecurityattribute
declarativesecurityattributehandle
declarativesecurityattributehandlecollection
decompressionmethods
default
defaultbindingpropertyattribute
defaulteventattribute
defaultjsontypeinforesolver
defaultpropertyattribute
defaultserializationproviderattribute
defaulttracelistener
deflatestream
delegate
delegatinghandler
deletedirectoryoption
deletedrowinaccessibleexception
deleteindexbinder
deletememberbinder
delimitedlisttracelistener
deliverynotificationoptions
dependentcloneoption
dependenttransaction
derivebytes
des
descendantiterator
descendantmergeiterator
descending
descriptionattribute
descryptoserviceprovider
designerattribute
designercategoryattribute
designercollection
designereventargs
designereventhandler
designergeneratedattribute
designerloader
designeroptioncollection
designeroptionservice
designerserializationvisibility
designerserializationvisibilityattribute
designerserializerattribute
designertransaction
designertransactioncloseeventargs
designertransactioncloseeventhandler
designerverb
designerverbcollection
designonlyattribute
designtimelicensecontext
designtimelicensecontextserializer
designtimevisibleattribute
diagnosticlistener
diagnosticsource
dictionarybase
dictionarynode
differenceiterator
directoryentry
directoryobjectsecurity
directorysecurity
discard
discretionaryacl
dispatchproxy
displayattribute
displaycolumnattribute
displayformatattribute
displaynameattribute
dispositiontypenames
distributedcontextpropagator
dllcharacteristics
dns
dnsendpoint
do
document
documenthandle
documenthandlecollection
documentnameblobhandle
dodsequencemerge
double
doubleaggregator
doubleconverter
doubletype
downloaddatacompletedeventargs
downloaddatacompletedeventhandler
downloadprogresschangedeventargs
downloadprogresschangedeventhandler
downloadstringcompletedeventargs
downloadstringcompletedeventhandler
doworkeventargs
doworkeventhandler
driveinfo
drivenotfoundexception
drivetype
dsa
dsacertificateextensions
dsacng
dsacryptoserviceprovider
dsaopenssl
dsaparameters
dsasignaturedeformatter
dsasignatureformat
dsasignatureformatter
dtdprocessing
duedate
duplicateaddressdetectionstate
duplicatenameexception
dvaspect
dynamic
dynamicattribute
dynamicexpression
dynamicexpressionvisitor
dynamicmetaobject
dynamicmetaobjectbinder
dynamicobject
ecalgorithm
eccurve
eccurvetype
ecdiffiehellman
ecdiffiehellmancng
ecdiffiehellmancngpublickey
ecdiffiehellmankeyderivationfunction
ecdiffiehellmanopenssl
ecdiffiehellmanpublickey
ecdsa
ecdsacertificateextensions
ecdsacng
ecdsaopenssl
eckeyxmlformat
ecparameters
ecpoint
editableattribute
editandcontinuelogentry
editandcontinueoperation
editorattribute
elapsedeventargs
elapsedeventhandler
elementcontentiterator
elementinit
else
emailaddressattribute
emittypeinformation
encodingextensions
encryptionpolicy
endpoint
enlistment
enlistmentoptions
enterpriseservicesinteropoption
entityhandle
entityhandling
entitytagheadervalue
enum
enumconverter
enumdatatypeattribute
enumerable
enumerableexecutor
enumerableexecutor`1
enumerablepartitioneroptions
enumerablequery
enumerablequery`1
enumerablerowcollection
enumerablerowcollection`1
enumerablerowcollectionextensions
enumerator
enumerator`1
enummemberattribute
equals
errobject
error
erroreventargs
erroreventhandler
evaluateexception
event
eventaccessors
eventdefinition
eventdefinitionhandle
eventdefinitionhandlecollection
eventdescriptor
eventdescriptorcollection
eventhandlerlist
eventinfoextensions
eventtypefilter
evidence
evidencebase
exceptionregion
exceptionregionencoder
exceptionregionkind
exchangealgorithmtype
executiondataflowblockoptions
expandableobjectconverter
expandoobject
explicit
exportedtype
exportedtypeextensions
exportedtypehandle
exportedtypehandlecollection
exportereventkind
exportoptions
expression
expression`1
expressiontype
expressionvisitor
extendedprotectionpolicy
extendedprotectionpolicytypeconverter
extendedprotectionselector
extenderprovidedpropertyattribute
extensiondataobject
extensions
extern
false
fielddefinition
fielddefinitionhandle
fielddefinitionhandlecollection
fieldtype
fieldtypeencoder
file
fileattribute
fileextensionsattribute
filesecurity
filestyleuriparser
filesystem
filesystemaccessrule
filesystemaclextensions
filesystemauditrule
filesystemeventargs
filesystemeventhandler
filesystemrights
filesystemsecurity
filesystemwatcher
fileversioninfo
filewebrequest
filewebresponse
fillerroreventargs
fillerroreventhandler
filteruihintattribute
finally
financial
firstdayofweek
firstweekofyear
fixed
fixedargumentsencoder
float
followingsiblingiterator
followingsiblingmergeiterator
for
foreach
foreignkeyattribute
foreignkeyconstraint
forloopcontrol
formatetc
formatter
formatterassemblystyle
formatterconverter
formatterservices
formattertypestyle
formatting
formurlencodedcontent
from
frombase64transform
frombase64transformmode
ftp
ftpstatuscode
ftpstyleuriparser
ftpwebrequest
ftpwebresponse
function
function`1
function`2
function`3
function`4
functionpointerattributes
gatewayipaddressinformation
gatewayipaddressinformationcollection
generatedregexattribute
genericace
genericacl
genericidentity
genericparameter
genericparameterconstraint
genericparameterconstrainthandle
genericparameterconstrainthandlecollection
genericparameterhandle
genericparameterhandlecollection
genericprincipal
genericsecuritydescriptor
generictypeargumentsencoder
genericuriparser
genericuriparseroptions
get
getindexbinder
getmemberbinder
global
globalproxyselection
gnutarentry
gopherstyleuriparser
goto
gotoexpression
gotoexpressionkind
group
groupbybehavior
groupcollection
grouping`2
groupingdataflowblockoptions
guidconverter
guidhandle
gzipstream
halfconverter
handle
handlecollector
handlecomparer
handledeventargs
handledeventhandler
handlekind
hascopysemanticsattribute
hashalgorithm
hashalgorithmname
hashalgorithmtype
headerencodingselector`1
headerstringvalues
heapindex
helpcontexttype
helpkeywordattribute
helpkeywordtype
hidemodulenameattribute
histogram`1
hkdf
hmac
hmacmd5
hmacsha1
hmacsha256
hmacsha384
hmacsha512
hostcurrenttransactioncallback
hostexecutioncontext
hostexecutioncontextmanager
htmlencoder
http
httpcacheagecontrol
httpclient
httpclienthandler
httpclientjsonextensions
httpcompletionoption
httpcontent
httpcontentheaders
httpcontentjsonextensions
httpcontinuedelegate
httpheaders
httpheadersnonvalidated
httpheadervaluecollection`1
httpkeepalivepingpolicy
httplistener
httplistenerbasicidentity
httplistenercontext
httplistenerexception
httplistenerprefixcollection
httplistenerrequest
httplistenerresponse
httplistenertimeoutmanager
httplistenerwebsocketcontext
httpmessagehandler
httpmessageinvoker
httpmethod
httpprotocolexception
httprequestcachelevel
httprequestcachepolicy
httprequestexception
httprequestheader
httprequestheaders
httprequestmessage
httprequestoptions
httprequestoptionskey`1
httpresponseheader
httpresponseheaders
httpresponsemessage
httpstatuscode
httpstyleuriparser
httputility
httpversion
httpversionpolicy
httpwebrequest
httpwebresponse
hybriddictionary
iaccessible
iaccessiblehandler
iaccidentity
iaccpropserver
iaccpropservices
iadvisesink
iapplicationresourcestreamresolver
iargumentprovider
iauthenticationmodule
ibindinglist
ibindinglistview
ibufferwriter`1
icanceladdnew
ichangetracking
icmpv4statistics
icmpv6statistics
icolumnmapping
icolumnmappingcollection
icommand
icomnativedescriptorhandler
icomponent
icomponentchangeservice
icomponentdiscoveryservice
icomponentinitializer
iconstructedtypeprovider`1
icontainer
icredentialpolicy
icredentials
icredentialsbyhost
icryptotransform
icspasymmetricalgorithm
icustomattributetypeprovider`1
icustomtypedescriptor
icustomtypeprovider
idataadapter
idataerrorinfo
idataflowblock
idataobject
idataparameter
idataparametercollection
idatareader
idatarecord
idbcolumnschemagenerator
idbcommand
idbconnection
idbdataadapter
idbdataparameter
idbtransaction
identifiercase
identitynotmappedexception
identityreference
identityreferencecollection
idesigner
idesignereventservice
idesignerfilter
idesignerhost
idesignerhosttransactionstate
idesignerloaderhost
idesignerloaderhost2
idesignerloaderservice
idesigneroptionservice
idesignerserializationmanager
idesignerserializationprovider
idesignerserializationservice
idictionaryservice
idispatchconstantattribute
idispatchimplattribute
idispatchimpltype
iditerator
idtctransaction
idynamicexpression
idynamicmetaobjectprovider
ieditableobject
ienlistmentnotification
ienumformatetc
ienumstatdata
ieventbindingservice
iextenderlistservice
iextenderprovider
iextenderproviderservice
iextensibledataobject
ifieldinfo
iformatter
ifragmentcapablexmldictionarywriter
ignoredatamemberattribute
igrouping`2
ihasxmlnode
ihelpservice
iimmutabledictionary`2
iimmutablelist`1
iimmutablequeue`1
iimmutableset`1
iimmutablestack`1
iinheritanceservice
iintellisensebuilder
iinvokeongetbinder
ijsonondeserialized
ijsonondeserializing
ijsononserialized
ijsononserializing
ijsontypeinforesolver
ilistsource
ilookup`2
ilopcode
ilopcodeextensions
image
imageformatlimitationexception
imenucommandservice
immutablearray
immutablearray`1
immutablearrayextensions
immutabledictionary
immutabledictionary`2
immutablehashset
immutablehashset`1
immutableinterlocked
immutablelist
immutablelist`1
immutableobjectattribute
immutablequeue
immutablequeue`1
immutablesorteddictionary
immutablesorteddictionary`2
immutablesortedset
immutablesortedset`1
immutablestack
immutablestack`1
implicit
importcontext
importdefinition
importdefinitioncollection
importdefinitionkind
importedfromtypelibattribute
importscope
importscopecollection
importscopehandle
inamecreationservice
incompleteinitialization
incrementalhash
inestedcontainer
inestedsite
inferenceoption
information
inheritanceattribute
inheritanceflags
inheritancelevel
init
initializationeventattribute
initializingswitcheventargs
initializingtracesourceeventargs
inormalizeforisolatedstorage
inotifycollectionchanged
inotifydataerrorinfo
inotifypropertychanged
inotifypropertychanging
inrowchangingeventexception
installertypeattribute
instancecreationeditor
instancedescriptor
instructionencoder
instrument
instrument`1
int
int128converter
int16converter
int32aggregator
int32converter
int64aggregator
int64converter
integertype
interaction
interface
interfaceimplementation
interfaceimplementationhandle
interfaceimplementationhandlecollection
internal
internalbufferoverflowexception
internaldatacollectionbase
intersectiterator
into
inullable
invalidasynchronousstateexception
invalidconstraintexception
invalidcredentialexception
invaliddatacontractexception
invalidenumargumentexception
invalidexpressionexception
inversepropertyattribute
invokebinder
invokememberbinder
iocontrolcode
iordereddictionary
iorderedenumerable`1
iorderedqueryable
iorderedqueryable`1
ipaddress
ipaddresscollection
ipaddressinformation
ipaddressinformationcollection
ipendpoint
ipglobalproperties
ipglobalstatistics
iphostentry
ipinterfaceproperties
ipinterfacestatistics
ippacketinformation
ipprotectionlevel
ipromotablesinglephasenotification
ipropagatorblock`2
ipstatus
ipv4interfaceproperties
ipv4interfacestatistics
ipv6interfaceproperties
ipv6multicastoption
iqueryable
iqueryable`1
iqueryprovider
iraiseitemchangedevents
ireceivablesourceblock`1
ireferenceservice
iresourceservice
iresourcewriter
irevertiblechangetracking
irootdesigner
iruntimevariables
is
isboxed
isbyvalue
iscopyconstructed
iselectionservice
iserializationsurrogate
iserializationsurrogateprovider
iserializationsurrogateprovider2
iservicecontainer
iserviceprovider
isexplicitlydereferenced
isignaturetypeprovider`2
isimpletransactionsuperior
isimpletypeprovider`1
isimplicitlydereferenced
isinglephasenotification
isite
isjitintrinsic
islong
isolatedstorage
isolatedstorageexception
isolatedstoragefile
isolatedstoragefilestream
isolatedstoragescope
isolationlevel
isourceblock`1
ispinned
issignunspecifiedbyte
istreamprovider
isudtreturn
isupportinitialize
isupportinitializenotification
isurrogateselector
isymbolbinder
isymbolbinder1
isymboldocument
isymbolmethod
isymbolnamespace
isymbolreader
isymbolscope
isymbolvariable
isymbolwriter
isynchronizeinvoke
iszarraytypeprovider`1
itablemapping
itablemappingcollection
itargetblock`1
iteratorresult
itransactionpromoter
itreedesigner
itypedescriptorcontext
itypedescriptorfilterservice
itypediscoveryservice
itypedlist
ityperesolutionservice
iunknownconstantattribute
ivalidatableobject
iwebproxy
iwebproxyscript
iwebrequestcreate
ixmlbinaryreaderinitializer
ixmlbinarywriterinitializer
ixmldictionary
ixmljsonreaderinitializer
ixmljsonwriterinitializer
ixmllineinfo
ixmlnamespaceresolver
ixmlschemainfo
ixmlserializable
ixmltextparser
ixmltextreaderinitializer
ixmltextwriterinitializer
ixpathnavigable
ixsltcontextfunction
ixsltcontextvariable
javascriptencoder
join
joinblock`2
joinblock`3
jsexception
jsexportattribute
jsfunctionbinding
jshost
jsimportattribute
jsmarshalasattribute`1
jsmarshalerargument
jsmarshalertype
jsobject
jsonarray
jsonattribute
jsoncollectioninfovalues`1
jsoncommenthandling
jsonconstructorattribute
jsoncontent
jsonconverter
jsonconverter`1
jsonconverterattribute
jsonconverterfactory
jsonderivedtype
jsonderivedtypeattribute
jsondocument
jsondocumentoptions
jsonelement
jsonencodedtext
jsonexception
jsonextensiondataattribute
jsonformatgeneratorstatics
jsonignoreattribute
jsonignorecondition
jsonincludeattribute
jsonknownnamingpolicy
jsonmetadataservices
jsonnamingpolicy
jsonnode
jsonnodeoptions
jsonnumberhandling
jsonnumberhandlingattribute
jsonobject
jsonobjectinfovalues`1
jsonparameterinfovalues
jsonpolymorphicattribute
jsonpolymorphismoptions
jsonproperty
jsonpropertyinfo
jsonpropertyinfovalues`1
jsonpropertynameattribute
jsonpropertyorderattribute
jsonreaderoptions
jsonreaderstate
jsonreaderwriterfactory
jsonrequiredattribute
jsonserializableattribute
jsonserializer
jsonserializercontext
jsonserializerdefaults
jsonserializeroptions
jsonsourcegenerationmode
jsonsourcegenerationoptionsattribute
jsonstringenumconverter
jsontokentype
jsontypeinfo
jsontypeinfo`1
jsontypeinfokind
jsontypeinforesolver
jsonunknownderivedtypehandling
jsonunknowntypehandling
jsonvalue
jsonvaluekind
jsonwriteroptions
jstype
keyattribute
keycollection
keyedcollection`2
keyedhashalgorithm
keylist
keynumber
keyrestrictionbehavior
keyscollection
keysizes
keyvaluepaircomparer
knownace
knowncolor
knowntypeattribute
labelexpression
labelhandle
labeltarget
lambdaexpression
latebinding
ldapstyleuriparser
let
license
licensecontext
licenseexception
licensemanager
licenseprovider
licenseproviderattribute
licenseusagemode
licfilelicenseprovider
lightlambda
likeoperator
lingeroption
linkedlist`1
linkedlistnode`1
linkedresource
linkedresourcecollection
listbindableattribute
listchangedeventargs
listchangedeventhandler
listchangedtype
listdictionary
listinitexpression
listsortdescription
listsortdescriptioncollection
listsortdirection
literalencoder
literalsencoder
loadoption
loadoptions
localcertificateselectioncallback
localconstant
localconstanthandle
localconstanthandlecollection
localizableattribute
localscope
localscopehandle
localscopehandlecollection
localvariable
localvariableattributes
localvariablehandle
localvariablehandlecollection
localvariablesencoder
localvariabletypeencoder
lock
lockcookie
long
longtype
lookup`2
lookupbindingpropertiesattribute
loopexpression
machine
mailaddress
mailaddresscollection
mailmessage
mailpriority
malformedlineexception
managed
managedpebuilder
managedtonativecominteropstubattribute
manifestresource
manifestresourceattributes
manifestresourcehandle
manifestresourcehandlecollection
mappingtype
marshalbyvaluecomponent
maskedtextprovider
maskedtextresulthint
maskgenerationmethod
match
matchcollection
matchevaluator
maxlengthattribute
md5
md5cryptoserviceprovider
measurement`1
measurementcallback`1
mediatypeheadervalue
mediatypenames
mediatypewithqualityheadervalue
memberassignment
memberbinding
memberbindingtype
memberdescriptor
memberexpression
memberinfoextensions
memberinitexpression
memberlistbinding
membermemberbinding
memberreference
memberreferencehandle
memberreferencehandlecollection
memberreferencekind
memberrelationship
memberrelationshipservice
memorymappedfile
memorymappedfileaccess
memorymappedfileoptions
memorymappedfilerights
memorymappedviewaccessor
memorymappedviewstream
memorypool`1
memoryview
menucommand
mergablepropertyattribute
mergefailedeventargs
mergefailedeventhandler
messageprocessinghandler
metadataaggregator
metadatabuilder
metadatakind
metadatareader
metadatareaderextensions
metadatareaderoptions
metadatareaderprovider
metadatarootbuilder
metadatasizes
metadatastreamoptions
metadatastringcomparer
metadatastringdecoder
metadatatokens
metadatatypeattribute
meter
meterlistener
methodbody
methodbodyattributes
methodbodyblock
methodbodystreamencoder
methodcallexpression
methoddebuginformation
methoddebuginformationhandle
methoddebuginformationhandlecollection
methoddefinition
methoddefinitionhandle
methoddefinitionhandlecollection
methodimplementation
methodimplementationhandle
methodimplementationhandlecollection
methodimport
methodimportattributes
methodinfoextensions
methodsemanticsattributes
methodsignature`1
methodsignatureencoder
methodspecification
methodspecificationhandle
minlengthattribute
missingmappingaction
missingprimarykeyexception
missingschemaaction
moduledefinition
moduledefinitionhandle
moduleextensions
modulereference
modulereferencehandle
monitoringdescriptionattribute
msgboxresult
msgboxstyle
multicastipaddressinformation
multicastipaddressinformationcollection
multicastoption
multilinestringconverter
multipartcontent
multipartformdatacontent
mygroupcollectionattribute
namedargumentsencoder
namedargumenttypeencoder
namedcurves
namedpipeclientstream
namedpipeserverstream
namedpipeserverstreamacl
nameencoder
nameobjectcollectionbase
namespace
namespacedefinition
namespacedefinitionhandle
namespacehandling
namespaceiterator
nametable
namevaluecollection
namevalueheadervalue
namevaluewithparametersheadervalue
nativecppclassattribute
nativeobjectsecurity
negotiateauthentication
negotiateauthenticationclientoptions
negotiateauthenticationserveroptions
negotiateauthenticationstatuscode
negotiatestream
nestedcontainer
netbiosnodetype
netpipestyleuriparser
nettcpstyleuriparser
networkaddresschangedeventhandler
networkavailabilitychangedeventhandler
networkavailabilityeventargs
networkchange
networkcredential
networkinformationexception
networkinterface
networkinterfacecomponent
networkinterfacetype
networkstream
new
newarrayexpression
newexpression
newlatebinding
newlinehandling
newsstyleuriparser
nint
nodekindcontentiterator
noderangeiterator
nonullallowedexception
not
notifycollectionchangedaction
notifycollectionchangedeventargs
notifycollectionchangedeventhandler
notifyfilters
notifyparentpropertyattribute
notmappedattribute
notnull
ntaccount
null
nullableconverter
number
objectaccessrule
objectace
objectaceflags
objectauditrule
objectenumerator
objectflowcontrol
objectidgenerator
objectmanager
objectsecurity
objectsecurity`1
objecttype
observablecollection`1
observablecounter`1
observablegauge`1
observableinstrument`1
observableupdowncounter`1
oid
oidcollection
oidenumerator
oidgroup
on
onxmldictionaryreaderclose
openaccess
openflags
openmode
openreadcompletedeventargs
openreadcompletedeventhandler
openshare
openwritecompletedeventargs
openwritecompletedeventhandler
operationalstatus
operator
operators
optioncompareattribute
optiontextattribute
or
orderablepartitioner`1
orderby
ordereddictionary
orderedenumerablerowcollection`1
orderedparallelquery`1
override
paddingmode
parallel
parallelenumerable
parallelexecutionmode
parallelloopresult
parallelloopstate
parallelmergeoptions
paralleloptions
parallelquery
parallelquery`1
parameterdirection
parameterexpression
parameterhandle
parameterhandlecollection
parametersencoder
parametertypeencoder
params
parenthesizepropertynameattribute
parentiterator
partial
partitioner
partitioner`1
passwordderivebytes
passwordpropertytextattribute
pathlist
paxglobalextendedattributestarentry
paxtarentry
pbeencryptionalgorithm
pbeparameters
pdbchecksumdebugdirectorydata
pebuilder
pedirectoriesbuilder
peheader
peheaderbuilder
peheaders
pemagic
pememoryblock
pemencoding
pemfields
pereader
pereaderextensions
permissionsetencoder
pestreamoptions
phoneattribute
physicaladdress
ping
pingcompletedeventargs
pingcompletedeventhandler
pingexception
pingoptions
pingreply
pipeaccessrights
pipeaccessrule
pipeauditrule
pipedirection
pipeoptions
pipesaclextensions
pipesecurity
pipestream
pipestreamimpersonationworker
pipetransmissionmode
pkcs1maskgenerationmethod
point
pointconverter
pointf
policyenforcement
portablepdbbuilder
posixtarentry
precedingiterator
precedingsiblingdocorderiterator
precedingsiblingiterator
prefixorigin
preparingenlistment
primaryinteropassemblyattribute
primitiveserializationtypecode
primitivetypecode
priorityqueue`2
private
privilegenotheldexception
process
processmodule
processmodulecollection
processpriorityclass
processstartinfo
processthread
processthreadcollection
processwindowstyle
productheadervalue
productinfoheadervalue
progresschangedeventargs
progresschangedeventhandler
projectdata
promise`1
propagationflags
propagatorgettercallback
propagatorsettercallback
propertyaccessors
propertychangedeventargs
propertychangedeventhandler
propertychangingeventargs
propertychangingeventhandler
propertycollection
propertydefinition
propertydefinitionhandle
propertydefinitionhandlecollection
propertydescriptor
propertydescriptorcollection
propertyinfoextensions
propertytabattribute
propertytabscope
protected
protectionlevel
protectionscenario
protocolfamily
protocoltype
protocolviolationexception
providepropertyattribute
public
publickey
qualifiedace
queryable
queue
quicabortdirection
quicclientconnectionoptions
quicconnection
quicconnectionoptions
quicerror
quicexception
quiclistener
quiclisteneroptions
quicserverconnectionoptions
quicstream
quicstreamtype
randomnumbergenerator
rangeattribute
rangeconditionheadervalue
rangeheadervalue
rangeitemheadervalue
rawacl
rawsecuritydescriptor
rc2
rc2cryptoserviceprovider
readeroptions
readerwriterlock
readonly
readonlyattribute
readonlycollectionbase
readonlycollectionbuilder`1
readonlyexception
readonlymemorycontent
readonlyobservablecollection`1
readonlysequence`1
readonlysequencesegment`1
readstate
recommendedasconfigurableattribute
record
rectangle
rectangleconverter
rectanglef
recycleoption
ref
referenceconverter
referencehandler
referencehandler`1
referenceresolver
refresheventargs
refresheventhandler
refreshproperties
refreshpropertiesattribute
regex
regexcompilationinfo
regexmatchtimeoutexception
regexoptions
regexparseerror
regexparseexception
regexrunner
regexrunnerfactory
registrationclasscontext
registrationconnectiontype
registry
registryaccessrule
registryauditrule
registryhive
registrykey
registrykeypermissioncheck
registryoptions
registryrights
registrysecurity
registryvaluekind
registryvalueoptions
registryview
regularexpressionattribute
remotecertificatevalidationcallback
remove
renamedeventargs
renamedeventhandler
requestcachelevel
requestcachepolicy
required
requiredattribute
requiredattributeattribute
reservedblob`1
resolvenameeventargs
resolvenameeventhandler
resourcesectionbuilder
resourcetype
resourcewriter
retryconditionheadervalue
return
returntypeencoder
rfc2898derivebytes
rijndael
rijndaelmanaged
rngcryptoserviceprovider
rootdesignerserializerattribute
rownotintableexception
rowupdatedeventargs
rowupdatingeventargs
rsa
rsacertificateextensions
rsacng
rsacryptoserviceprovider
rsaencryptionpadding
rsaencryptionpaddingmode
rsaoaepkeyexchangedeformatter
rsaoaepkeyexchangeformatter
rsaopenssl
rsaparameters
rsapkcs1keyexchangedeformatter
rsapkcs1keyexchangeformatter
rsapkcs1signaturedeformatter
rsapkcs1signatureformatter
rsasignaturepadding
rsasignaturepaddingmode
rule
rulecache`1
runinstallerattribute
runtimebinderexception
runtimebinderinternalcompilerexception
runtimeenvironment
runtimeops
runtimevariablesexpression
runworkercompletedeventargs
runworkercompletedeventhandler
safeaccesstokenhandle
safeevppkeyhandle
safememorymappedfilehandle
safememorymappedviewhandle
safencrypthandle
safencryptkeyhandle
safencryptproviderhandle
safencryptsecrethandle
safepipehandle
safeprocesshandle
saferegistryhandle
safesockethandle
safex509chainhandle
sampleactivity`1
saveoptions
sbyte
sbyteconverter
scaffoldcolumnattribute
scalarencoder
schemaimporter
schemaserializationmode
schematablecolumn
schematableoptionalcolumn
schematype
scope
scoped
scopelessenumattribute
scopelevel
sealed
searchoption
section
sectioncharacteristics
sectionheader
sectionlocation
securestringmarshal
securityidentifier
securityinfos
securityprotocoltype
select
selectiontypes
selectmode
sendcompletedeventhandler
sendpacketselement
sequencemarshal
sequencepoint
sequencepointcollection
sequenceposition
sequencereader`1
sequencereaderextensions
serializationbinder
serializationeventhandler
serializationformat
serializationobjectmanager
serializationstore
serializationtypecode
servercertificateselectioncallback
serveroptionsselectioncallback
servicecontainer
servicecreatorcallback
servicenamecollection
servicepoint
servicepointmanager
set
setindexbinder
setiteratorresult
setmemberbinder
settingsbindableattribute
sha1
sha1cryptoserviceprovider
sha1managed
sha256
sha256cryptoserviceprovider
sha256managed
sha384
sha384cryptoserviceprovider
sha384managed
sha512
sha512cryptoserviceprovider
sha512managed
short
shorttype
signatureattributes
signaturecallingconvention
signaturedecoder`2
signaturedescription
signatureheader
signaturekind
signaturetypecode
signaturetypeencoder
signaturetypekind
singleconverter
singlephaseenlistment
singletype
size
sizeconverter
sizef
sizefconverter
sizeof
smtpclient
smtpdeliveryformat
smtpdeliverymethod
smtpexception
smtpfailedrecipientexception
smtpfailedrecipientsexception
smtpstatuscode
soapattributeattribute
soapattributeoverrides
soapattributes
soapelementattribute
soapenumattribute
soapignoreattribute
soapincludeattribute
soapreflectionimporter
soapschemamember
soaptypeattribute
socket
socketaddress
socketasynceventargs
socketasyncoperation
socketerror
socketexception
socketflags
socketinformation
socketinformationoptions
socketoptionlevel
socketoptionname
socketreceivefromresult
socketreceivemessagefromresult
socketshttpconnectioncontext
socketshttphandler
socketshttpplaintextstreamfiltercontext
socketshutdown
sockettaskextensions
sockettype
sorteddictionary`2
sortedlist
sortedlist`2
sortedset`1
sourcefilter
sourcelevels
sourceswitch
spcinfo
specialdirectories
sqlalreadyfilledexception
sqlbinary
sqlboolean
sqlbyte
sqlbytes
sqlchars
sqlcompareoptions
sqldatetime
sqldbtype
sqldecimal
sqldouble
sqlguid
sqlint16
sqlint32
sqlint64
sqlmoney
sqlnotfilledexception
sqlnullvalueexception
sqlsingle
sqlstring
sqltruncateexception
sqltypeexception
sqlxml
sslapplicationprotocol
sslcertificatetrust
sslclientauthenticationoptions
sslclienthelloinfo
sslpolicyerrors
sslprotocols
sslserverauthenticationoptions
sslstream
sslstreamcertificatecontext
stack
stack`1
stackalloc
standalonesignature
standalonesignaturehandle
standalonesignaturekind
standardcommands
standardmoduleattribute
standardtoolwindows
standardvaluescollection
statdata
statechangeeventargs
statechangeeventhandler
statementcompletedeventargs
statementcompletedeventhandler
statementtype
static
staticlocalinitflag
stgmedium
storagestate
storelocation
storename
streamcontent
stringcollection
stringconcat
stringcontent
stringconverter
stringdictionary
stringenumerator
stringhandle
stringlengthattribute
strings
stringtype
stringwithqualityheadervalue
strongtypingexception
struct
structuralcomparisons
subjectalternativenamebuilder
subordinatetransaction
subsystem
suffixorigin
supportedjoinoperators
surrogateselector
switch
switchattribute
switchcase
switchlevelattribute
symaddresskind
symboldocumentinfo
symboltoken
symdocumenttype
symlanguagetype
symlanguagevendor
symmetricalgorithm
syntaxcheck
syntaxerrorexception
systemacl
systemcolors
tabinfo
tableattribute
tableindex
tagclass
taglist
tarentry
tarentryformat
tarentrytype
tarfile
tarreader
tarwriter
tcpclient
tcpconnectioninformation
tcplistener
tcpstate
tcpstatistics
text
textencoder
textencodersettings
textfieldparser
textwritertracelistener
this
threadprioritylevel
threadstate
threadwaitreason
throw
timeonlyconverter
timer
timersdescriptionattribute
timespanconverter
timestampattribute
tlsciphersuite
tobase64transform
tokenaccesslevels
toolboxitemattribute
toolboxitemfilterattribute
toolboxitemfiltertype
trace
traceeventcache
traceeventtype
tracefilter
tracelevel
tracelistener
tracelistenercollection
traceoptions
tracesource
traceswitch
transaction
transactionabortedexception
transactioncompletedeventhandler
transactioneventargs
transactionexception
transactionindoubtexception
transactioninformation
transactioninterop
transactionmanager
transactionmanagercommunicationexception
transactionoptions
transactionpromotionexception
transactionscope
transactionscopeasyncflowoption
transactionscopeoption
transactionstartedeventhandler
transactionstatus
transfercodingheadervalue
transfercodingwithqualityheadervalue
transferencoding
transformblock`2
transformmanyblock`2
transmitfileoptions
transportcontext
treeset`1
tripledes
tripledescng
tripledescryptoserviceprovider
tristate
true
truetypesubsetter
try
tryexpression
tymed
typebinaryexpression
typeconverter
typeconverterattribute
typedefinition
typedefinitionhandle
typedefinitionhandlecollection
typedescriptionprovider
typedescriptionproviderattribute
typedescriptionproviderservice
typedescriptor
typedtablebase`1
typedtablebaseextensions
typeextensions
typefilterlevel
typelayout
typelibfuncattribute
typelibfuncflags
typelibimportclassattribute
typelibtypeattribute
typelibtypeflags
typelibvarattribute
typelibvarflags
typelibversionattribute
typelistconverter
typeloadexceptionholder
typeof
typereference
typereferencehandle
typereferencehandlecollection
typespecification
typespecificationhandle
udpclient
udpreceiveresult
udpstatistics
uicanceloption
uihintattribute
uint
uint128converter
uint16converter
uint32converter
uint64converter
uioption
ulong
unaryexpression
unaryoperationbinder
unboundedchanneloptions
unchecked
unicastipaddressinformation
unicastipaddressinformationcollection
unicoderange
unicoderanges
unioniterator
uniqueconstraint
uniqueid
universaltagnumber
unixdomainsocketendpoint
unmanaged
unordereditemscollection
unreferencedobjecteventargs
unreferencedobjecteventhandler
unsafe
updaterowsource
updatestatus
updowncounter`1
uploaddatacompletedeventargs
uploaddatacompletedeventhandler
uploadfilecompletedeventargs
uploadfilecompletedeventhandler
uploadprogresschangedeventargs
uploadprogresschangedeventhandler
uploadstringcompletedeventargs
uploadstringcompletedeventhandler
uploadvaluescompletedeventargs
uploadvaluescompletedeventhandler
uri
uribuilder
uricomponents
uricreationoptions
uriformat
uriformatexception
urihostnametype
urikind
uriparser
uripartial
uritypeconverter
urlattribute
urlencoder
userstringhandle
ushort
using
ustartarentry
utf8jsonreader
utf8jsonwriter
utils
v7tarentry
validationattribute
validationcontext
validationeventargs
validationeventhandler
validationexception
validationresult
validationtype
validator
value
valuecollection
valuelist
valuematch
valuematchenumerator
valueserializerattribute
valuewebsocketreceiveresult
var
varianttype
vbfixedarrayattribute
vbfixedstringattribute
vbmath
vbstrconv
vectorencoder
versionconverter
versioned
versionnotfoundexception
viaheadervalue
viewtechnology
virtual
void
volatile
waitforchangedresult
warningexception
warningheadervalue
watcherchangetypes
webclient
webexception
webexceptionstatus
webheadercollection
webproxy
webrequest
webrequestmethods
webresponse
websocket
websocketclosestatus
websocketcontext
websocketcreationoptions
websocketdeflateoptions
websocketerror
websocketexception
websocketmessageflags
websocketmessagetype
websocketreceiveresult
websocketstate
wellknownsidtype
when
where
while
whitespacehandling
windowsaccounttype
windowsbuiltinrole
windowsidentity
windowsprincipal
with
writeonceblock`1
writestate
writestreamclosedeventargs
writestreamclosedeventhandler
x500distinguishedname
x500distinguishednamebuilder
x500distinguishednameflags
x500relativedistinguishedname
x509authorityinformationaccessextension
x509authoritykeyidentifierextension
x509basicconstraintsextension
x509certificate
x509certificate2
x509certificate2collection
x509certificate2enumerator
x509certificatecollection
x509certificateenumerator
x509chain
x509chainelement
x509chainelementcollection
x509chainelementenumerator
x509chainpolicy
x509chainstatus
x509chainstatusflags
x509chaintrustmode
x509contenttype
x509enhancedkeyusageextension
x509extension
x509extensioncollection
x509extensionenumerator
x509findtype
x509includeoption
x509keystorageflags
x509keyusageextension
x509keyusageflags
x509nametype
x509revocationflag
x509revocationmode
x509revocationreason
x509signaturegenerator
x509store
x509subjectalternativenameextension
x509subjectkeyidentifierextension
x509subjectkeyidentifierhashalgorithm
x509verificationflags
xattribute
xcdata
xcomment
xcontainer
xdeclaration
xdocument
xdocumentextensions
xdocumenttype
xelement
xmlanyattributeattribute
xmlanyelementattribute
xmlanyelementattributes
xmlarrayattribute
xmlarrayitemattribute
xmlarrayitemattributes
xmlatomicvalue
xmlattribute
xmlattributeattribute
xmlattributecollection
xmlattributeeventargs
xmlattributeeventhandler
xmlattributeoverrides
xmlattributes
xmlbinaryreadersession
xmlbinarywritersession
xmlcaseorder
xmlcharacterdata
xmlchoiceidentifierattribute
xmlcollation
xmlconvert
xmldatacontract
xmldatadocument
xmldatatype
xmldatetimeserializationmode
xmldeclaration
xmldeserializationevents
xmldictionary
xmldictionaryreader
xmldictionaryreaderquotas
xmldictionaryreaderquotatypes
xmldictionarystring
xmldictionarywriter
xmldocument
xmldocumentfragment
xmldocumenttype
xmlelementattribute
xmlelementattributes
xmlelementeventargs
xmlelementeventhandler
xmlentity
xmlentityreference
xmlenumattribute
xmlexception
xmlignoreattribute
xmlilindex
xmlilstorageconverter
xmlimplementation
xmlincludeattribute
xmlknowndtds
xmllinkednode
xmlmapping
xmlmappingaccess
xmlmembermapping
xmlmembersmapping
xmlnamednodemap
xmlnamespacedeclarationsattribute
xmlnamespacemanager
xmlnamespacescope
xmlnametable
xmlnavigatorfilter
xmlnode
xmlnodechangedaction
xmlnodechangedeventargs
xmlnodechangedeventhandler
xmlnodeeventargs
xmlnodeeventhandler
xmlnodelist
xmlnodeorder
xmlnodereader
xmlnodetype
xmlnotation
xmlobjectserializer
xmloutputmethod
xmlparsercontext
xmlpreloadedresolver
xmlqualifiedname
xmlquerycontext
xmlqueryitemsequence
xmlquerynodesequence
xmlqueryoutput
xmlqueryruntime
xmlquerysequence`1
xmlreader
xmlreadersettings
xmlreadmode
xmlreflectionimporter
xmlreflectionmember
xmlresolver
xmlrootattribute
xmlschema
xmlschemaall
xmlschemaannotated
xmlschemaannotation
xmlschemaany
xmlschemaanyattribute
xmlschemaappinfo
xmlschemaattribute
xmlschemaattributegroup
xmlschemaattributegroupref
xmlschemachoice
xmlschemacollection
xmlschemacollectionenumerator
xmlschemacompilationsettings
xmlschemacomplexcontent
xmlschemacomplexcontentextension
xmlschemacomplexcontentrestriction
xmlschemacomplextype
xmlschemacontent
xmlschemacontentmodel
xmlschemacontentprocessing
xmlschemacontenttype
xmlschemadatatype
xmlschemadatatypevariety
xmlschemaderivationmethod
xmlschemadocumentation
xmlschemaelement
xmlschemaenumerationfacet
xmlschemaenumerator
xmlschemaexception
xmlschemaexporter
xmlschemaexternal
xmlschemafacet
xmlschemaform
xmlschemafractiondigitsfacet
xmlschemagroup
xmlschemagroupbase
xmlschemagroupref
xmlschemaidentityconstraint
xmlschemaimport
xmlschemaimporter
xmlschemainclude
xmlschemainference
xmlschemainferenceexception
xmlschemainfo
xmlschemakey
xmlschemakeyref
xmlschemalengthfacet
xmlschemamaxexclusivefacet
xmlschemamaxinclusivefacet
xmlschemamaxlengthfacet
xmlschemaminexclusivefacet
xmlschemamininclusivefacet
xmlschemaminlengthfacet
xmlschemanotation
xmlschemanumericfacet
xmlschemaobject
xmlschemaobjectcollection
xmlschemaobjectenumerator
xmlschemaobjecttable
xmlschemaparticle
xmlschemapatternfacet
xmlschemaproviderattribute
xmlschemaredefine
xmlschemas
xmlschemasequence
xmlschemaset
xmlschemasimplecontent
xmlschemasimplecontentextension
xmlschemasimplecontentrestriction
xmlschemasimpletype
xmlschemasimpletypecontent
xmlschemasimpletypelist
xmlschemasimpletyperestriction
xmlschemasimpletypeunion
xmlschematotaldigitsfacet
xmlschematype
xmlschemaunique
xmlschemause
xmlschemavalidationexception
xmlschemavalidationflags
xmlschemavalidator
xmlschemavalidity
xmlschemawhitespacefacet
xmlschemaxpath
xmlsecureresolver
xmlserializableservices
xmlserializationcollectionfixupcallback
xmlserializationfixupcallback
xmlserializationgeneratedcode
xmlserializationreadcallback
xmlserializationreader
xmlserializationwritecallback
xmlserializationwriter
xmlserializer
xmlserializerassemblyattribute
xmlserializerfactory
xmlserializerimplementation
xmlserializernamespaces
xmlserializerversionattribute
xmlseveritytype
xmlsignificantwhitespace
xmlsortkeyaccumulator
xmlsortorder
xmlspace
xmltextreader
xmltextwriter
xmltokenizedtype
xmltypeattribute
xmltypecode
xmltypemapping
xmlurlresolver
xmlvalidatingreader
xmlvaluegetter
xmlwhitespace
xmlwritemode
xmlwriter
xmlwritersettings
xmlwritertracelistener
xname
xnamespace
xnode
xnodedocumentordercomparer
xnodeequalitycomparer
xobject
xobjectchange
xobjectchangeeventargs
xpathdocument
xpathexception
xpathexpression
xpathfollowingiterator
xpathfollowingmergeiterator
xpathitem
xpathnamespacescope
xpathnavigator
xpathnodeiterator
xpathnodetype
xpathprecedingdocorderiterator
xpathprecedingiterator
xpathprecedingmergeiterator
xpathquerygenerator
xpathresulttype
xprocessinginstruction
xsddatacontractexporter
xslcompiledtransform
xsltargumentlist
xsltcompileexception
xsltcontext
xsltconvert
xsltexception
xsltfunctions
xsltlibrary
xsltmessageencounteredeventargs
xsltmessageencounteredeventhandler
xsltransform
xsltsettings
xstreamingelement
xtext
yield
ziparchive
ziparchiveentry
ziparchivemode
zipfile
zipfileextensions
zlibexception
zlibstream
nameof
system
##s
name
result
append
##type
drawing
cancellationtoken
length
list
task
response
assert
windows
forms
tostring
##name
##id
count
input
exception
request
argumentnullexception
item
the
message
##data
##async
##1
configuration
##2
to
context
index
##list
##value
data
dictionary
##info
key
##index
client
configureawait
options
source
##result
##request
##count
##response
ienumerable
writeline
##path
localvarresponse
isnullorempty
location
path
controls
debug
##state
##key
obj
format
##exception
##context
##item
be
parameters
other
reader
##options
##ed
empty
##d
tabindex
##object
apiclient
##string
##ing
##manager
##node
##size
contains
url
##file
of
map
areequal
##service
math
##text
node
label1
log
instance
prefix
##3
stream
element
##message
click
dispose
buffer
##builder
##mode
start
json
func
writer
httprequest
##this
##collection
resourcegroupname
##settings
content
headers
position
intptr
argumentexception
##status
##r
##er
create
state
localvarrequestoptions
##property
write
##model
target
failed
font
offset
##0
stringbuilder
##time
##helper
httpresponse
##event
##array
user
##length
##element
parse
eventhandler
##button
autoscalemode
##code
toarray
logger
gettype
##position
sender
guid
##version
site
##provider
action
##4
button1
##e
microsoft
property
threading
localvarheaderparams
##client
##factory
##properties
containskey
##x
method
replace
connection
##map
status
##url
##set
##error
command
none
output
setparamsimple
##parameters
transform
##attribute
##handler
config
body
query
width
model
##action
##group
settings
##token
halconapi
##t
##offset
##table
clear
test
cultureinfo
##number
parent
##point
entity
tolist
apiresponse
##a
##resource
componentmodel
addrange
convert
statuscode
##config
info
##source
field
##stream
##y
##entity
invoke
values
height
row
line
##buffer
##view
createscope
##date
header
##method
##label
##field
operation
##configuration
##instance
##entry
invalidoperationexception
##color
entry
##base
filename
current
keyvaluepair
load
localvarpathparams
services
##5
items
substring
vector2
##cache
##expression
##handle
localvarqueryparams
exceptionfactory
localvarhttpheaderaccept
##command
##values
button
resumelayout
suspendlayout
ret
##o
##n
##bytes
##control
array
##format
##filter
firstordefault
##task
label
anchorstyles
description
subscriptionid
version
##width
getrawresponse
region
clientdiagnostics
isnullorwhitespace
bytes
zero
equal
timespan
exists
##types
label2
localvarpostbody
code
service
trygetvalue
filter
##b
##content
##f
stringcomparison
page
tsource
##query
headerparameters
##uri
must
##level
##6
##8
##location
##container
callback
##address
##l
##flags
##definition
fact
##test
##m
properties
an
str
ilist
encoding
update
##line
val
invocationid
##items
##reference
##parameter
initializecomponent
apiexception
fromvalue
##able
##height
##header
##es
read
clientutils
##changed
##start
##image
res
##pos
cmd
expected
##range
##p
environment
usevisualstylebackcolor
diagnostics
calling
##target
##eventargs
found
##7
results
directory
##user
tresult
table
project
deserialize
tentity
##folder
##i
##c
should
testmethod
##directory
##input
irestresponse
combine
missing
resources
operations
pos
hasvalue
delete
sdk
fullname
localvarstatuscode
##class
shouldtrace
tasks
assertnotnullorempty
##to
##tag
##block
getvalue
split
child
##form
tkey
ptr
accept
invariantculture
max
api
##operation
int32
##api
##row
tvalue
end
localvarfileparams
localvarformparams
server
##reader
responsecontent
##style
##template
run
localvarpath
localvarhttpcontenttypes
localvarhttpheaderaccepts
localvarhttpcontenttype
autoscaledimensions
time
left
##box
close
parametertostring
##connection
##controller
handler
##column
##description
##end
serviceclienttracing
trim
##params
factset
##viewmodel
##9
##dictionary
nextlink
right
##page
session
indexof
was
clientsize
argumentoutofrangeexception
##callback
##repository
##dir
autosize
##log
first
istrue
tryparse
min
msg
##operations
execute
that
##constants
common
success
memorystream
grpc
column
##ref
##metadata
getasync
pipeline
now
provider
##attributes
getstring
getbytes
address
##record
cannot
##al
keys
##names
xml
##files
gameobject
##fields
tolower
##scope
##writer
##args
temp
startswith
tracingparameters
##details
appendline
##ptr
##order
segments
##panel
actual
eventargs
##window
##part
hash
app
##update
##obj
root
##document
endregion
contract
accesstoken
##rect
invalid
param
##internal
##queue
view
order
##link
textbox1
##frame
##g
marshal
filepath
doc
userid
runtime
button2
serialize
##direction
propertyname
##server
ordinalignorecase
##function
has
matrix
assembly
##h
limit
password
selectheaderaccept
##dto
jsonconvert
##filename
##output
##component
title
methodimpl
##hash
##option
enabled
##descriptor
mathf
sendasync
##enabled
##prefix
##restclient
##ly
no
performlayout
##project
language
bindingflags
selectheadercontenttype
##root
##unit
tablename
##kind
copy
next
top
throwifcancellationrequested
##store
thread
callsettings
fields
tag
open
suppressmessage
picturebox1
##utils
##results
send
getcomponent
nativemethods
src
show
deserializeobject
##out
methodimploptions
have
todictionary
does
##points
save
localvaraccept
self
##title
localvarcontenttype
logerror
it
startindex
range
gethashcode
##lock
store
utf8
##session
##events
13f
insert
##withhttpinfo
collections
verify
textbox
dialogresult
columns
control
##transform
efl
formborderstyle
aggressiveinlining
idictionary
symbol
##k
rect
idx
destination
##enum
attributes
abs
arguments
##filepath
points
##ion
member
isnotnull
##symbol
req
##change
##port
##body
##or
##v
##mapping
selector
##delegate
##param
##matrix
predicate
username
##toolstripmenuitem
##wrapper
##policy
##ids
##vector
tuple
build
##segment
endif
##module
prop
##keys
player
cache
##u
##information
pair
##rule
btncancel
##tree
resource
##category
##in
##guid
setvalue
maxvalue
icon
##member
col
files
category
toolsettings
bottom
visible
are
##all
##char
components
than
##objects
streamreader
level
cancel
##nodes
##left
children
##elements
generic
mode
##distance
accepts
##transaction
##parser
flags
google
call
folder
timeout
customheaders
com
culture
##adapter
##identifier
scale
readasstringasync
##generator
fontstyle
##json
##system
owner
requestoptions
find
##mask
newline
baseurl
##password
##textbox
##match
direction
host
##host
main
##ation
##area
initialize
single
producesresponsetype
##pattern
device
##logger
len
##listresult
httpcontext
ctx
at
template
serializationcontext
publicrequest
metadata
##max
##bounds
contenttypes
disposing
mesh
dslmodeling
bearer
part
##stack
##texture
fileparameter
##limit
##dialog
##scale
##cell
htuple
register
requires
applyresources
backcolor
##grid
window
##at
##timeout
hashset
queryparameters
iactionresult
amount
identifier
##schema
##ex
##from
database
##converter
##str
panel1
##z
pattern
##check
valid
##device
one
##span
##step
check
err
credentials
cell
currentculture
toint32
btn
rotation
graphicsunit
##val
##et
bitconverter
##extension
all
##player
arg
dir
retval
tags
isenabled
unable
##core
##engine
endswith
defaultheader
padding
elsereturn
sql
random
nodes
compiler
label3
##profile
##int
##pool
##channel
##selector
##amount
utcnow
vertices
##num
##angle
##assembly
datetimeoffset
##flag
rows
##right
can
loglevel
core
newvalue
quaternion
##thread
conn
##variable
##rate
distance
originalresponse
##timer
##services
##layer
##headers
groups
firstpagefunc
##interval
##min
newguid
##xml
factory
##resolver
visibility
jobject
been
but
payload
##menu
##process
codedom
schema
##condition
##script
vector
##serializer
port
clone
##arguments
fill
##def
types
##methods
email
##util
frame
bounds
##columns
##clientdiagnostics
design
##graph
reference
##extensions
validate
##binding
##account
##region
opcodes
span
##ar
item1
##setting
parts
item2
##edge
##role
##argument
##bar
accountname
controller
##w
marshaller
##only
logentrykind
models
##eventhandler
pagesizehint
##section
##idx
already
link
attr
account
##lines
tmp
##call
guard
serializeobject
comparer
##messages
##func
anchor
##resources
##parent
exit
fromvalues
##packet
iservicecollection
style
escapedatastring
serializer
compare
##package
##on
rootelement
package
defaultvalue
keepalive
##read
concat
net
elements
getapikeywithprefix
stop
subscription
returned
##datetime
httpget
form
dst
##storage
sequenceequal
contentstream
messagebox
##entries
statuscodes
##database
##msg
##utility
sum
assertnotnull
displayname
setup
returns
num
pagesize
post
referenceequals
##groups
##access
databasename
##endpoint
gisharp
specified
isvalid
parametertomultimap
##errors
dock
unmarshaller
##tags
form1
hints
##byte
procresult
##up
subject
enter
plugin
##len
##child
because
waituntil
propertytype
##space
scene
errors
repository
##2d
will
only
##mesh
grid
graph
groupbox1
margin
##report
##shape
warning
entities
##of
##score
include
##duration
##proxy
nextpagefunc
inlinedata
##if
##exists
##application
angle
lines
txt
util
##price
fileinfo
mock
propertyinfo
manager
you
completed
##detail
reset
##counter
createinstance
movenext
condition
copyto
servername
texture
##email
##entities
##activity
messages
icomparable
duration
updatedrows
##factor
html
rest
dockstyle
##axis
##behavior
errorcode
##slot
##job
segment
##by
##withhttpmessagesasync
unit
removeat
connectionstring
module
use
dict
compareto
serviceimpl
isnull
tokens
requestfailedexception
##strings
nextpagelink
##speed
##found
##pair
##ize
##word
begin
##btn
projectid
##byid
##actions
##doc
##layout
filestream
radius
last
##sequence
requestcontent
ienumerator
parametertokeyvaluepairs
restclient
##ment
##progress
regular
##selection
expand
##dict
second
##le
##copy
parser
##statement
##ate
draw
justification
##impl
##renderer
##encoding
normal
##complete
##processor
extension
could
##syntax
##interface
ids
##changes
delta
definition
push
readline
https
minvalue
pure
utilities
testcase
graphics
emit
##for
##ic
unknown
box
##states
methodinfo
commandtimeout
##operator
errormessage
originaltags
we
datagridview1
obsolete
##language
timestamp
packet
identity
please
##font
endinit
sleep
##responseunmarshaller
loginformation
##parts
requestid
asset
bitmap
begininit
up
##rotation
##entifier
web
getall
original
word
step
##expr
##bits
buf
##helpers
##credentials
##center
##completed
##ui
##utilities
##children
##alias
getobject
##spec
icollection
##rows
entitytype
counter
##get
ordinal
##next
##scene
setactive
##icon
testcategory
##tableadapter
##requestmarshaller
##asset
##enumerator
##members
##summary
generatedcode
addsingleton
startposition
origin
uint32
##contents
proxy
notsupportedexception
entries
##vertex
##indices
oftype
equalto
mask
##listener
##strategy
##namespace
gax
value1
##pointer
errorbody
##camera
streamwriter
callapi
##rectangle
##down
##identity
cloud
logwarning
roster
product
notimplementedexception
center
tryaddwithoutvalidation
##chars
##is
isany
getlength
edfi
resourcename
total
##default
##editor
createorupdate
azure
operationcontext
##period
##rules
badrequest
value2
axis
##history
reason
##depth
agent
##loader
uuid
throws
##edit
enqueue
typename
##animation
supported
access
tree
character
route
filemode
binding
##bitmap
getservice
exist
names
isempty
##an
fail
objects
events
##paths
##one
job
actionresult
innerexception
int64
search
##velocity
safejsonconvert
formstartposition
sequence
methodname
tablelayoutpanel1
##commands
##valid
##screen
lib
option
deletedrows
security
returnvalue
##notification
skip
getproperty
##variables
invokeasync
addedrows
gaxpreconditions
##face
solution
serialization
gaxgrpc
##byname
##3d
sort
layer
tokentype
wait
httppost
##reason
##search
##ent
##um
##payload
##success
notfound
##permissions
resolve
##delete
##top
white
initoct
progress
##prop
##comparer
##as
requestmarshaller
##domain
slice
##tile
invokeoptions
responseunmarshaller
variable
isassignablefrom
##material
round
cast
##ies
go
##null
##en
dependencyobject
script
##app
##os
engine
isfalse
helper
before
##radius
##environment
##added
ireadonlylist
##feature
##new
##save
##available
seek
##separator
##components
resp
##threshold
netoffice
disposed
seekorigin
callingconvention
release
btnok
azureoperationresponse
##declaration
##received
##signature
##vertices
tabstop
depth
##run
codeanalysis
##weight
getenumerator
##sasync
appendformat
tomap
##trigger
fieldname
game
##asyncwithhttpinfo
starttime
##ive
label1this
##game
globalization
interopservices
after
ensure
toupper
requesturi
jtoken
tracingadapter
fromargb
texture2d
oldvalue
getvalues
methods
##tasks
sans
##accessor
created
expr
##no
users
targettype
area
##ter
##references
##delay
##propertyname
storage
maximizebox
hashcode
##us
##site
##owner
unity
sut
##records
addmethod
generator
validationrules
cancelbutton
nodetype
##comment
##stats
partition
todelimitedstring
role
##delta
button3
serif
##ers
shape
##volume
incorrect
##units
viewmodel
indices
cursor
pragma
##card
interop
##selected
##library
assertion
detail
##nt
##with
deleteasync
##effect
org
unpintuple
startdate
program
take
##character
##it
##est
##ure
##failed
createdirectory
##registry
##users
groupid
##marker
getdata
##required
parametername
bind
stringsplitoptions
##filters
##override
sendrequest
listener
##batch
##curve
rowcount
##add
##origin
##mapper
getdirectoryname
configure
##series
##lookup
##first
alladdedrows
pointer
startnew
##display
enddate
details
protocol
material
##tab
##var
flush
peek
pow
forecolor
globals
cannotbenull
emparameters
callapiasync
##typename
arr
##controls
edge
directoryinfo
readtoend
arraylist
camera
profile
nativehandle
##started
##colors
local
##html
separator
##scheme
country
##solution
##infos
alpha
batch
interlocked
##seconds
driver
more
##desc
connect
##subscription
report
signature
used
getresult
pageablehelpers
##tokens
##product
##click
##normal
readonlyspan
hit
##main
##validator
mapping
showdialog
selectedindex
which
##cost
##created
##permission
sin
dialog
series
csharp
##metrics
##definitions
##props
##q
gettypeinfo
selecteditem
##active
##open
editorguilayout
##toadd
##back
unityengine
pop
pmanager
##algorithm
##formatter
oauth2client
##visible
img
ipage
##memory
##mappings
tile
##sum
##ization
##st
year
guilayout
getfilename
##op
cells
iasyncresult
addparameter
##timestamp
dest
activator
##brush
##driver
##regex
getmethod
customdata
##toremove
##close
domain
##chunk
converter
begininvoke
period
bits
pool
##register
logdebug
less
##sample
chunk
columnname
fromresult
##datatype
baseuri
##return
book
##year
##constraint
##re
selected
createorupdateasync
comment
head
##priority
change
##ity
0x00
getname
##ratio
##trace
your
##ble
##console
##secret
capturerequirementifareequal
fromseconds
matches
active
delay
setting
##utc
polygon
selectmany
allchangedrows
##usage
##move
##where
##route
objectdisposedexception
getawaiter
tables
dll
getproperties
##login
##col
bold
richtextbox1
toolstripmenuitem
getconfigurationpropertyvalue
added
##manifest
##select
sqrt
##case
dataannotations
menustrip1
okbutton
##local
sync
argumentnull
##functions
work
##dependencies
compile
world
vector4
filters
executenonquery
adapter
provided
waitforcompletion
basic
##ce
executeasync
readbyte
slot
##geometry
parametertype
asynccallback
commands
##db
queryparams
servicetype
algorithm
buttoncancel
formatexception
interval
##enumerable
contents
##post
currentnode
##ance
cos
moid
##attr
deserializationsettings
##loaded
face
codedwithexceptions
##registration
##write
##targets
firstname
monitor
mod
##arg
removed
##se
minimizebox
diff
gametime
##labels
valuetask
statementbuilder
##modifier
eina
##mock
##holder
existing
panel
##categories
##combobox
##tostring
##ting
descriptor
##ts
parseasync
##groupname
env
declaringtype
browser
##after
##debug
price
##j
##modified
ticks
##ness
ismatch
webid
writepropertyname
spritebatch
getifexists
##flow
serviceprovider
textbox2
given
www
##updated
##edges
kind
throwifdisposed
commandtext
##arr
savechanges
invariantcultureignorecase
columncount
move
##long
##contract
notification
borderstyle
##setup
stacktrace
##resolution
game1
instead
##equal
##load
props
contain
##errorcode
##menuitem
##day
png
##codes
##ped
httpresult
##sql
##ist
flag
##padding
checknotnull
processor
hasflag
sample
clientid
##ue
same
score
##specified
cachekey
##certificate
logging
devexpress
keyselector
##suffix
tolowerinvariant
##vm
commit
##socket
##ge
forward
inner
##monitor
callprocedure
dequeue
postcall
getrequiredservice
precall
##tables
##double
getcustomattributes
##hour
getinstance
##current
##snapshot
##tracker
black
maximum
##loop
reply
##features
fileaccess
##shift
##sresponse
splitcontainer1
##clause
put
ilogger
tservice
deadline
##pages
iscancellationrequested
lastname
ray
##ator
createrequestfailedexception
hashtable
stringcomparer
velocity
##build
##total
##transition
##nd
##instruction
##warning
##tests
support
trans
##iterator
##te
##validation
createrequestfailedexceptionasync
##capacity
trimend
destroy
tcs
innertext
flatstyle
##blocks
non
##rs
elementat
graphicsdevice
##book
capturerequirement
sub
##relationship
##ial
##platform
available
factor
##columnname
##tablename
##positions
there
fieldinfo
label4
##credential
optional
stathread
utility
##dataset
clamp
renderer
appsettings
##cells
loadnew
tagbuilder
platform
priority
paths
seps
##ap
reverse
messageid
##exit
iequatable
uint64
bin
##ot
##ized
##ted
##culture
getfiles
previous
foo
##tools
##focus
greater
##srequest
##assemblies
fullpath
##age
csv
mapper
typecode
##fragment
sqlconnection
##equals
dot
routedeventargs
unmanagedstruct
lbl
##ia
absoluteuri
reflection
##control1
##float
tick
resolution
month
onpropertychanged
network
sprite
servicename
##steps
newitem
##tr
login
canbenull
unexpected
arg2
##instances
##links
##characters
##empty
pixs
naming
minimum
treenode
div
##prefab
accountid
##chain
##used
nullable
quantity
plane
words
debuggernonusercodeattribute
##annotation
tmodel
candidate
##ry
nextinvocationid
person
##stop
certificate
##subject
titem
stopwatch
bucket
chars
resourcepath
##failure
lusid
called
policy
colors
12f
apply
##ve
stringwriter
tsender
##segments
targets
##buttons
members
listbox1
calloptions
deltatime
##quantity
frombody
layout
topic
vertex
centerscreen
ioexception
selection
messageboxbuttons
peer
ascii
##locations
seed
refresh
##connectionstring
##comments
##ile
singleordefault
city
taskscheduler
##ping
##ticks
##classes
##cursor
so
##checkbox
##serviceclient
##handlers
##sets
modelstate
customer
##entitytype
assemblyname
##bit
##contenttype
##tor
datasource
receiveresponse
classname
batchsize
##protocol
dist
generate
feature
isnotvalid
def
##orientation
force
##el
##preview
serviceproxy
combobox1
##alignment
##notfound
applicationexception
exe
##keyword
resize
changes
##sync
playfabsettings
##connector
##before
propertyvalue
##behaviour
modify
##connections
##groupid
##criteria
postasync
contact
warn
##roles
verbose
##hit
##runtime
ensemble
##ip
##theme
helpers
##alpha
cancellation
##sprite
menu
##images
##ay
addcomponent
##mp
xmlns
actions
canvas
##ordefault
createasync
##create
##plane
currency
did
nothing
##removed
formatprovider
kernel
##predicate
telement
##tool
##visitor
records
##coordinates
##border
images
tenum
##closed
framework
accesscondition
tolerance
##bound
##username
##izer
changed
savetofile
testsuitebase
prev
sqlparameter
##userid
##folders
##temp
writebyte
requestcontext
ext
##single
base64encode
memory
##pose
##reply
##soperations
getattribute
lastindexof
rhs
##term
##attachment
logmessage
statement
##indicator
##agent
##ine
never
iobservable
zaptracespan
loadfromfile
unwrap
##im
red
##schedule
frameworkelement
textchanged
connector
basetype
##diagnostics
##runner
##ence
kwargs
##cancel
##pass
dto
##loc
taskcreationoptions
resolver
seconds
urlbuilder
adddays
sqlcommand
##apimodel
messagetype
paramname
##ise
##ch
auth
buffersize
executereader
successfully
##hint
##bundle
normalize
##ct
##me
selectedindexchanged
day
##ow
##tion
##light
card
powershell
##res
credential
processhttprequestasync
##margin
##canvas
patch
##mod
##board
##ut
sharpdx
fireflyiii
##gameobject
##stage
zone
idisposable
##zero
replacement
button1this
##assignment
##cmd
##symbols
disable
storedprocedure
t10
extraheaders
##binary
##blob
mainform
##meta
##surface
actor
tout
messageboxicon
syntaxkind
yyyy
0xff
##dimension
endtime
trigger
##bottom
configurationmanager
stats
##objecttype
##formthis
##switch
throwifnull
writealltext
##zone
##un
##done
combobox
cloudexception
nonpublic
apiversion
##room
isactive
indexes
buttonok
initialized
##bool
##requested
instantiate
organization
##pipeline
openapitools
##listitem
acceptlanguage
httpoperationresponse
##ctrl
##ur
endindex
##bucket
##requests
getfield
##defaults
##sheet
bytesread
capturerequirementifistrue
translate
##percentage
summary
exchange
querybuilder
##raw
##sources
enablevisualstyles
##shader
fault
formattingenabled
##connect
##diff
##side
pass
restore
speed
numberstyles
##plugin
##ss
received
##ata
distinct
registration
##hierarchy
generateclientrequestid
subscriptions
tstate
objectresponse
##metric
##authentication
##errormessage
##pane
unsafenativemethods
tagresource
evaluate
currentindex
##logging
dispatcher
subtract
##ant
doesservicerequest
play
taskcompletionsource
scheduler
lerp
tpixel
##framework
following
serializationexception
##ms
cancellationtokensource
##days
repo
removeemptyentries
##struct
playfabresult
characters
assemblies
##visual
exc
##withhttpinfoasync
##treenode
uint16
binaryreader
setcompatibletextrenderingdefault
instruction
##lists
##exist
##srestclient
totalmilliseconds
elem
dayofweek
getifexistsasync
readalltext
calendar
evt
rootframe
##choice
##gen
bmp
lang
checknotnullorempty
localscale
occurred
##matches
readint32
admin
##encoder
##picker
basestream
##ld
tensor
##integer
##now
##rmation
capacity
##frames
##visibility
tvertex
inputs
tryadd
cdecl
allowed
keycode
##words
becauseargs
##ro
##init
archetype
##levels
##models
##versions
rowindex
##auth
orientation
##begin
##displayname
##indexes
##ling
##last
##marshaller
startcoroutine
##ype
prefab
armoperation
##tuple
directoryseparatorchar
bot
elapsed
me
##ee
meta
##do
columnindex
##anchor
deleted
##listbox
##samples
tproperty
win32
uid
##io
##ps
##admin
tochararray
computehash
##collider
projects
appdomain
running
geometry
generatedcodeattribute
##assets
progressbar1
methodbase
totalseconds
isgenerictype
acc
##frequency
volume
##preference
##hand
cfg
##off
##per
##pack
merge
##dlg
weight
##dbcontext
##handling
##true
int16
pix
taskitem
floor
asyncpageable
##scheduler
vector3d
playfaberror
##fullpath
transparent
checkbox
tdocument
old
httprequestmessagewrapper
httpresponsemessagewrapper
contentalignment
raw
##cookie
##exceptions
##program
pageable
uielement
elsethrow
subscribe
##pixels
##ated
form1this
tools
##oid
stringreader
chart
media
##ions
##capture
foregroundcolor
may
##ice
issuccessstatuscode
nodeid
rules
##constant
##wait
throwhelper
editorbrowsablestate
doesn
##worker
clip
##logs
##startindex
assetdatabase
##boolean
##configurator
##reset
features
author
increment
##principal
eventtype
labels
##timespan
encode
##pressed
itaskitem
##sapi
queryparameter
maxchangeversion
minchangeversion
textalign
##initialized
eventname
parsed
responsemessage
##pin
locationname
opt
##dvalue
editorbrowsable
maxlength
##present
##creator
##distribution
con
##ok
##remove
categories
newinstance
##devices
##insert
pathparameters
todouble
between
sources
##short
##ify
behavior
constructor
##nce
##invoke
screen
variables
editor
loaded
##balance
columnheader
shift
##branch
isdisposed
quotesapifordigitalportals
protocolbuffers
returntype
##inputs
silentorbit
wrapper
##asstring
paramaccess
##phase
##percent
##th
##ible
animation
tex
##import
##ite
completedtask
stat
##background
dbcontext
##clip
customerid
gui
##track
updated
cnt
##multiplier
curr
##valuetype
##ess
permission
##force
getcustomattribute
appid
permissions
currentthread
mathhelper
picturebox
render
##machine
##world
##split
##contact
elementtype
multiply
ttarget
answer
iasyncenumerable
itemgroup
##ities
##ect
blocks
tests
##plan
asynchronousclient
##bindings
authorize
##channels
native
bar
lower
dptr
proj
cvptr
orderbydescending
per
selectedfields
##envelope
##checks
##security
##tolerance
##fieldname
sendmessage
stt
tinput
secret
##dependency
getparameters
sign
##repo
##ef
updateasync
randomhydra
##help
memberinfo
btnsave
note
##ad
fixedsingle
writeattributestring
triangles
vec
brush
##note
sharedtestsuitehelper
branch
##structure
precision
##propertyvalue
##tracking
btnclose
lookup
##actor
##statistics
currentdomain
getfullpath
##ain
##and
itemtype
keyname
##responsebody
pixelformat
bit
##updates
errorutilities
readasync
##currency
##two
##safe
##stat
editorgui
localizer
##conditions
##implementation
##ll
expectedexception
mappings
##fill
schemas
references
debuggerstepthrough
##cluster
##uid
cur
threshold
##logic
setdata
##ra
showintaskbar
snapshot
##itemtype
##tick
visit
ignorecase
listasync
requestsettings
asyncunarycall
##fullname
##send
toint64
##literal
assertequals
##annotations
##inventory
argumentnotnull
##il
##ode
##tring
##objectid
##templates
##sort
##listview
iformatprovider
ignore
##providers
createenumerable
selectsinglenode
handled
theory
notnullwhere
##ty
##ranges
appendchild
fromjson
analyzer
getaccesstokenasync
##directories
vector3f
positions
attr1
##binder
getextension
bytearray
rng
##ger
modelelement
providers
startinfo
namespacename
##connected
##management
label2this
writestartelement
cluster
down
effect
##feed
##ian
addscoped
##processing
iapplicationbuilder
##counts
##customer
localname
objectmodelhelpers
elseif
changetype
getvalueordefault
charset
complete
low
##execution
tobase64string
term
##buffersize
##destination
correct
##specification
cpu
memorymarshal
indent
space
##sender
##sid
singleton
eventdata
##month
dlg
magnitude
##rank
findall
validation
##polygon
aggregate
##ns
##orders
containername
##maps
##support
localposition
##finished
##ready
need
##classname
board
##allowed
logevent
##sent
##milliseconds
nullreferenceexception
##any
rawdata
stringvalue
managedinstancename
rop
##constraints
high
salt
##join
##retry
savechangesasync
comparison
display
##sink
multiline
done
attrs
sessionid
##assert
##over
blockcopy
errorresponse
absolute
cmdlets
gio
dependency
dbnull
setupget
##addresses
##movement
##proc
jarray
toreturn
descs
wrong
track
binarywriter
deviceid
##notfoundexception
##sign
##ne
##piece
curve
then
createasyncenumerable
enums
linq
##ie
existsasync
##decimal
##eventtype
##om
versionid
##his
getexecutingassembly
channels
tresponse
##claim
##addr
##ning
delimiter
keydown
instances
samples
##policies
decode
raiseifunhandledexception
irequest
##views
m22
successful
tresult1
apikey
querystring
newnode
##patch
datagrid
connected
gamemanager
##configurations
waitone
delimitedstring
instanceid
##supported
scheme
status200ok
##projection
##assertions
##lib
##release
##req
servicecollection
gettagresource
textwriter
tagname
##ings
serviceclient
getfilenamewithoutextension
##person
pixels
edges
##work
##math
transition
##accesstoken
##invalid
formclosing
##minimum
jobid
zip
manifest
marker
started
##todelete
principal
tenant
tmessage
bundle
require
guild
tab
##strip
fixture
##convert
here
valuetype
##ng
t12
##hub
arrayindex
##de
yes
##times
childnodes
cat
remaining
stored
##calls
##network
watch
##cast
writeendelement
spname
##getter
##modules
##projects
##ck
negative
processid
snapshotidentifier
ischecked
addr
hand
href
metrics
##enter
amazon
import
##browser
##typeid
##documents
addtransient
times
cube
since
dsldiagrams
readbytes
writeasync
edit
suffix
##statuscode
##ls
##ma
linklabel1
##difference
##ified
runner
custom
##use
responsetypedictionary
##receiver
chain
usage
createcommand
enable
iterator
room
continuewith
criteria
least
##mass
lambda
master
##throw
##locator
##styles
hide
back
rand
##expiration
history
debugger
##telemetry
createcreateorupdaterequest
disconnect
states
checkedchanged
horizontalalignment
objectid
##initializer
##comp
drawline
propertychanged
##ta
additem
tresult2
##export
##packages
##transport
configurator
##forward
addwithvalue
##self
jsonwriter
##ifier
guicontent
latitude
##ownership
succeeded
gettext
sptr
##slist
##running
cursors
##formats
handlers
##chart
closed
linenumber
opts
##ml
groupname
##convention
##vec
trait
##dispatcher
##observer
want
##querystring
free
##tocheck
##consumer
loader
mid
suppressfinalize
allnodes
##conversion
mainwindow
defined
hex
##ary
addvalue
print
createtime
caller
example
worker
datacontext
##descriptions
clscompliant
##needed
##many
failure
getenvironmentvariable
registered
##hours
##red
modelbuilder
catalog
projectname
side
##ext
errorcallback
##disabled
inode
collider
##dist
entityid
##dimensions
again
##false
##pairs
##v2
simple
entitylogicalname
resourceid
light
##spacing
##common
##coordinate
stores
normalized
##ds
tattribute
##whitespace
##tofile
##ler
##constructor
##ase
blobrequestoptions
filenotfoundexception
registertype
toupperinvariant
selecteditems
roles
##execute
hresult
openread
##sh
##oftype
##net
centerparent
caption
checkbox1
consumer
createdat
background
err1
resultdata
##datasource
##relativepath
fileshare
showicon
##letter
trequest
touint32
operationfinalstatevia
##messagetype
days
inputfile
uow
##prompt
##buffers
##evaluator
##faces
fixeddialog
##quality
notempty
tobyte
endpoints
inputstream
##am
timer1
##peer
##fileinfo
eventid
dependencies
getgenerictypedefinition
postbody
requests
##mi
##ag
ilgenerator
setproperty
enumtype
##numbers
cols
##gui
jpg
toolstrip1
intersects
longitude
userdata
##bus
##checked
##measure
##pt
##viewer
equalitycomparer
mouseeventhandler
fragment
interfacetype
solutioncontext
assets
encoder
##ments
getgenericarguments
begintransaction
profilename
##offsets
etag
rep
##hook
outputstream
##ulation
matrix4x4
processing
del
pagenumber
menuitem
##coords
defaultrequestheaders
toolstripitem
headerparams
##deleted
##outputs
readonlycollection
##archive
isvisible
getreference
##calendar
surface
##ray
feed
passed
##drop
handleexception
texception
typeinfo
weights
##ec
alignment
listview1
##threads
tedgelabel
fromquery
##layers
##representation
##checksum
##navigation
##notes
runasync
projection
tresult3
##modifiers
removeall
orders
##authorization
##mgr
groupby
mat
protocolparser
tidedge
relativepath
versions
##ol
onexception
privateendpointconnectionname
xmldoc
green
tmultiedgelabel
pin
##ail
archive
ratio
##sound
##ub
##ries
setparamarraysimple
tvertexlabel
thyperedgelabel
##tiles
relationship
sent
##native
turncontext
##ir
tidvertex
gchandle
iter
tail
##uuid
fromdelimitedstring
tnode
asyncresult
##thickness
logexception
compilation
resultrawjson
were
hour
building
##itemid
reporting
tkeyvertex
##int32
newstate
tidhyperedge
commandparameters
##executor
##watcher
appearance
isconnected
cef
tidmultiedge
##ction
##rd
collectionname
ireadonlycollection
keyword
pixel
##ged
focus
##folderpath
##inbytes
keyboard
tkeyhyperedge
##nextpage
nextdouble
listview
itemid
occured
spec
##stringbuilder
without
##ition
acceptbutton
debugformat
tkeyedge
tkeymultiedge
trevidedge
trevidvertex
##power
##sharp
requesttimeout
tedge
trevidhyperedge
trevidmultiedge
getkey
remote
##ctx
##degrees
mainconsole
requested
rnd
##workspace
severity
accounts
datagridview
getresponse
hidden
sheet
super
##listresponse
logtype
documents
developersecretkey
upper
##columnindex
##touse
waitforcompletionasync
escape
getchild
border
symbols
syntax
##persecond
##entityid
configurationsource
##web
average
listbox
deploymentname
##ular
unicode
##ud
conditions
faces
##toupdate
##lt
productid
choice
##go
shared
blue
servicebinder
visitor
observer
utf
ensures
epsilon
scrollbars
getpropertyvalue
buckets
exceptions
##installer
##resourcename
getmetadata
##les
asynchronous
collapsed
money
converted
rot
##languages
##remaining
binary
getcurrentmethod
##modes
syntaxfactory
throwifargument
retrycount
currentcultureignorecase
##setname
##finder
##compare
##ables
##ense
full
snippet
##sizes
clients
export
locale
##endpoints
##squared
##let
digits
too
##refresh
tolistasync
##hex
currentuser
team
failwith
##jobs
iconfiguration
flowlayoutpanel1
##regions
writeraw
##delimiter
##interfaces
entitystate
prepare
plain
translation
##global
##head
getsection
toobject
modules
resultcallback
units
##blue
##eventsource
different
operand
callinvoker
listitem
initial
##precision
strict
download
##eventdata
##terms
##ical
backgroundcolor
entityreference
enumeration
named
pages
##health
makegenerictype
currentstate
##bag
domainclassinfo
gfx
updates
##elementtype
##indent
generated
membername
dataformat
##align
##once
##relation
##slice
frommilliseconds
jproperty
argumentname
##topic
isreadonly
outputs
invalidate
viewport
isenum
got
issue
textview
##boundary
asspan
tresult4
##digits
##question
jtokentype
jsonstring
multiple
paramsarray
scopes
taskid
##requestbody
##oc
##pixel
##textures
##izing
annotation
dim
##fromfile
deletedresource
connections
pack
getposition
valuechanged
mean
progressbar
##exp
##rt
toboolean
iscompleted
multidimensionalarray
##src
attributename
checkstate
consts
newtonsoft
performance
##ability
quality
##ire
glib
ientity
asm
##dispose
descendants
listviewitem
modifiedoptions
theme
executescalar
shouldbe
recursive
responsedata
##analyzer
m32
some
##ging
m31
##arc
##instanceid
anyof
typeserializer
typeddatasetgenerator
off
##scan
sortorder
union
##receive
logtrace
dimension
responsemodel
##team
ceiling
natives
mail
##bytearray
tobject
within
##maximum
receiver
##cnt
##rating
shader
##association
regioninfo
see
blocksize
arenotequal
entrypoint
##mark
##ingmode
serializationsettings
messageboxbutton
resultcode
stride
##catalog
readstring
digit
statusstrip1
##ors
serverconnection
tcontext
##slider
##uation
##ets
##ner
publish
sourcetype
##digit
##master
##ound
tobytearray
##caption
##print
##static
##urls
##capabilities
##requestid
annotations
currentvalue
##download
##datatable
##example
##partition
dllimportattribute
point3d
##less
getfunctionpointerfordelegate
tosingle
visual
during
##ornull
##tokentype
mousedown
pen
##between
##elem
##httpclient
##joint
##methodname
##ating
user32
implementation
##missing
headertext
hello
##gateway
cntx
##circle
##enddate
##money
##co
##tate
isdefined
wrap
mysqlcommand
##accounts
##coord
errorcodetype
except
isvaluetype
user2information
present
serializedobject
##fail
##sections
##random
fromstring
modified
readuint32
##second
##ivity
itwiliorestclient
itemssource
##enable
##leaf
##weights
devices
pid
steps
thickness
ctrl
##readonly
ascmd
retrieve
##vars
##put
buttons
marshall
urlhelper
##izable
activate
indexoutofrangeexception
help
##3f
##ul
##unmarshaller
fileid
cross
whenall
formparams
##pending
bad
fieldrepeatseparator
##inclusive
bindings
##button1
##called
clientcontext
##ration
htupletype
##cancellation
propertygroup
##scopes
##ha
auto
like
##lifetime
##slots
blas
dllimport
storei
##authority
##completion
##ff
##pace
mouse
treeviewitem
newname
##nextpageasync
##starttime
boundingbox
outputpath
responses
securitycritical
transport
##ight
createdby
invoker
jsonserializersettings
getstate
pending
fieldvalue
##zoom
##ke
enqueuecallback
isrequirementenabled
vertical
separators
##ification
treturn
##shell
##typecode
orderid
##tx
entityutil
ndalicpinvoke
being
workspace
spaceid
writeobjectstart
tracer
##quote
backgroundimage
nativeclass
perpage
ultracart
##em
ropid
writeobjectend
frequency
##ual
vsconstants
basepath
hostname
loggerfactory
pyargs
resultlist
##operationresponse
##orempty
isselected
act
##transactions
##old
cost
elapsedmilliseconds
packages
##tic
urlencode
intvalue
sure
##vectors
##bs
vals
##toggle
##ame
fetch
serverconfig
##sessions
buff
corners
##written
overwrite
tenantid
becauseof
reg
frombase64string
##backup
##parametername
##progressbar
adminid
##eg
trimstart
##ticket
##ath
##edobject
testconstants
primary
##inner
##overlay
cart
##cd
##players
##relationships
repeat
encoded
prompt
itemspec
constraints
fromobject
nocontent
toolsversion
metric
##encode
##vector3
emitter
##coroutine
objectname
requestmessage
##iterations
##rc
tojson
elementname
##render
##triangle
codeinstruction
minute
numbers
gettypes
rate
tbuilder
foreignkey
##graphics
##responsetype
rotate
tin
##treeview
testutilities
hydra
minimumsize
operationcanceledexception
bus
currently
iterations
lst
##until
invokemethod
tagvalues
##increment
##loading
##statements
endifreturn
rank
sourceroleplayer
workflow
nextpage
faultexception
hydraarmy
syncroot
unauthorized
##docs
viewname
##fit
##show
##colour
##handles
vmscalesetname
##mat
gen
##reports
starting
##ep
vector2int
##phone
##rm
rootnode
tbl
##nullable
authenticationcontext
starttagraw
specifies
restrequest
yet
httpcallback
ctor
protoc
remainder
##arrow
##producer
##products
segoe
cam
disabled
lastindex
video
##severity
##tip
##dtype
links
##seed
propname
##clone
getclientinstance
##policyname
timeoutexception
webbrowser1
##edvalue
createconnection
##cap
##minutes
##popup
##xy
swigpendingexception
##opt
##windows
readonlymemory
##commit
connectionname
genparamname
inventory
##mods
isopen
diagnostic
getitem
codeexample
##claims
##clicked
##disposed
##effects
##fieldtype
##startdate
produces
##pipe
office
stringutils
library
##fortype
##namespaces
general
loading
resultselector
textbox1this
##concrete
redirect
topython
windowstate
##canceled
##ond
bucketname
sourcepath
getoradd
##locked
##signal
gamestate
##dirty
##pen
##translation
compareexchange
executing
propertyexpression
##resp
categoryname
claims
locations
responseobject
##expressions
##formatexception
##ave
##ick
##tex
##og
iequalitycomparer
requesttype
destinationtype
##buttonthis
##checker
##iation
addtag
mockbehavior
aggregateexception
frames
products
##fee
minutes
##existing
safenativemethods
subitems
encrypt
relative
##merge
##dr
loadfunctionpointer
either
functionname
qualifiers
##requestasync
getresponsestream
real
##linenumber
##propertyinfo
contracts
dataprotection
functioninterop
readwrite
unique
##ax
##ring
##1this
createdeleterequest
paint
dbo
##inseconds
##tabs
##translator
attr4
##ade
compute
percent
organizationid
##collector
##full
##nextpagerequest
collectionview
opcode
opacity
folders
nav
newposition
pts
##hashcode
createresponse
##errorresponse
##dlist
processed
##managementclient
##publickey
##v1
shutdown
##recursive
##ox
sys
thrown
coordinates
dlen
##draw
almostequal
playfabhttp
boundary
##analysis
dataaccess
##spaces
autosizemode
##plugins
##processed
##automationpeer
##singleton
##ingtype
##ks
above
##answer
##pk
##successful
##act
whitespace
absolutepath
fsshttp
##assemblyname
##revision
exitcode
itemindex
structure
##la
eof
##capability
##chunks
##defs
asnotracking
asserthelpers
beam
inherit
objtype
plan
triangle
##lower
excel
home
saved
##generic
##hostname
##ast
due
subscriber
##none
lat
assume
calls
##collections
##presenter
tdata
horizontal
tresult6
documentid
rockcontext
##upload
##ide
getparent
maybe
schedule
##inprogress
once
##family
##bility
fontsize
isstatic
toutput
parentnode
statusmessage
apihelper
setparent
##cert
positiveinfinity
fallback
requesturl
##ell
setter
##exclusive
##ule
recttransform
restoperations
variablename
##bin
##solver
invariant
solidcolorbrush
##cards
##operand
messageboximage
each
scalar
##patterns
##ision
adcpsubsystemcommands
tevent
##callbacks
##changedeventargs
reverseinstance
scenemanager
customrequestheaders
logentry
##low
longrunning
trying
isarray
preparerequest
##exchange
##way
players
threads
##messagehandler
##ports
##rowindex
##und
iskeydown
opentk
endifif
##break
##datareader
##vertical
mockengine
pressed
##clear
canread
invocation
##books
tassertions
##extractor
##try
##ux
clouderror
createelement
nodeconfiguration
retry
##loglevel
analytics
company
makegenericmethod
odata
lro
##issue
audio
panel2
sourcefile
##decl
getint32
tvaluevertex
configureservices
loginfo
commandline
derivedclass
##specifier
drawstring
locator
##sphere
##od
argumentnotnulloremptystring
fieldseparator
finished
ttype
cert
callermembername
publicapi
dimensions
verts
##charge
##foldername
ser
##conn
currentcontext
projectrootelement
##const
authenticate
creating
decrypt
getmethods
startpos
##other
##responses
activities
issuccess
tvaluehyperedge
##alt
##high
##onerror
tvalueedge
tvaluemultiedge
xtraeditors
fileparams
navigation
##zip
##scount
user1information
newsize
openfiledialog
attachments
devopsvault
richtextbox
setresult
difference
pose
##clients
##na
##country
android
configured
##instructions
##listeners
##processes
##ust
syntaxnode
##folderresponse
##picturebox
findelement
forwardinstance
envelopeid
sourcecode
##int64
major
producer
##candidate
##ull
##author
##generation
##webappsrestclient
notes
us
htmlhelper
pageindex
ldarg
parametervalues
##scripts
logs
make
##restriction
createrequest
item3
phonenumber
propertynames
readkey
pivot
signal
##transfer
addresses
stage
##city
##devent
jsontoken
mem
slots
##inrange
##notnull
propertytag
##combo
##propertychanged
baseaddress
setmetadata
views
css
enc
##customized
##istic
inboxcollectionid
visualtreehelper
about
succeed
tool
##damage
phone
cancellationsource
##fontsize
##sec
##elementname
##ulate
##sessionid
getbyid
getdirectories
usermanager
##widget
verticalalignment
returnval
getfields
telemetry
tiles
##ons
##conventions
actualwidth
picturebox2
##comparison
##isvalid
contentlength
executequery
management
organizationservicefault
extra
groupbox2
scenario
##queryable
forcondition
##ome
##ose
observablecollection
writevalue
inst
multiplier
##arrays
##bytype
##fault
##gesture
##opened
##typeenum
##tream
ads
isinstanceoftype
chunksize
##bykey
getcurrentdirectory
sharepoint
standard
insertquery
rec
written
##norm
emailaddress
palettecontentstyle
t14
##bone
##defined
channelid
##keyvalue
##middleware
##variant
getallasync
redirecttoaction
##degree
##profiles
buttonstate
chunks
##interceptor
##license
traceevent
attempt
sid
##createorupdateoperation
##locale
direct3d10
inputarray
intersect
terminated
##ifnotnull
##ject
##gradient
##media
##unsafe
netruntimesystem
writeto
targetcommand
##cart
##identifiers
##erate
tooltip
playerprefs
contextmenustrip1
##consts
##paint
##tle
fatal
infinite
unitywebrequest
interactable
##free
##ations
datagridviewtextboxcolumn
discord
widget
bsonvalue
isrequired
pluginmanager
creator
invoice
layers
lifetime
responsestring
matching
##cycle
##hashset
##shapes
filereference
updatedat
comments
##parse
##webappsclientdiagnostics
##ze
genparamvalue
mockdelivery
searcher
theta
##rights
localhost
normals
##ci
##headervalue
navigate
##erator
logged
neighbor
place
##arn
##hs
settext
instr
partitionkey
gray
recipient
##detector
##executioncontext
##scores
unaryservermethod
##buf
##our
googleads
indented
press
childnode
##ix
useragent
another
##transitions
##ative
arraysegment
playfabexception
playfabexceptioncode
tresult7
##green
##picture
##iate
hasbits0
zoom
##horizontal
##share
getfieldvalue
todatetime
mouseeventargs
responsedoc
##corners
##emailaddress
##replacement
destinationpath
directorypath
instructions
itm
victim
##da
isegment
##ob
firstordefaultasync
question
##folderid
##poolname
##rot
classes
msbuildnamespace
networkid
##normals
##trans
##vals
asbytes
btnadd
preview
##expected
functions
tuser
bearertoken
declaration
pairs
requestbody
##disk
##utation
iwebelement
moveto
sqltransaction
treeview
future
##vector2
transfer
clustername
##audio
errorcodevalue
expect
fileutilities
monikerstring
##preferences
##ake
opensubkey
popup
##diagnostic
correctly
##1d
##intensity
##replace
##parallel
##acion
##ash
freehglobal
sizetype
writestring
##square
codegenerator
final
responsetext
trygetarray
payment
##phrase
icomparer
invalidcastexception
square
upload
##orchestrator
telemetryclient
##cc
##requestbuilder
##ised
controlbox
resourcemanager
nonce
##sig
##erence
tok
##bindingsource
##tosend
##video
##attachments
##private
asstring
complex32
don
num2
##negative
##gram
authentication
##ri
provide
##alive
##architecture
##ifneeded
##sibling
##ear
ca1031
isabstract
##scalar
assign
documentelement
iswhitespace
vmname
webappsrestclient
##scroll
currentposition
reading
vref
##interop
##stamp
##textwriter
numberformatinfo
foldername
hours
##generated
##rulename
##towrite
constpointer
removerange
touint16
rolename
##ther
parms
##fromstring
##outcome
##df
primitivetype
semanticmodel
testdata
vaultname
##fraction
##observable
##pitch
##round
##serialize
##ver
keybyte
remoteclient
targetobject
##availability
##baseurl
asenumerable
asyncoptions
joint
##toinitialize
##directions
##matcher
##typeinfo
createquery
timplementation
alert
flow
gesture
##multiple
##streams
imageformat
sqlitecommand
routes
schemaname
sizemode
specialfolder
touniversaltime
##decoder
##subscriptions
ent
pagetoken
##nodetype
##toint
traceerror
##retries
##turn
status400badrequest
folderpath
queuename
targetptr
##attempts
##fk
##freq
##cing
testhelper
getter
##relative
##spread
unmanagedtype
msbuilddefaulttoolsversion
##sub
invaliddataexception
operationstatus
selectedvalue
nativepointer
##label1
##transforms
tviewmodel
fromdataannotation
phase
##classifier
##unity
propertyfield
responsebody
##declarationsyntax
##defaultvalue
##encryption
##serviceprovider
compilerservices
datetimekind
icakecontext
mousemove
receive
unsupported
sentence
sfloat
slug
specify
##radians
##triangles
dropdownlist
numeric
startpoint
##assign
##primarykey
fxtrace
loadxml
nodoc
locked
##quotes
distinguishedfolderidnametype
entitytoken
findproperty
dev
expiration
packagename
##fixture
##nodeid
##toolstripmenuitemthis
backup
##accountid
##previous
errorhandler
tret
positive
##orderid
15f
addattribute
physics
quantityformat
##handleindex
##installed
tryremove
classwhere
##importer
##searcher
##setter
##ware
himage
paramcollinput
ranges
fromroute
##overrides
##public
##requestoptions
##statechanged
##totest
##als
fileattributes
domainname
dummy
expander
##extent
##strength
waitforseconds
market
##invoker
adapterhelper
status404notfound
modifier
##play
pictureboxsizemode
sphere
##fs
##der
##x2
generateresourcename
button2this
newindex
definitions
itrace
operationtype
directories
##ace
##tive
comparisontype
##configs
eventhubname
mathutil
outer
##base64
##deleteoperation
##footer
##requirement
aliasas
contextmenustrip
expressapp
testcontext
actionname
##directorypath
##nextasync
##returnvalue
##atch
##eq
buildeventcontext
columnheadersheightsizemode
datagridviewcolumnheadersheightsizemode
##ties
addchild
coordinate
editorutility
nativeptr
turbocontract
hl7segment
##ended
##fieldindex
##refs
grp
power
tempomap
##attributevalue
##drag
##utf8
##eep
##tar
isplaying
##dic
##ber
eventlistener
##ters
undefined
disposable
responsestream
detected
itemname
abort
appname
attach
attr5
courseid
errormsg
locker
modeltype
keynotfoundexception
installed
readbuffer
##clientid
##limits
logonid
##img
##touch
##ward
brushes
getserializer
sip
rulename
##dest
##xpath
##sing
win32exception
##errorexception
##find
##cs
##elect
chatid
datareader
what
##kernel
##ime
ldc
placeholder
removetag
att
my
vehicle
##queries
##ac
addcommand
isrunning
stretch
delayinseconds
exceptionmessage
##fast
##navigator
##unique
##viewport
err3
##messageasync
vector3int
attributetype
canceltoken
folderid
##managed
##managers
##ado
##ig
getinterfaces
getitems
assignment
##curves
##lbl
##recipe
##seq
##ures
itemschoicetype8
servicelifetime
textblock
##boundingbox
##datagridview
responsetype
denominator
##methodinfo
##workflow
scan
unitofwork
##uv
##ents
addorupdate
hwnd
levels
modelcontext
teamid
touch
##keyname
##toconvert
tresult8
sorted
ancestors
getattributevalue
productname
##lambda
##operationsource
##eddata
getstream
movement
parsing
##columntype
##updown
checkargumentnull
projectitem
expressions
textreader
##logo
##hip
##ics
groupbox
middlecenter
follow
##lat
tinterface
buffers
complextype
strategy
##labelthis
##validationresult
##ws
declaringentitytype
piece
sqldatareader
##cols
checkcatalogresult
linkclicked
selectnodes
applicationname
enumvalue
until
##requirements
conf
##cachekey
##cfg
##dirs
##propertytype
collectionchanged
keyeventhandler
networkwatchername
opaque
##dn
##ange
publickeytoken
percentage
transactions
##gray
both
httpput
portalid
settags
cakemethodalias
today
personid
##actual
##sdk
internalservererror
##disconnected
findasync
arc
execution
##httprequest
##mouse
createdon
##dates
##typedescriptor
copyfrom
drawimage
literal
collectionid
matrix1
pitch
throwonerror
##configfile
##sequencenumber
##eed
##ug
instanthandle
eulerangles
bulkcopytimeout
embed
gatewayname
iteration
##ead
balance
countrycode
animator
audiosource
implemented
pinned
rawvalue
variant
##isnull
##keywords
gender
##basetype
##keydown
##lient
##ops
setchildindex
continuationtoken
decoder
ifmatch
tokenizer
##configured
##membername
##registered
buildengine
contractutils
createdelegate
parentid
unityeditor
projectpath
##finish
##gs
books
##apiresponse
marshalas
testsuitehelper
##sservice
getcomponentsinchildren
writeentry
streamid
##ding
readallbytes
nodename
##placement
toapistring
partitionid
##platforms
##toread
##toreturn
##unicode
##her
##ider
##rity
alloc
basedirectory
canwrite
membertype
bytecount
presence
varname
##optional
##party
##primitive
win
##appid
##dynamic
##itemname
##temperature
allochglobal
istatementbuilder
radiobutton
##upper
##validate
tresource
triple
##compiler
##foreignkey
##responsetypedictionary
defaults
gettemplatechild
owners
configureoptions
##bot
##containers
##fallback
##nder
parameterinfo
##pivot
##ao
inlines
locationid
networkmanager
serverservicedefinition
maxcount
vertexcount
##standard
unauthorizedaccessexception
multi
namespaces
##install
##webrequest
##its
advance
keywords
revision
startasync
exclude
modifiers
sessions
timezone
##aliases
expressionoperator
install
regions
##extended
##fieldinfo
##moniker
applicationcooperationviewpoint
norm
would
##nextwithhttpmessagesasync
##si
toint16
##2f
##bl
##mismatch
##namingconvention
datapoint
queryoptions
inverse
statements
totalcount
##redirect
##toolsversion
##uint
defaultfileurl
currenttype
##changing
entitytypebuilder
workspacename
##localizer
##meter
eighty
getfolderpath
sizegripstyle
skeleton
##bracket
##disposable
##txt
##waithandle
##air
mocklearner
##uit
actualheight
dependencypropertychangedeventargs
errormessages
serializedproperty
blank
comobject
ops
##ied
bsondocument
btnstart
contacts
indentlevel
treeview1
##disconnect
##dom
##iteration
##notifications
degree
pipe
sectionname
##bb
##continuationtoken
##cube
##filenames
##rootpath
comboboxstyle
currentuiculture
euler
flat
rpcexception
datapath
sig
##propertynames
##sorted
##transformer
##hi
callcontext
amp
##absolute
##building
##hits
##wrap
##tp
npc
##led
disablesslverification
dropdownstyle
headerkeys
responsemessages
apphandle
circle
coll
inv
##interaction
##packettype
createparameter
filetype
getunderlyingtype
igh
propertyid
quote
requiresnotnull
##registrations
##hat
eventidentifier
ireadonlydictionary
bone
vaultbaseurl
##box1
##startup
##statusresponse
##edtype
##oad
convertto
rootelementsettings
serial
terms
##apikey
##ifexists
##payment
##hronous
##px
devicetype
payloadsender
tri
workconnection
##contacts
##detection
##env
##feedback
getelementtype
throwargumentnullexception
newpath
##highlight
##servers
friendlyname
getchildren
solidbrush
verifythrow
dog
##dc
##aw
addhours
notbenull
sections
##certificates
##servicename
loghelper
over
returnnew
addlistener
chartarea
isdigit
queryasync
smbiosproperty
tokenstream
encrypted
mutex
##folderrequest
creategetrequest
getorcreate
github
poly
propvalue
addseconds
entityname
isinfinity
postalcode
responseclasstype
tryaddsingleton
pathparams
textures
##eat
projectpropertyinstance
assemblypath
##candidates
##collision
##decode
##tings
lsl
dte
ownerid
viewer
##deserializer
##ination
compress
localvarheaders
jsonreader
git
letter
svc
visited
wallet
##groupbox
##hidden
##lv
##pdu
eventtrackingid
getint
iset
restart
siauto
just
##good
##inst
##tokenasync
##erid
matrix4
swaggerresponse
vector2d
currentpage
currenttime
xmin
##datagrid
##materials
##procedure
##warnings
##ach
collect
waitasync
cards
localrotation
rdr
##lo
findindex
getparameter
modifiedcurrent
protobuf
servercallcontext
serviceresult
milliseconds
pkg
##average
##columnnames
##continue
##dobject
uintptr
cnn
crc
devicename
divisor
middle
pdf
uvs
##alert
##dataprovider
##indexer
##inverse
##organization
##unknown
clrtype
maxresults
##ard
gobject
getplugin
relation
targetname
##weapon
##ount
serverid
##markup
##original
##skin
couldn
formclosingeventhandler
islittleendian
serialnumber
##asyncresult
##tb
alldirectories
conditional
isinterface
##byidasync
##design
##dropdown
##heading
##ifnull
extent
fileextension
##notsupported
##queryparameters
##king
##ort
assertlogcontains
vector128
rights
##dot
##eventid
getcomponentinchildren
loadcontent
modtime
resourceidentifier
vrtk
classifier
##corner
mouseup
testing
based
##include
getrealupdatedrows
det
envelope
interfaces
namefilter
recipients
weapon
##accepted
##allocation
##routine
##imeter
autodesk
dropdownitems
testwriteline
transactionid
hostbuilder
maxsize
##controllers
##descriptors
continuation
best
instancename
leaf
millisecondstimeout
modulename
needs
##notempty
##resolve
localization
ptrtostructure
configfile
resulttype
##buttondown
##ale
##sdata
interceptor
mods
##lineitem
iprogress
simscale
newobject
##itemindex
##webresponse
aresame
skin
earthvelocitydata
findcontrol
formclosed
messageboxresult
opengl
sqlhandler
##cb
##compilation
##timezone
##uris
fileexists
nunit
setattribute
categoryid
rootpath
uses
##attack
##drive
##keyboard
##primary
##resourcesrestclient
##tions
tresult9
v1alpha
includes
picture
##itemcount
##lon
additionaldata
concurrentdictionary
debugif
operationid
stopped
testhelpers
propinfo
##valuechanged
notequal
mass
specific
uids
##encoded
##initialize
##magnitude
readsingle
lblstatus
toremove
##basic
##compression
##foreach
##ho
overlaps
todecimal
dataitem
descendent
dic
newlist
oauth
offsety
threadid
vimbuffer
##assignments
##triggers
##editem
httpoperationexception
swaggeroperation
cases
dashboardid
##about
##dim
##routes
divide
efmodel
ensuresuccessstatuscode
mocklogger
rollback
beta
campaignid
##ient
efdesigner
editorguiutility
sawczyn
impl
shell
##abs
##bind
##custom
##detected
##cion
##ync
securitytype
##actiontype
##listasync
##preset
##scrollbar
##tangent
apirequest
jsonresult
sink
##creation
##density
adding
endvalue
putcmd
styles
waittime
##armoperation
##endindex
##evt
##filetype
##ord
accountmoid
appendtext
fix
mysqlconnection
mysqlparameter
mysql
specialtype
##forms
##quad
##eal
##ncy
##ource
firstchild
supportbyversion
curves
quad
seg
specification
transformation
##retrypolicy
##ibility
getattributes
inside
issues
routevalues
##adjustment
##csv
##infolist
##intersection
##pp
##tep
extract
fromminutes
assetpath
outputfile
requestdata
resourcegroups
something
##ict
rock
writeerror
##proto
##tail
##tolist
##tooltip
##ium
##ming
##ote
mime
padleft
collision
connectionid
exponent
heap
included
jobs
##messageid
##shutdown
##rease
onnext
sending
workingdirectory
conversation
currentitem
offsetx
##accountname
##ipaddress
##ned
capitalize
foreground
gettemppath
matched
staticsettings
tracker
##photo
##recording
##ddata
applicationcontext
automation
swap
tinstance
parametervalue
roleid
##generictype
##ces
##wise
activesyncprotocolversion
getconstructor
pathformat
applied
cached
fmt
implementationtype
retvalue
ymin
##outputstream
##rator
expecting
fit
fromimage
selectednode
family
mouseposition
##codec
##markers
##uint32
resolveassemblyreference
stringbuffer
campaign
combined
maxwidth
pointindex
retries
terrain
##argumentnotnull
##contain
##tostream
##eter
addminutes
onerror
attributevalue
eventinfo
intersection
##backcolor
##logmessage
##rant
keypress
parametercollection
hue
methodresult
templatename
##basis
##paragraph
##perpage
playfab
setfloat
attempts
damage
derivedclassmonikers
derivedclasses
hierarchy
##are
##ress
apis
raycast
relativeorabsolute
projectfile
##timeutc
##transformation
asreadonly
hdata
invariantinfo
isclass
mshtmlapi
plugincontract
toggle
bound
childcount
offer
trade
##configurationname
##expired
##messagerequest
##ong
dopost
oanda
getting
##containername
##directive
##uad
listname
scope0
##nfo
##pe
appendix
crlf
getmanifestresourcestream
issubclassof
notifypropertychanged
servicedescriptor
tdestination
topmost
checksum
picturebox1this
problem
##hide
##id1
##seen
##slotasync
##ura
handleerror
outstream
##statuses
##fe
##oot
getnode
propertiesinternal
setkeyname
threadhelper
v20
templates
##accesscondition
##clock
##tocreate
##while
##sresult
ownership
registers
##ful
##ines
infoformat
leave
typeusage
correlationid
##activated
utc
currentline
eps
keyvalue
##tween
doesnotcontain
requestasync
unittest
viewbag
xaxis
closebutton
resultconfig2
##declarations
##getresponse
##ignorecase
##rendering
##ret
##ab
##ght
iserializerplugin
siteid
##queryresult
##ency
autogenerated
defaultrequest
enumeratefiles
filerequestoptions
writeobject
controllername
docs
jobname
listid
recipe
##fileasync
##invoice
##pressure
##toprocess
##ga
fontfamily
globalerrorhandler
useshellexecute
handles
##accept
##dll
##using
##dstring
##rict
##wards
deepclone
initializeasync
m42
playfabjsonsuccess
avatar
para
properly
##dt
##loss
##ack
inputhandleindex
lastordefault
nonconstpointer
runningobjecttable
triangularmatrixtype
bytelist
dtype
formatted
##basepath
##place
##projectname
##ories
greaterthan
hobjectbase
traciconstants
eid
filterexpression
mismatch
targetpath
ticket
##endtime
##returntype
##ving
connectasync
dataform
handleref
minor
ready
semanticversion
aspx
maxx
##intent
##orwhitespace
##prev
##statusasync
inargument
m41
serializationutilities
##formatted
##imports
##verify
rem
startoffset
##attempt
##diagram
##loadexception
cookies
iserror
measure
meshrenderer
accessor
longer
##closing
##exe
##home
##shadow
##itor
##ption
replacewith
scalefactor
went
##blocksize
##buff
##deserialize
##mean
##simple
##usuario
errortext
linkedlist
transformdatafromobject
latest
ropbytes
##gene
##userdata
employee
hits
requestparameters
##byindex
##contextmenu
##demo
##inactive
isautoupdated
datastream
pieces
ssc
##iv
##protection
##tobytes
checkdisposed
imagelayout
overflowexception
testasync
utf8encoding
cancelbtn
mailbox
##dbaccess
##formula
##wheel
namedvalue
synchronizationcontextremover
counts
inherited
##paused
##qualifier
iszero
##areas
##cultures
##perpixel
fsshttpb
readuint16
secretkey
traceinformation
waitforcompletionresponseasync
rating
##contains
##occurrence
##queryexpression
##late
statistics
lexer
privatekey
rel
stroke
##publish
##edby
addlast
fixedtoolwindow
iobservedchange
minx
neutral
these
##lastname
##uct
userinfo
ctl
expectedvalue
memstream
phi
##bars
##epoch
##escaped
##messagebox
cleanup
dbexpression
httpdelete
sound
##messageresponse
##nr
##paramname
##plot
##inator
race
servicecontext
##avatar
##inv
##orequal
##panel1
localpath
mousebutton
##contexts
##datarepository
##employee
doublevalue
elapsedtime
headername
pre
xmax
##privatekey
##rec
##oke
accepted
capabilities
columnnames
usr
##chat
##coefficient
##worksheet
isalive
temperature
authsettings
health
postdata
shapes
tabcontrol1
##cation
delegatetype
itemlist
lasterror
##cancelled
##cleanup
##invocation
##more
##salt
##scenario
##tocopy
##ea
##ill
##ron
cvinvoke
entityuid
isnullable
plugins
##shown
##star
##vr
##variablename
##ulated
##unk
phabricator
varenum
yesno
mimetype
##factories
##issuer
##ily
requestobject
returncode
waitforexit
htmlattributes
queryresult
##dark
##encryptionkey
##publisher
##ory
cmdsalida
doubleclick
indexname
##assertion
##decrypt
##probability
##radiobutton
##tofind
createbuilder
modentry
texts
filecontent
sts
##calc
##chance
##ofmonth
##wer
flatappearance
gaussian
getline
lapackeigenvalues
setcolor
taskcontinuationoptions
extended
mapview
possible
strvalue
##axes
##dataasync
executor
fieldnode
txtpassword
##clusters
##dbtype
##guids
##notify
##palette
##press
##ather
enumtocode
exceptionargument
isattached
pointerevent
ymax
##esult
age
ctid
calculate
dump
projectiteminstance
descendents
webex
##opts
##recorder
##specific
clean
iconvertible
jsonrpcclient
setparameter
candidates
startnode
##flush
##stopped
##ifies
arrange
benull
currentdirectory
imodel
raycasthit
trycreate
verifyall
coords
lbltitle
workbook
##collectionname
##delegates
##aging
##mission
##ument
observable
aliases
meshes
outputbuffer
##clientoptions
##equalitycomparer
##mem
##operators
##referenceexpression
##same
##uniqueid
##art
##iser
bindservice
buildrequest
restproperties
tcollection
thenby
typearguments
viewdata
xamzapiversion
circuitname
maxdistance
palette
secretname
##pad
##tester
##edstream
##ingcontext
clientsecret
npgsqldbtype
blobname
profileid
upperbound
##itemids
##leave
##responseasync
##sensor
##ey
automationelement
diagnosticutility
refreshtoken
subsonic
assigned
encountered
##emitter
##serialnumber
backgroundimagelayout
isgeneratedbindingclass
trydequeue
behaviour
commandname
conditionstring
taskname
usercredentials
##editing
##presence
##roll
##tosave
##ditem
##ql
basis
corestrings
isauthenticated
openasync
outlook
primarykey
attr6
pane
pretty
worksheet
##dataadapter
##occurrences
##pageurl
##spans
getobjectdata
languages
samplehelpers
writeelementstring
policyname
processes
##div
##keyselector
##para
##week
additionalproperties
awake
fillrectangle
soap
tright
comm
inline
##codecharts
##datalist
##verts
##uity
actualvalue
elseresult
##real
##spawn
##taskitem
##ever
##ink
issuer
large
meeting
rgb
small
##eger
attachedpropertybrowsablefortype
stringhelper
datalength
prim
##icons
##skip
##stacktrace
##erve
##nk
applyoptionalparms
getlastwin32error
timezoneinfo
eventsource
infos
pred
regextype
season
startvalue
##filestream
##ock
flatten
tryget
filenames
##firstname
##positive
ca1704
expressionbuilder
outlookapi
trysetresult
miny
testreader
virtualnetworkgatewayname
##documentation
##pins
##slim
##stride
##stype
##tf
dowork
urifactory
diffs
photo
usephysicalpseudotemptable
who
##aggregate
##decorator
##packets
##plus
##uration
appendsegmenttorequesturl
kratos
taskstatus
unionwith
xpath
mxswa
##generate
##svc
##imize
errorformat
isloaded
playfabutil
topleft
training
binarylogwriter
means
routename
sec
##toindex
##updater
##dp
##sion
tresult10
btndelete
inputvalues
sourceindex
vert
##calculator
##duplicates
jsonnodetype
byteswritten
mwle
##activities
##periods
##rendertarget
##streamasync
##testdata
##arity
##di
lazy
logmanager
toptions
visioapi
csmpi
endpointname
providername
resolved
##grain
##memorystream
##ement
##sible
##x4
canexecute
curnode
degrees
deprecated
##measurement
##numeric
##rgb
##verb
##sp
adderror
diagnosticscope
nulltype
interactive
lon
lowerbound
par
##apply
##expand
##fetch
##fromstream
##semaphore
##spath
##ulo
color32
converttostring
getcurrentprocess
roundtoint
decoded
interpreter
workitem
##connectionname
##like
##receipt
##trivia
##acing
##eo
gchandletype
griddat
learnrefnumber
yellow
associated
bbox
##ai
##optionalparms
builtintype
ochpns
rigidbody
supportbyversionattribute
traceverbose
base64
filtercontext
still
##ev
##stable
creationtime
btnexit
dirs
duplicate
ignored
letters
##caches
##completedeventargs
##listid
hregion
onapplytemplate
shown
parametertypes
parents
them
##datagridviewtextboxcolumn
##fx
##toclient
##win
##ker
identifiersshouldbespelledcorrectly
nexttoken
they
##bank
##routing
##testcategory
##ert
updateinsertedrows
bodyobject
crystalreportviewer1
filedata
##enemy
##graphic
##logentry
##prime
##wn
buildpropertygroup
datamanager
notnullwhen
pause
taskcanceledexception
transpose
jpeg
queries
searchpattern
song
##inline
##iter
##restrictions
##ca
associatedobject
startup
whenany
retrieved
sep
skiptoken
via
##append
##configurationbuilder
##skill
##ableobject
##cia
addheader
comexception
methodattributes
truncate
disk
servers
##energy
##recipients
ndarray
waithandle
rqp
##explorer
applicationdata
disconnected
responsewithheaders
allow
buttonclose
lists
many
modelid
##dts
##projectfile
##rowcount
##texts
##ution
01f
updateupdatedrows
enough
graphuri
inputstring
perform
ship
thisclass
##compatible
##composition
##dm
##enumvalue
##ore
##warn
bitmapimage
getrange
rowstyle
rowstyles
successresponse
derivedserializer
toadd
##fix
##newline
actiontype
logginghelper
withallproperties
##enums
##remote
##cp
##istics
columnset
mykonos
sizes
##roots
##scanner
##edtypes
##rite
acceptchanges
msbuild
osversion
pydict
raise
totuple
channelname
jsondata
textbuffer
##coll
##dex
##memberinfo
##phonenumber
##restore
##ally
##iable
getbuffer
holder
lwork
##blank
##pointers
##recognizer
##saved
##sector
##alue
##ctor
##edlist
##imal
##tation
createitem
customers
getmember
iproperty
dataobject
existingitem
refs
urlencoded
##final
##glyph
##pn
##sprites
##tracer
gethash
getordinal
responsecode
touint64
visio
classtype
descendentserializer
##broker
##deployment
##reporter
##shot
##aring
codeidentifiertype
codemessagetype
datetimestyles
haserrors
lastmodified
callbackhelper
executed
offername
participant
searchterm
thing
##actiondata
##fileextension
##listening
##stock
##alk
##be
##cale
##jected
##ute
attempting
getencoding
isadmin
mmal
mouseleave
righttoleft
##ground
##listvalue
##resourceid
##edcount
entityidentifier
keyup
coord
index1
numerator
##atindex
##thrown
##sa
isclosed
raisepropertychanged
setenvironmentvariable
effects
hint
lda
problems
##datacontext
##prices
##ias
##oration
##s2
haskey
irestrequest
mvchtmlstring
actioncontext
digest
drive
extents
resourcegroup
spidata1
##executed
##globals
##ivo
##que
httpstringresponse
modelconstants
numericupdown
deployment
submission
##bytecount
##cancellationtoken
##fixed
##greaterthan
##immutable
##toobject
administrator
columntype
tabs
temppath
##argumentexception
##conf
##counters
##lights
##subscriber
iloggerfactory
tiledb
ilgen
paragraph
streams
##stub
imagelist
istype
membertypes
testclass
authorizationrulename
btnlogin
creature
silk
tablelayoutpanel
##bones
##expanded
##formatting
##instancerequest
##ofday
##poly
##snippet
##editems
capturerequirementifisnotnull
ilearningdelivery
sorteddictionary
subscriptionextensions
abc
rgbtable
##arraylength
##white
getmessage
expectation
mediator
resourceuri
##activate
##company
##expressionsyntax
##imagelist
##unhandledexception
##ka
##onnect
assemblyqualifiedname
getpixel
isdirty
mousebuttons
currenttoken
developer
jobagentname
numericupdown1
updatequery
##deck
##dirpath
##entered
##lengths
##md
##variance
##ded
##mation
tobytes
unimplemented
share
##configurationsource
##encrypt
##inbuffer
##lect
ispublic
validationerror
lockobject
##ancestor
##animator
##datastream
itoken
technosoftware
validateresponse
mgr
systemipaddress
verb
##datareceived
##dialogthis
##filtered
##latitude
##longitude
##orequalto
##parsed
##queues
##lement
##loat
##man
errorrecord
getuser
pd0bottomtrack
sqliteconnection
tocsharp
argumentvalue
currentoffset
executioncontext
expectedtype
plaintext
x86
##domainroleid
##failedexception
##filesystem
##getasync
##lessthan
##ofview
##verified
decrement
mousebuttoneventargs
tid
rev
##pc
##ish
asat
counters
filetoolstripmenuitem
##executable
##matter
##pi
##tokenprovider
##ny
asqueryable
restcommand
sendcommand
atom
disposeclient
##button2
##resulttype
##systems
##thing
##tl
addasync
converttoerrorcodetype
getcollection
theninclude
toolkit
disposeresponse
filtered
reasonargs
##collectiontype
##inlist
##inputstream
##mail
##ordinal
##successfully
##tagtype
##iated
beequivalentto
builders
getassemblies
restreturn
calendaritem
formula
geo
##assetpath
##criterion
##itemresponse
##propertystorage
##species
##tmp
##idad
blockingunarycall
daaehdaclient
optionsetvalue
selectionchanged
yaxis
materials
overload
species
##buckets
##cam
##categoryid
##requestdata
##heet
##ontext
conversationid
logic
##backgroundcolor
##ignored
##placeholder
##ans
##dge
keyeventargs
returnsasync
viewstates
acceptdatetimeformat
alt
assetname
peeringname
replacements
##cloud
##lowercase
##nativemethods
##online
##pause
##ername
##ole
disposeconnectionforpercall
entitymanager
foundation
msascmd
meshfilter
migrate
restheader
sendmessageasync
status500internalservererror
tiletext
unspecified
weakreference
writebytes
codes
filelist
octet
syncresponse
##artifact
##dump
##handled
##lookuptable
##qualifiedname
##tableresponse
decompress
isdefault
notnullorwhitespace
securitysafecritical
writelog
initializer
##attributename
##drawing
##loggedin
canseek
dependencyproperty
exceptionmessages
form2
linear
restqueryparameter
shortname
tdelegate
validatednotnull
elif
itemcount
returnurl
##buttontext
##commandline
##domainmodel
##id2
##thumbprint
##workitem
##ork
ensurepersistent
logcategory
processname
savefiledialog
templatetype
zap
timeframe
##databaseasync
##parametervalue
argumentoutofrange
debuglog
imessage
loadd
reporterror
##definitionname
##equivalent
##lang
##quaternion
##statemachine
##eak
globalconstants
lessthan
sharp3d
entityset
newlength
point2
redirecturi
refid
searchstring
sets
translator
##controlthis
##dataobject
##functionname
##reverse
##aries
listnextpage
listnextpageasync
spacing
##responsemessage
##ertype
conflict
dispatch
dotnetpacksettings
italic
middleleft
storyboard
challenge
elsethis
magic
matrices
newtext
##conditional
##imized
modifiedby
orderfield
outcome
pressure
csproj
queryurl
scores
sourceelement
##nome
##pagesize
##participant
machinename
palettestate
generictype
servicekey
watcher
##bridge
##gridview
##resolved
##testhelper
##ood
##sk
addobject
address1
exceptionutility
bookid
deserializer
runid
##business
##cached
##personal
##sqr
##uniquename
##dtime
fromfile
cancelled
delivery
diag
isn
uriresourcepath
##animations
##avail
##ump
translations
accelerator
deliveries
galleryname
newfilename
preset
way
##construction
##guard
##listing
##searchresult
##securitytoken
##statusrequest
##topology
##ality
##tem
bordercolor
finish
fsymid
idle
solve
tablequery
windobject
notify
##appointment
##md5
##trend
addqueryparametertourl
destroyimmediate
jointtype
transformpoint
visualstudio
ciphertext
createorreplace
directoryname
newdata
our
programid
##apifordigitalportals
##door
##ek
##rar
axisposition
getrandomitem
icontent
align
capability
##front
##inspector
##acter
##lash
argkey
authority
convertfrom
gizmos
imageurl
invokerequired
nullvaluehandling
selectionmode
pager
solver
##a1
##versionid
##ja
executecommand
uplo
##dev
##moves
##released
##iness
xaml
codepoint
controllertype
endregionreturn
messagetemplate
optionsbuilder
reportviewer1
thisvalue
##discount
##ifnecessary
##inside
##reminder
##returned
##since
##ats
##xception
getdomainclass
measurestring
cacheentry
pawn
statemachine
tip
waiting
##budget
##lection
##ture
addelementfieldinfo
checkerror
desiredsize
itype
putasync
stocksapifordigitalportals
tleft
webmessageformat
audit
documentation
offsets
station
vectors
##moved
##pools
##ruleresource
applications
paengine
setstate
threadpool
dep
vault
##hashes
##middle
##objectresult
##registrykey
##scenes
##watch
##cy
##sc
endcontractblock
imageindex
isinitialized
taccumulate
textureformat
databases
reportid
responce
##estimate
##kvp
##modifications
##notifier
##tenantid
##err
##erral
##ives
##sclient
codevaccinesadministered
retrypolicy
cfiltercondition
enemy
half
##downloaded
##grouping
##resize
##taskasync
addrofpinnedobject
errordetails
maximumsize
originalstring
spriteeffects
aux
##charttype
##toset
##vault
##ars
##ouse
addproperty
authtype
canceled
containerbuilder
datecreated
demo
ldloc
formats
reserved
typedef
virtualpath
##elapsed
##hosts
##profiler
##servicetype
assettype
defaultapi
errorcodes
itemidtype
monobehaviour
fraction
semaphore
supports
##classification
##colliders
##datas
##forlist
##serialization
##verification
##ii
graphicspath
logicalname
modifierkeys
moniker
resetmodified
securestring
cipher
consumergroup
detailed
param1
through
##behaviors
##entrytype
##valued
##stance
createlistrequest
jsonutility
removeitem
sqlexpression
updating
hub
realm
returnitem
##cases
##disposition
##requestmessage
##ina
##rio
clipboard
columnstyle
isdbnull
knowncolors
markup
selectby
dat
exittoolstripmenuitem
##applied
##guild
##reached
##secretkey
##ssl
##startposition
##mer
complexnumber
typekind
currentlocation
flickr
sortby
##modification
##pubkey
##verifier
binarysearch
commonutility
getresponseasync
isymbol
partner
texturetarget
ceusearchivedata
##commandtype
##cryptoserviceprovider
##extents
##letters
##testcase
##yes
##lation
mouseenter
firstpoint
##particles
##servername
confirm
modelhelper
currentchar
endposition
fieldhashtable
##href
##objectinstance
##ofitems
##conflict
##cookies
##hostbuilder
##opacity
##servicebase
##testresult
##upgrade
##ov
##rn
connectiontype
itemselementname
readalllines
servicebase
setposition
##att
##changetype
##providerfactory
##race
##slash
##undo
##unitofwork
##updating
##validationmessage
##viewcontroller
##pr
graphicscontext
innerxml
recordevent
serializationinfo
newstring
runenvironment
savebutton
##ifempty
##npc
##rb
##serializable
##tax
##uring
spellhit
##conversions
##dataresult
##organizations
##toload
##tosearch
##mon
##ributor
##sl
columnstyles
getwithhttpmessagesasync
localmachine
notsupported
pagination
regionname
sqlserver
componenttype
itext
intent
operationname
storeobject
##bigendian
##keyasync
##line1
##subresponse
##subtype
##dy
cryptography
flushasync
inbox
outputtype
slider
btncancelthis
supplied
##appearance
##calculation
##costs
##performed
##recipient
##orner
##ram
##s1
constructorinfo
isdebugenabled
listwithhttpmessagesasync
mouseclick
reasonphrase
undo
usertype
article
heading
pt1
##cut
##fieldvalue
##grouplistresult
##inventoryitem
##printer
dotnetpublishsettings
scroll
clr
even
headervalue
##cacheentry
##multi
##roleid
##savedata
##pclient
##pression
##sarray
addmodelerror
critical
engines
forbidden
getpath
setpixel
sizechanged
symbology
apps
recurrence
subscriptionkey
thisobject
##cellstyle
##encrypted
##pts
##sq
##terminator
##earch
##gt
charting
consumerfactory
lvi
packageid
##choices
##partial
##prefixes
##relativeurl
##tobytearray
##typesymbol
tresult11
endpos
idstr
##blend
##correction
##dayofweek
##games
##hp
##jo
##rain
##ulator
##verse
getconnection
medium
oncollectionchanged
savedata
setattributevalue
btnbrowse
grant
ini
tracking
##tory
##apiclient
##frameworkversion
##itemcollection
##minute
##synchronizationcontext
##ico
##ook
getactiveinstance
getdescription
indexofany
issupported
parseresult
updatedeletedrows
arrays
connectioninfo
indexer
numbytes
paginationlimit
responsejson
splitcontainer
subrequest
##controltype
##dao
##objectname
##paste
##tojson
##ements
##rname
createurinode
dotnetbuildsettings
profiler
releasecomobject
responseheadersread
writemethodentry
implement
indicates
loginreturn
patterns
##escape
##trees
##tries
##ass
mainpage
warnformat
maps
virtualnetworkname
##campaign
##eventasync
##hz
##ofbirth
##owners
##rects
##suite
##tensor
##tocompare
cleanupfilecontents
currentprincipal
resetcolor
mac
overflow
##deviation
##ellipse
##epsilon
##principalname
##sentence
##ero
##onfiguration
##rder
checkforerror
external
fromstream
getrestclient
maintainability
selectionstart
streamingcontext
writing
genome
overlay
rawresponse
spell
##boxthis
##initialization
##operationresult
##tagname
##ier
##wd
ensurenotdisposed
generictypearguments
rendertexture
writemethodexit
imagedata
locals
such
userguid
workspaceid
##absolutepath
##digest
##goal
##push
##erred
##iver
getlogger
sinceattribute
sortdirection
usersettings
pageid
##calibration
##childnode
##correct
##focused
##ingkey
##va
beginhorizontal
xyz
cornerradius
panel1this
representation
successcallback
synclock
##activation
##httpresponse
##internalasync
##issues
##multiset
##optionsbuilder
##rel
##review
##ak
readxml
setlength
validating
newarray
targetid
##borders
##descending
##domains
##fn
##http
##included
##into
##mac
##mimetype
##taken
##mt
##uction
createclient
expires
padright
requesthelpers
software
scriptname
sharedmesh
val1
##excel
##libraries
##millis
##normalized
##partitions
##bject
##dd
datavisualization
editorstyles
itemoperations
basename
dbname
outside
repositoryid
resultpromise
uint256
##descendants
##projectid
##velocitydata
##sfolder
assemblynameextension
directoryreference
endhorizontal
hexnumber
runtimeinformation
textalignment
colour
scenename
totype
##brightness
##evaluate
##fieldid
##orderby
##atable
##ocation
##urs
agentid
chainedheader
createlogger
getdatabase
ispathrooted
linklabel
finalsize
globalproperties
incoming
num3
paginationoffset
prices
propertypath
under
##overflow
##wall
##aml
##hy
##ollow
errorhelper
portfolio
partitions
##expectation
##observers
##protocols
##renderers
##wildcard
infinity
listbyresourcegroup
avg
larger
openfiledialog1
probability
review
scenes
serialport
sha
##areequal
##colidx
##scaleset
##traversal
##ites
##ortion
##py
##smanager
##v6
getindex
htmlencode
htmlnode
memberdata
projectcollection
addresourcememberrequestbody
dirty
proxylist
startx
##router
##selectionchanged
##sis
classcount
getaxis
igraph
isession
sceneobjectgroup
generation
newheight
policies
storageaccountname
##continuation
##datarequest
##sm
##thumbnail
##ater
##edmessage
##osity
##xt
allocate
assertex
irandom
rockmigrationhelper
routevaluedictionary
logfile
migrationbuilder
##chunksize
##compile
##sites
##ernet
##itive
##tract
authenticator
eventdescription
studio
cinfo
mark
##estimator
##idasync
##infoasync
##profilename
##succeeded
##xmlreader
##dos
##gular
##tch
##v4
debugusing
raiseevent
tooltiptext
cmdparams
newwidth
##concept
##evidence
##fromcache
##groupasync
##inmilliseconds
##trim
##ew
##ken
dbcontextoptionsbuilder
doublebuffered
aabb
##configure
##overlap
##partitionkey
##resourcetype
##take
##ervice
##lem
eventmanager
resourceset
trygetcomponent
button5
matcher
timeoutseconds
##distributions
##floor
##projectpath
##teams
##uint16
##wide
##ane
##edgraph
##mit
##tore
warnings
anim
charindex
elementselector
text1
vid
##again
##datasize
##outputpath
##rad
##sb
##tablerequest
donotcatchgeneralexceptiontypes
endofstream
endofstreamexception
elsevar
gradient
made
newuser
objs
##changedevent
##https
##splitter
##threadid
##ender
deserializelengthdelimited
manual
menuitems
ncachelog
negativeinfinity
unsubscribe
vermilion
always
chart1
deck
dice
footer
nodeindex
unsigned
##appender
##attrib
##challenge
##stringvalue
##dname
##unch
addline
objectmodel
redirectstandardoutput
singleinstance
accumulator
slave
xmlstring
##lf
##oken
##ton
closing
ipublishedcontent
verseref
cellsize
disp
##inforesponse
##querybuilder
converters
rdf
solveinstance
outputvalues
searchtext
tempfile
##creature
##listitems
##posts
##vector4
##ido
dbrepository
encryption
errorresponseexception
ihttpactionresult
iserviceaction
packettype
stringformat
testdefinition
cause
imagesize
kws
measurement
samplerate
sym
tabpage1
##enumeration
##facade
##formatstring
##loops
##neighbors
##notsupportedexception
##providername
##amp
##arator
##cio
##ercept
basicblock
drawrectangle
findchild
readint
status401unauthorized
adapters
applicationid
association
neighbour
requirement
scripts
submit
videotags
##deleteasync
##doubleclick
##expiry
##getwithhttpinfo
##inuse
##invariant
##nonce
##schemas
##bet
stopasync
subfieldindexmainfield
webutility
desired
elseitem
err4
orig
##conflicts
##idlist
##parametertype
##aching
##cript
##dsize
##ector
bitset
clientrectangle
externalid
gettable
regularexpressions
showerror
ability
componentname
datasize
transforms
##three
adcpcommands
brokertracing
collectionassert
iexpression
loggerconfiguration
outputarray
backupdataset
intensity
rawrequest
##catch
##figure
##oost
##pings
##xer
genericresource
inputmanager
tfield
callbacks
ctxt
needed
reldomainclassid
##advice
##asint
##boxes
##destroy
##overwrite
##persample
##ruleset
##statemanager
##subsystem
##torun
##ingpoint
betrue
instanceof
reports
tcontrol
bones
getcmd
maxheight
##layoutpanel
##transient
##ection
##inginterval
##lan
##lp
##nable
##osed
##unction
arraypool
icancellableasyncresult
remoteendpoint
cancellable
checkpoint
markdown
reached
##conversation
##dead
##resume
##so
##timing
##tolog
##cess
choose
bucketid
messagedata
pnode
psi
starty
typeid
##associations
##bias
##binaryreader
##editable
##evaluation
##exceptionmessage
##gc
##itemlist
##propertylist
##requestcontext
##small
##todate
##sadapter
##sd
##sthis
0x02
allowanonymous
checks
contextmenu
lengthsquared
rgba32
timeofday
bindingcontext
descriptors
keydata
languageid
particle
promotion
##heap
##ifnotexists
##nav
##outline
##prototype
##subresponsetype
##aldata
##edsize
##onds
advanced
applicationdbcontext
classrange
getsetting
getsize
providertype
asconfig
determine
dirpath
itemview
neighbors
targetposition
##v3
##gredient
##nowledge
delegates
errortype
getstatus
ihostbuilder
twilioclient
forwarditem
##care
##categoryname
##commandresult
##gl
##ication
##ndex
##oint
##unt
define
domainclassid
ribbon
corner
searchresult
student
subset
##affected
##algorithms
##blobclient
##clipboard
##itemrequest
##selectionmode
##servicerequest
##vehicle
##ants
##eet
##swithhttpinfo
arial
drawtext
iimageprocessingcontext
lookrotation
securityexception
btnsend
incx
movie
parseddata
targetelement
templateid
vars
##filepaths
##servicecontext
##typenames
##iff
##lus
##rop
##tc
aas
createexception
numberformat
ordertype
outerxml
ukct
userinput
##cl
##music
##raised
##toinsert
##uint64
##ield
##tpclient
changeextension
createattribute
errorcategory
inamedtypesymbol
istransient
jsonmarshallercontext
messageimportance
problemdetails
standardoutput
effectiveat
startaddress
##accuracy
##held
##pdf
##queryasync
##unittype
##userasync
##cope
##tt
processresponse
readuint64
anitem
chr
expectedresult
nodelist
syncgroupname
trend
txtname
urls
##ascii
##createitem
##disable
##parents
##xmlelement
##senabled
copytoasync
rowkey
errorcollection
poolid
signer
##button3
##confirmed
##metricdefinition
##monster
##artment
##gn
##icit
##ple
anycpu
createddate
deleting
finbourne
front
iapiresponse
itemscontrol
requiredmoduletypes
stringliterals
throwiferror
actualtype
clock
codec
filesize
multipart
publisher
pwd
qualifier
restrictions
serialized
sides
varchar
##commandexception
##emails
##frameworks
##gb
##relations
##throws
addnode
builditem
selecttoken
analysis
browsename
epoch
gagvr
testobject
##buttonclick
##designer
##dst
##else
##lazy
##migration
##trackingid
##izations
##tance
##ym
getbool
resume
certificatename
menustrip
newentity
##cipher
##gamestate
##httpcontext
##onfailure
##reg
##streamreader
##nse
##son
smoothingmode
clause
faction
groupmember
simplebutton1
throwexception
working
##rates
##reading
##startedeventargs
##viewname
##uest
domaindatadirectory
getnative
innerfault
isdeleted
notifications
setlasterror
tobj
availablesize
evaluator
instancetype
listeners
worldposition
##applications
##conditionbase
##deprecated
##notset
##sectionname
##simulation
##switches
covenant
directorynotfoundexception
getpage
invert
isfaulted
testsequence
chat
configurations
stmt
years
##aa
##aggregator
##angles
##sname
##tone
checking
dictionaryentry
iconfigurationbuilder
tfirst
unhandledexception
activeself
importer
impulse
labelmapping
silent
tasknode
toret
week
##2this
##ensemble
##unavailable
##gg
patient
rename
two
radix
resourceprovidernamespace
wfid
wsdl
##foruser
##locker
##ofweek
##owned
##sert
##sv
##tri
committransaction
getkeydown
isetweventenabled
objectresult
syntaxtoken
tagsvalue
ancestor
charcount
longtermretentionservername
scanner
yvalue
##administrator
##connectiontype
##gap
##storedprocedure
##textfield
##userinfo
##fo
##icity
ca1021
featurecount
fullrowselect
iline
scriptableobject
serviceprocess
compression
gridcontrol1
newentry
##debugger
##notdisposed
##rpc
##tomatch
##tokensource
##my
##ribution
##uel
exitwritelock
formatwith
getactiveproxyfromrot
registerinstance
choices
closest
drag
ver
webbrowser
##bodies
##exporter
##submit
addedge
ca1006
density
innerexceptions
nui
parametertofile
preconditions
rootfolder
btnupdate
exclusive
glyph
moduleinfo
skill
storageaccount
whether
##attrs
##groupresource
##reuse
##sbyte
##erver
##ettings
##rray
aswbxml
ast
loadasync
onupdate
published
sequencenumber
spawn
tcp
tasktype
validateparamsarray
crypto
directive
filecontents
length1
matrixa
##masks
##passed
##problem
##widths
##aming
##umidity
##ural
currencycode
exportutil
operationmetadata
patterninterface
throwifnotready
completion
hook
invoiceid
joints
third
##itory
##ky
##oring
##pexception
##pm
##ric
edmtype
eventlevel
instancecount
logentrytype
modifieddate
queueuserworkitem
resourceutilities
setbool
sharedstrings
solutionid
tracetext
budget
dobj
eedata
param2
pointa
responsesohs
worldstate
##allasync
##aspect
##customproperties
##extra
##fitness
##prediction
##ges
##nts
##une
##usted
##vo
getresource
isprimitive
playmanager
routedata
sendrequestasync
tempdata
calc
compressed
intervals
lparam
perm
progresshandler
sel
testscope
##examples
##initial
##jobasync
##large
##littleendian
##rowidx
##enue
applydefaults
logeventlevel
mediatormessages
nombre
repositorymediator
setbinding
setstring
usecompatiblestateimagebehavior
lblmessage
serverconnect
sourceobj
timestampresult
##fa
##ener
##uce
##ugh
##ystem
##zed
100f
96f
controllercontext
donotnestgenerictypesinmembersignatures
geopoint2d
hasparameter
keytype
metroframework
photonnetwork
phpvalue
rgba
readobject
sceneobjectpart
securityaction
statemanager
unitytest
apisettings
jcell
outline
propertygrid1
slws
trackchunk
##genome
##instancename
##mapnode
##throughput
##abilities
##amma
##osition
05f
asprotocolversion
analyticsapi
cakealiascategory
countasync
internetwork
invalidoperation
logformat
profiles
queryfield
rootpart
settooltip
cancellabletracelog
sigma
torch
tud
yoffset
##maxlength
##scaling
##season
##totarget
##ands
##edproperties
##isation
##oding
eventlog
gettoken
nodestate
people
requeststream
telegrafid
##fingerprint
##line2
##ship
##valuepair
##lain
azureasyncoperation
dotnetrunsettings
eventlogentrytype
monikerattributename
readobjectresponseasync
tcomponent
bytestream
colname
discount
geom
initialvalue
ins
lockname
routetablename
##indexed
##ordered
##propertyset
##song
##xyz
##dor
##ude
deg2rad
outattribute
saving
tfrom
coefficients
filepaths
merged
nextindex
selectexpression
sensor
streamname
tries
##componenttype
##configurationresponse
##deltatime
##direct
##languagecode
##locks
##meshes
##type1
##validationerror
##withtag
##ild
##tra
bsontype
createfile
documenter
getelementsbytagname
hxldcont
libs
tsecond
aesalg
instream
serializebuffer
tween
vel
##actionresult
##dictionaries
##jump
##tenant
##union
##aps
##onfig
##tm
bottomright
debugging
getconfiguration
listnextwithhttpmessagesasync
modelroot
queryfilter
screenpoint
solid
tahoma
testruntime
activityid
attached
flowchart
pnlsettings
saturation
sourcename
transitions
##buttonup
##dataitem
##propertygroup
##timestring
##validationexception
##dpclient
##inger
##ti
datemodified
enterwritelock
invalidpropertyvalue
seterror
synchronizationcontext
xenref
album
boolvalue
framecount
labelname
newfile
roomid
survey
valuename
##accesstype
##hostedservice
##pointindex
##eters
##rk
baseinstancestate
deletefile
getcomponents
setexception
indexparse
interactor
routine
##documentasync
##environmentvariables
##eventhandlers
##impulse
##ofrows
##secrets
##serializationhelper
##storageprovider
##lies
##wk
analyze
createupdaterequest
dragdropeffects
formatcache
getpattern
loadconstant
methodimplattribute
tinnerkey
assetid
codemodel
outputdir
stock
##acceleration
##collectionid
##factors
##mutex
##offer
##optimized
##rename
##technique
##underlyingtype
##ificacion
##mb
configurationsetting
methodinvoker
openfile
runtimeplatform
tokenkind
twoletterisolanguagename
west
how
oldindex
signed
##eventlistener
##pieces
##templateid
##ten
##uck
##uffle
datetimeorcutlabel
logtag
onexceptiondelegateonexception
paste
responseclass
runtasksynchronously
tto
testname
usemiddleware
ctr
radians
related
templatecontext
text2
unitconverter
ypos
##codegenerator
##fontstyle
##ind
##localization
##objectasync
##sides
##uvs
addcolumn
closeasync
disallownull
executeasstringasync
getentity
propertytagarray
rightchild
vpcid
addend
creds
currenty
hexstring
posts
wall
##clientfactory
##decision
##directoryname
##near
##not
##queueitem
##rotate
##textboxthis
##usercontrol
##bon
##erior
##igned
##lay
##ree
createnowindow
irepository
itemheight
street
trysetexception
bufferlength
preferences
##authtoken
##con
##linklabel
##meters
##propertiesasync
##registers
##spectrum
##trainingdata
##dtext
##edtext
##itter
##orm
##pec
##rid
##urity
localinterop
logcritical
manualresetevent
onresponse
paletteborderstyle
tableoperation
threadstart
containers
errmsg
had
numrows
relativeurl
##above
##branches
##delivery
##docnode
##facet
##major
##paciente
##partitioning
##runs
##trade
##oon
##ufacturer
##urable
##zz
addnamedvalue
bottomleft
cityname
l10n
osplatform
painteventhandler
synchronizer
additional
ball
candle
expanded
modelflowid
startline
wrapped
##chip
##foreground
##idle
##jsonasync
##linear
##lost
##propertyattribute
databind
executenonqueryasync
formatstring
imaging
isbusy
oxcmapihttp
sessionstate
unorm
createitemrequest
imagename
lineindex
targeturi
##avg
##entityname
##prefs
##ednode
##erating
##hort
##mname
apiurls
contentencoding
getcolumn
idiagnosticslogger
labelfield
logwriter
tlabel
thisentity
applicationbuilder
databasestate
dwflags
indicator
loadbalancername
msfield
onlylatestperdatabase
symbolformat
xoffset
##c0
##cptr
##intervals
##notation
##quest
##setid
##testhelpers
##chestration
##rier
##tein
authenticationresult
dispatcherpriority
domainclassxmlserializer
east
getsdkheaders
permissionmask
poll
imagepath
plot
rho
##fonts
##midcodecharts
##motion
##station
##statusmessage
##bx
##ica
##zen
0x20
blendmode
clearcustomrequestheaders
codespecimensourcecodes
designscript
getmembers
isdevelopment
sendkeys
topright
attr7
colindex
deal
dotnet
errordetectionmode
fieldnames
grainstate
keyspacename
labelselector
nuint
strbuilder
targetindex
testweightbalancedtree
##performance
##shared
##stateasync
##visit
##een
##ilable
##ingservice
##ope
##tatus
imagesource
isexpanded
requestmanager
sqlhelper
bookmark
feedback
imagelist1
inserted
languagecode
secure
statuslabel
underlyingtype
##cssclass
##motor
##bles
##posite
##rtype
##sexception
activecfg
adcpsubsystemconfig
geturl
htool
isystemcontext
itypesymbol
leftchild
moq
readasstreamasync
topologicalreference
updatetime
contenteditable
currenttouch
goal
notificationid
siteurl
##beatmap
##datamodel
##hashalgorithm
##postfix
##sourcename
##than
##toxml
##uniform
##ersect
##rr
##rypt
convertall
createrequestasync
findfirst
getfile
hpose
isset
noinlining
steamvr
stringalignment
surname
unhandled
usefont
valuetext
wrapperutility
relserializer
submesh
textcolor
xapikey
##assembler
##atom
##dataservice
##hints
##slug
##terrain
##olation
##ves
creationdate
scrollviewer
todo
computer
dataformapp
drawable
mimagelistview
pipelineid
pollination
##buttonpressed
##changeeventargs
##gain
##launch
##paginatedlist
##people
##textreader
##aladdress
##anisation
##going
addfield
hestructure
serviceurl
structuretoptr
tochar
unlock
gridview1
near
newpos
value4
##batchsize
##enumtype
##maxsize
##operationrequest
##rooms
##triangularmatrix
##gate
##ono
autoscroll
demand
fieldcount
numericformat
selectedobject
shuffle
statusdescription
totalminutes
winforms
writeallbytes
datasetkey
deletes
docx
known
pad
sanitizer
vector1
##fileexists
##filesize
##general
##hold
##logwriter
##objs
##ofyear
##planes
##toolwindow
##waittime
##edfile
##ingdata
##tes
addfile
closeconnection
constoperation
getnames
handedness
inputparammanager
registerinputparams
socketconnection
authtoken
copied
drop
field1
tangent
##3x3
##argb
##fontfamily
##multiply
##realm
##reload
##submission
##toedit
##toserialize
##dproperties
##edid
##ervation
##rove
##x3
accessapi
amazonwebserviceresponse
getlist
inputsystem
isletter
tresult12
against
animal
checksif
destinationfile
inf
javascript
mocktask
typebuilder
##beam
##databasename
##discovery
##exceeded
##groupdata
##macro
##when
##inal
##ingstate
##mo
##tter
mappath
parsefloat
relationalannotationnames
symbolicregexnodekind
topdirectoryonly
unicodecategory
charge
conv
fieldselector
joblog
sfdatagrid1
spans
tokensource
tracks
##bins
##equation
##grouprequest
##launcher
##rev
##anner
##ava
##crete
##dl
##gredients
##obile
consume
getvalid
iswindows
newrule
paused
selfuri
currentpath
databaserid
dbset
loggers
xgwimsorgid
##baseclass
##bookmarks
##magic
##objhandle
##unsigned
##dx
##lex
createdate
detach
envdte
factsetfunds
kill
matrix3x3
setint
btncancelar
emailsubject
encryptionkey
playerid
recognizer
strength
trackbar1
unused
##5f
##converters
##executiontime
##hover
##processid
##resultset
##streamresponse
##tomove
##ationkey
##oliday
##uld
isnew
misc
renamed
simulator
columnheader1
encryptor
executable
limits
moved
patientid
promise
sortfield
special
sqlobj
##circuit
##datablock
##definitionid
##matching
##perunit
##sequences
##sqlcommand
##txtbox
##x1
##zones
##cept
##fi
##pan
##stableadapter
##ssenger
checkresult
isinvalid
receiveasync
xmakeattributes
freq
halt
outparams
sites
sqe
toolstripbutton1
##applicationname
##attach
##customers
##duplicate
##messagesize
##stroke
##structures
##textcolor
##come
##ference
##overed
allkeys
desktop
endconfig
imports
isosplatform
playing
protocoladatper
tmember
taggedpropertyvalue
throwifnotonuithread
user2
contained
creation
cred
distribution
locate
mdl
returnbuff
topicname
##bonus
##ctl
##datapoint
##fromtype
##latest
##mime
##ofline
##recursively
##sessionasync
##ernate
##he
##ida
##otkey
##oxel
##rum
executerequest
layermask
modulus
operandtype
stretchimage
coauthoring
mono
otherwise
parsedvalue
party
sqrmagnitude
##perimeter
##projectitem
##published
##searchcondition
##targetname
##virtual
##nemonic
datagridviewcolumn
developerkeynotset
elementid
generaltoolkit
getspan
setfield
targetinvocationexception
fontface
later
listinfo
##calculate
##connectionrestclient
##ending
##forobject
##windowsize
##dresult
##eader
##ocode
##pus
datastore
getpropertyname
plotarea
viewcontext
big
containing
deviceindex
##datarow
##spot
##ift
addmessage
appointment
createlistnextpagerequest
executereaderasync
itemclass
piston
protocolbufferexception
tcolor
tdbcontext
yvalues
m11
namespaceparameter
newobj
returning
syncrequest
##appname
##derivative
##drawable
##ends
##invitation
##rootelement
##roid
ca2000
factsetestimates
iunitycontainer
loadfrom
notnullorempty
openwrite
pyramidcontext
removechild
subtype
totable
urn
bytebuffer
clonedclient
dgv
efentity
index0
inputbuffer
labelid
mindistance
msemr
planet
requirements
tabpage2
thumbprint
xpos
##acquired
##apps
##clrtype
##cultureinfo
##deviceid
##genericmethod
##half
##jobrequest
##jsonserializer
##statustype
##toscreen
##ature
##edexception
##ersist
##inate
atlas
buttonsave
clsactionstatus
configurer
inputvalue
mockhandler
months
oauthtoken
observers
tabcontrol
valuearray
wparam
##armresource
##attachmentresponse
##bookmark
##erroreventargs
##headername
##nameattribute
##skills
##sym
##targettype
##useragent
##ador
##kit
emptytypes
enqueuetestcomplete
googleadsclient
osdmap
optimize
reliability
requestformat
s02
bsonreader
caughtexception
commentid
currentelement
databuffer
ident
loggingevent
mapped
txtinput
##assemblypath
##bypath
##extensionname
##friendlyname
##ignore
##ost
##servicemock
##sortorder
##statusresult
##tokenresponse
##transactionid
##aught
##egal
##ession
##hest
##icate
##lorer
##ser
##visor
adddocument
applicationservices
buttonspn
codeordercontrolcodes
eventhubscope
fastmath
maximized
networkarmoperation
rendering
setitem
wopi
broker
dec
dirname
errorstring
iface
orgid
receivedevents
restriction
##apiexception
##del
##linkresource
##proj
##renderingmode
##responsemodel
##subtreesize
##ushort
##iator
##idual
##oins
##ootstrapper
addoptionalparameter
amazonserviceresult
amazonwebservicerequest
compiled
dialogflow
initializing
isnotempty
isnumber
metadatareference
mysqldbtype
north
partnerservice
pushmatrix
reportprogress
wordwrap
htmlfragment
keyvalues
personality
roots
trimmed
##frompath
##lb
##played
##querytype
##tier
livesplitcorenative
sortedset
website
currentversion
descendentmonikertagname
descendentxmltagname
jsonresponse
reuse
star
underlying
valuestring
##7f
##alloc
##assetname
##cted
##equest
##ibration
##ins
##srepository
##ttype
##tors
amplitudedata
blog
designer
findelements
kernel32
rent
fff
lng
scrapertargetid
targetdepth
##batchasync
##integration
##orthrow
##pl
##rawdata
##testutilities
##votes
##wrapmode
##br
aiplatform
fullyqualifiednamespace
keychar
keysize
numerics
outputhandleindex
popmatrix
size2d
distances
graphic
inputcount
newkey
timed
verification
viewid
##interactable
##lasterror
##logfile
##notequal
##opcode
##vel
##eferred
##ength
##ident
ischeduler
typeattributes
attrib
bpp
ofd
stepname
thumbnail
yaml
##activator
##band
##eventlog
##groupcollection
##joints
##movingaverage
##specs
##startinfo
##tableentity
##throwexception
##adata
##ana
##ditems
##ha256
##ility
##vision
allowusertoaddrows
codegensession
createorupdatewithhttpmessagesasync
english
item4
listbyresourcegroupasync
propertydictionary
actionresponse
allocator
cmdcancel
data2
oracle
rabbitmq
mssq
most
requestinfo
sku
##accessors
##dpimode
##external
##finalblock
##inparent
##listrequest
##nodecount
##tabpage
##toarray
##tonull
##altype
##mbracocontext
##upplier
responsecodetype
addimagequery
componentid
fieldid
invitationid
marked
targetdirectory
##aspectratio
##containerclient
##dec
##fieldnames
##idtype
##maxvalue
##peaks
##unchecked
##olve
##ren
customattributes
orderstatus
settarget
sqlgenerationhelper
toolstrip
waitall
waitforcompletionresponse
writeevent
writexml
assertanalyzesto
childindex
configpath
determined
prediction
toolstripseparator1
turn
urlpath
virtualnetworkgatewayconnectionname
wobject
##apiurl
##aware
##communication
##executing
##exited
##polynomial
##ib
##ingcode
##ired
##itions
##itude
##nal
##tain
##ulus
cntk
graphnode
growandshrink
ismodified
linkedlistnode
manufacturer
namespaceuri
onclick
palettebackstyle
quit
isdone
newid
nodecontext
registrations
##car
##keyvaluepair
##seperator
##valuedictionary
##variants
##edobjects
##eso
##iew
##tal
addrow
geopoint
getentryassembly
mahapps
stloc
tcommand
testresult
tohexstring
viewstate
cultures
expired
inparams
minsize
moment
nextpagelinkstring
rtf
serviceinstaller1
sipresponse
strong
##errorfactory
##excluded
##frombytearray
##fromindex
##menuitems
##ofdate
##summaries
##textchanged
##typereference
##bserver
##lave
##lice
##onicalname
amqpcodec
eventposition
tried
existingvalue
logonresponse
nested
networkinterfacename
pos2
responsestr
spectrum
totallength
##baseuri
##gameobjects
##keypair
##migrations
##playing
##repositories
##resultcode
##retrycount
##shortcut
##startedevent
##acket
##izar
##resh
##vg
column1
fromdays
requestmoduleinterface
setdirty
stringformatsequence
uniform
writerstate
crop
longvalue
notifyicon1
pos1
servertimeout
their
##asbytes
##clips
##cycles
##graphs
##lease
##mult
##notbenull
##occurred
##poolsize
##queryrows
##routebuilder
##updateparameters
##lish
##rque
##ys
blocktype
dataobjectmethod
emptyresponse
gettempfilename
identityresult
playerindex
point2d
servicestorun
smbiosstructure
tabpage
testenvironment
arraysize
btnremove
expiry
extras
safe
textfield
##datapath
##imageformat
##intptr
##pop
##rstate
##uencies
##ullet
guistyle
getconnectionstring
iaggregate
iclientapi
skipping
transient
adapterswithacceptchangesduringupdate
cls
ftstatus
okbtn
userhandle
worktransaction
##debuginfo
##fnd
##imagedata
##outofrange
##suggestions
##validity
##iles
##ral
addmonths
browsenames
extendedcompositeidnumberandnameforpersons
readall
toshortdatestring
fortype
gif
lit
networks
rsp
ruleid
##approved
##exceptionhandler
##fileprovider
##fromname
##inputtype
##offsety
##processors
##sceneobject
##statuslabel
##gh
##lity
##reasing
##ripcion
absoluteposition
basicvaluetype
buildserviceprovider
eventtracking
getargument
validatenotnull
valuetuple
webcallresult
architecture
identifiers
spaces
##accesskey
##caps
##gradientbrush
##loggingcontext
##quit
##response200
##valuecollection
##iant
##lector
##mitter
##ocities
addcommandparameter
checkvalue
highlight
interpolationmode
legend
pythonops
reflectedtype
setcursorposition
uritemplate
urldecode
casesensitive
exec
getitemresponse
overlap
swagger
##allocated
##assessment
##employees
##flux
##schedules
##boards
##inite
##nid
##srequestmarshaller
newitems
okobjectresult
textspan
cmds
errorstr
methodcall
roll
slide
webidtype
##mid
##objectlist
##orfail
##policyerrors
##wss
##darray
##eploy
##isions
##vi
basicdatatype
factsetprices
flowdirection
getuserid
rdfparseexception
transporttype
deserialized
endifvar
fromindex
implementationfactory
maxdepth
oncomplete
setupaction
##broadcast
##destroyed
##filedata
##fromxml
##linkrequest
##point2
##recovery
##senha
##stuff
##subrequest
##testmethod
##ees
##ension
##idue
construct
dpi
getfloat
good
linklabellinkclickedeventhandler
listnextasync
loadfile
revit
writemessage
confidence
convention
currentlevel
currentrow
imax
list2
testsite
thumb
##cancellationtokensource
##etag
##ingroup
##lastwritetime
##leftpositionpercentage
##parms
##setrequest
##void
##cal
##dpath
##dle
##edness
##ontype
##resent
##sitem
##ube
compareordinal
connectionstatus
contractannotation
icomparablewhere
imethodsymbol
issuccessful
odataexception
pagedenumerable
parentgroup
projectitems
subsystemconfiguration
syntaxtree
compareresult
gamma
minoccurs
packets
tran
valueformat
##blog
##contextasync
##filelist
##insensitive
##instrument
##lockid
##repeat
##rootnode
##sofar
##thresh
##totype
##toppositionpercentage
##here
##ingpolicy
##olor
##sresponseunmarshaller
connecting
createnode
dgfield
daofactory
diagram
getclient
getconverter
getguid
itemcontainergenerator
makeapicall
multiselect
axes
configurationbuilder
currentpoint
locktaken
num1
swigcptr
waypoints
##bc
##confirmation
##copyright
##foritem
##soapout
##student
##translate
##aque
##ertia
##icname
##lass
##pid
##sed
##ufficient
001f
controltype
editorapplication
getstringvalue
getupperbound
linesegment
aspect
createitemresponse
environmentid
loops
nodedata
organizations
targetproperty
userservice
variance
xmllineinfo
##adjust
##asyncenumerable
##authorized
##beams
##collectionchanged
##hero
##shortname
##testing
##toignore
##ipe
##med
bug
considerpassingbasetypesasparameters
dotnetrestoresettings
exclamation
ientitytype
itemarray
sqlarmoperation
unregister
useclientcontext
composite
cycle
failing
msdyn
tilesize
##bitconverter
##dataview
##imagepath
##optimizer
##reserved
##syncresponse
##transactionasync
##walk
##ached
##bilities
##osure
##tleendian
buildtarget
cmdotro
callerfilepath
cultureinvariant
lapacknativewrapper
loaddata
oncompleted
requestmethod
runcommand
throwonfailure
vec3d
ipiv
publishername
##commandname
##itemmodel
##linktype
##mirror
##nullexception
##par
##privileges
##quota
##restoperations
##subscribe
##surrogate
##hronization
##intype
bordersize
color4
datatemplate
datetimeformatprecisionsecond
eventhubconsumerclient
getid
griddata
havecount
jsondeserialize
principalentitytype
zipcode
bitindex
currentblock
pointb
regkey
sourceobjtype
staticvoid
subtrahend
teams
temp2
##authorizationrule
##fact
##injector
##province
##resourceset
##viewitem
##edin
dynvalue
logmessagetype
nextsibling
projectinstance
vshpropid
built
composition
expectedcount
keep
leaveopen
requiresgrad
resolvedtype
searchresponse
simulation
typesymbol
##allocator
##changecheck
##imageindex
##inputdata
##keyup
##particle
##statechange
##websocket
##xmldocument
##inguishedname
##ordion
accounttype
checkoperationsuccess
datapropertyname
genuineutility
grade
itestsite
logout
mpparameters
populate
spatialdimension
unmarshall
xmltagname
certificates
frm
lease
observation
projectdirectory
property1
repositories
windowsazure
##buildsettings
##column1
##complex
##contentasstring
##dirname
##histogram
##phi
##sortmode
##stopwatch
##type2
##errer
##ianness
##ibleobject
##inletters
##istlist
##mage
##uggestion
##zation
azureintegrationservicesmodel
evaluation
joinabletaskfactory
linearalgebraprovider
logerrorformat
mainformthis
mousedoubleclick
mousestate
objectversion
pagedasyncenumerable
btnclear
buildevent
flexfieldobject
galleryimagename
prefixes
sourcefilepath
##brace
##cacheitem
##caching
##imagesize
##modeltype
##policyresponse
##some
##through
##trie
##updaterequest
##variablelist
##li
##nch
##rand
##uiet
##dataentity
##foreignkeys
##item1
##nestedresourceinfo
##panels
##progresschanged
##serial
##tracks
##edkey
##ialect
companyname
dataformats
globalsettings
monitoring
netfx
parseboolean
readint16
rooms
sendmail
unittype
blobclient
createfolderresponse
dates
happen
opened
tosend
tol
xsd
##audience
##coefficients
##customattributes
##fragments
##ifnotexistsasync
##maker
##nodebuilder
##nodename
##retriever
##view1
##cle
##fy
##hape
##ht
##iction
##ods
##own
##robject
audioclip
authenticationscheme
chardata
deepcopy
elementary
familyname
invalidprojectfileexception
psobject
privateendpointconnection
showmessage
terraintype
toradians
asynctask
boundscontrol
convertedvalue
decl
identities
macro
notifyicon
past
robot
textsize
u2550
##contentasync
##copied
##headersize
##interpreter
##mousemove
##nested
##signer
##typemapping
##urities
astnode
bindingmode
createnew
getboolean
getcolor
linux
packageidentity
resolvedfiles
bitcount
createfolderrequest
newtype
polygons
todate
##annotationnames
##caret
##configurationrequest
##folderidtype
##latlng
##packed
##panelthis
##recipes
##rejected
##subset
##toparent
##hing
##iary
##lk
##stoolstripmenuitem
autoscalebasesize
avoidexcessivecomplexity
builditemgroup
ca1502
doevents
isready
msoxwscore
onload
readboolean
settingname
tohex
actually
fitness
follows
intcontador
mcs
proper
removing
renderers
stylesheet
tablenames
taken
totalbytesread
##folderhandle
##map1
##ool
##offsetx
##tokenizer
##usages
##gan
##sode
addbutton
clusterid
createfolder
debuglevel
gamedata
vector2f
zohohttpclient
activation
continueoncapturedcontext
getqueryparameters
##binaryexpression
##checkpoint
##flows
##image2d
##medium
##operationsclient
##parameterlist
##patient
##tabcontrol
##terminated
##achable
##ivate
##reds
##ymmetricalgorithm
addnumberparameter
getinfo
movetocontent
routedeventhandler
welcome
authorized
btnapply
conventions
fileurl
ordered
procedure
test1
virtualhubname
##asjson
##course
##delayms
##forecolor
##itemasync
##mousedown
##noise
##nulls
##pathsegment
##toskip
##transpose
##versioninfo
##edstring
##lar
##nge
##pter
##utations
addvertex
applicationinfo
authenticationtype
categoryunittest
fire
iwebdriver
indextype
ispositiveinfinity
issubcomponent
launch
privateendpointconnectionresource
released
stepnumber
storagefile
terror
topology
traitcategory
currentframe
pbs
projectile
sim
toolset
walker
##builders
##deg
##flip
##foldertype
##htmlstring
##notallowed
##numbergenerator
##substring
##eps
getbytecount
ipixel
listing
user1
valuechanging
worldmatrix
bufferoffset
graintype
jid
lblname
ocpapimsubscriptionkey
outputarguments
outputdirectory
peptide
righthand
ticker
##alreadyregistered
##anim
##persistence
##primitives
##simulator
##threadcount
##hile
##wt
adduser
fileio
networkconnection
production
propertystate
recycle
sobject
tizen
currentprocess
delim
ofs
polynomial
sprites
three
##configurationexception
##graphtype
##news
##providertype
##screenshot
##sel
##statics
##systemname
##toappend
##unresolved
##updateitem
##ernal
gmarshal
grouptype
listen
machineid
mnemonic
npgsqlconnection
npgsqlparameter
onlaunched
sqldataadapter
sumasync
tprop
brightness
bytesconsumed
compositor
configstorename
dims
enrolleeid
presult
passmanager
queryparamvalues
volatility
##alarm
##atlas
##cf
##columnlist
##finishedeventargs
##grade
##operationid
##restart
##screens
##signed
##slope
##aturation
##issa
##ogy
##omplete
##orrow
##ros
##roval
aspnetcore
blobtype
cwpap
ivalidationerrorhandler
imaginary
swaggerwcfresponse
switchuser
writenulltermutf8
btncreate
midifile
might
parameterobject
processinfo
readcount
subscribers
##combination
##moving
##overview
##poll
##separators
##storyboard
##swagger
##xelement
##bable
##elopment
##hird
##ingrequest
##oma
cloudstorageaccount
databasetype
directions
entitycollection
getpoint
getrandom
methodoffset
nextbytes
rdfqueryexception
tproducer
textcontent
tracewarning
accuracy
bag
buffered
collector
deltay
elementsize
injectionscope
markers
queryid
receipt
sqlbuilder
subkey
testdate
timeoutms
##edgeid
##objectrequest
##statuscodes
##tovalidate
##webclient
##cat
##ialization
##ifiable
##ua
##uations
##ulgarianletters
##ummy
datatypes
dmiproperty
imagetype
moleculemodel
numa
opening
setpropertyvalue
stopping
tcontroller
able
adaptid
configs
cont
hashes
matter
methoddef
pars
sourcestream
subspace
##accountasync
##biginteger
##dbconnection
##fc
##scopeasync
##starting
##toparse
##variation
##walker
##a2
##cause
##etid
##lur
##tindex
##uff
##wallpolicy
changestate
connectionstrings
damagetype
executemethod
executescript
filtertype
mixed
querytype
tfactor
tan
unload
basevalue
connectionmonitorname
inputfilepath
playlist
##aimref
##datastore
##far
##objective
##parsers
##policyrequest
##presentation
##syntaxtree
##withoutextension
##iteexception
##pmessage
addoptions
allowusertodeleterows
collider2d
getrequeststream
inspectorclient
movenextasync
organizer
preparecommand
spinwait
currentpos
discovery
existinginstance
maxindex
newstatus
pelement
resourceversion
##apiversion
##authenticator
##claimtypes
##locationid
##objectcollection
##starts
##terminal
##verbosity
##eccion
##esponse
##ilar
##inality
applicationuser
executescalarasync
getversion
inventoryitembase
lastwritetime
negate
selectedindices
synckey
textformatflags
actionhandler
fname
layerdepth
paramtypes
spot
totalsize
##clockwise
##filecontent
##fileurl
##intoview
##peptides
##persistent
##prim
##serverid
##slide
##subtree
##textfile
##alty
##lla
##ogger
##oin
##zing
addmilliseconds
capturerequirementifisinstanceoftype
ilog
invokecommandcore
errorlist
messagetext
solutionfile
textinfo
##bordercolor
##chk
##filereader
##modal
##privateendpointconnection
##ruledata
##ait
##anizer
##erated
##inition
##nemies
##ora
createsubkey
dependencydetail
itransaction
lastupdated
resourcefiltercollection
resourcelistoperations
substringfilter
btnconnect
eventtraceactivity
heads
imagewidth
optionobject
responds
rowsperbatch
savepath
sceneobject
splitter
##article
##auto
##dragging
##interfacetype
##mvc
##numericupdown
##rulecollection
##scalefactor
##scoped
##userresponse
##xmlstring
##bly
##corlib
##lls
callerlinenumber
ensureinitialized
inflate
launchactivatedeventargs
selectlistitem
sqlexception
tstep
tickcount
newelement
serviceprocessinstaller1
sibling
typeref
##audit
##breaks
##dependent
##dpi
##equality
##listname
##nullorempty
##portal
##securityentry
##streamrequest
##study
##ei
##iling
##ionid
##ourth
##parsedresourcename
##ult
##urname
accessibility
calendarcollectionid
excludefromcodecoverage
platformid
south
throwhelperargumentnull
feedurl
formdata
mockitem
newpassword
pathsid
printer
serviceuri
skipped
##advance
##aslist
##baseline
##cors
##ffff
##inforesponsemessagetype
##lifetimescope
##marshal
##recttransform
##reportbuilder
##timeline
##vc
##ingexpression
##scache
##tack
##tall
acos
commitasync
getview
pointereventdata
propertyvalues
ropresult
subresponsedata
validationerrors
clienttype
contactid
destinationindex
frameindex
outputfilepath
panelmain
searchquery
##caller
##feeds
##int16
##methodasync
##prefabs
##privilege
##radio
##testrun
##tosign
##tracked
##nap
##scription
##ularity
##yqualifiedname
addaction
buttonbase
displayvalues
parseexpression
readasasync
requestresult
subrequesttype
tclass
tvalueedgewhere
tvaluehyperedgewhere
tvaluemultiedgewhere
tvaluevertexwhere
tagtype
backupname
colliders
combo
fromdate
grouping
messagebuilder
passedargs
processors
searchresults
##cid
##messageeventargs
##recordid
##skipped
##syncrequest
##toreplace
##cho
##edstate
##hen
0xffff
alter
docking
dynamicmethod
entitylist
httpmessage
trs
traciresponse
cameradata
centerx
dia
endpointid
newy
recurring
tcpsocketinfo
tmax
##acc
##connectioninfo
##errorhandler
##implemented
##mm
##nodeindex
##operationtype
##robot
##roleasync
##scaled
##serviceexception
##sounds
##subspace
##tolive
##userrequest
##aft
##cover
##harp
##hood
##ingcollection
##ived
##lot
##night
##pngateway
##quire
##rexpression
##tos
createobject
globalconfig
isfailure
mathutils
schemashape
userprofile
corresponding
eventpayload
losing
minlength
overrides
##converted
##fromresource
##groupclientdiagnostics
##allery
##ancy
##eam
##edposition
##mplitude
##ordionitem
celltype
createplaceholder
cryptographicexception
epi
htmlstring
icheck
instancerange
mainmenu
platforms
switchtomainthreadasync
testutils
byteindex
failcallback
ignite
label6
sourcedirectory
##abort
##clientexception
##countasync
##facility
##imageresource
##observation
##offile
##productid
##startpoint
##auge
##ign
##oo
##tat
##vation
##very
iquery
messagelevel
millisecond
smart
storageexception
writearrayend
bindable
fileindex
propertygrid
timeline
##arraytype
##automaton
##buttonclicked
##fromelement
##globalsection
##hyperlink
##keypath
##lifetimemanager
##minor
##recurrence
##aves
##aze
##cos
##olding
##rchant
##sure
##uantizer
callvirt
clientinstance
codepage
deserializeasync
isgenerictypedefinition
observableforproperty
status403forbidden
streetaddress
syncagent
tokenresponse
trackevent
contextid
going
rval
seen
sqlclient
tar
##collisions
##credits
##hexstring
##itembase
##mutable
##nel
##sr
##serializationoptions
##tabitem
##textview
##acle
##ba
##ere
##erived
##nc
##ommat2d
##rg
##uler
adaptivecard
anything
browse
getassembly
getbyidasync
getcontext
iscanceled
isemptyelement
uimanager
writelineasync
writestartobject
cap
fontname
gap
node1
pollrequest
schedule1
xdoc
##0f
##await
##coverage
##css
##eval
##exact
##extensionclient
##fade
##postrequest
##scenepresence
##sourcefile
##stmt
##thisframe
##cene
##clusion
##gment
##hronously
##otel
addfirst
buildresult
cloudblockblob
expressionsyntax
sqlbulkcopyoptions
tsuccess
usingconfigurationvalues
animations
batchid
datetimepicker1
destinationfolder
evnt
firstindex
objcmd
penalty
radiobutton1
textlength
##abortexception
##ascending
##cicommandhelper
##greater
##movie
##operationstatus
##totals
##writeline
##ause
##dnode
##dvalues
##losion
##pse
##rast
##rth
##ullrequest
checkaccess
edmfunction
fonts
mudstring
magenta
nativearray
openconnection
opensession
parseexact
readint64
reduce
runworkercompleted
t16
codepageend
codepagestart
dirinfo
entityinstance
functionurl
games
keybytes
linecount
list1
moves
namevalue
population
redirecturl
serializedjson
##attached
##attributetype
##disks
##eye
##hud
##listtype
##mouseposition
##neighbor
##onmainthread
##responsedata
##serializationexception
##streamwriter
##toolstripbutton
##waypoint
##writersettings
##dcontext
##gr
##hone
##iscalyear
##ketch
##ubkey
basedata
freeze
getnext
innerhtml
isstring
logverbose
playerstate
processmessage
rootweb
saveasync
syncstore
writeint
coadaptservice
codepagetitle
currentstep
encrypteddata
guildid
hasher
viewtype
##accountnumber
##affinity
##compatibility
##death
##exponent
##layermap
##measurements
##methodcall
##verbs
##av
##essage
##fect
##kt
##ourier
##ytes
adaptivetextblock
merchantid
objectinstance
commonheaders
grpccore
indicate
live
messagehandler
pctrl
taskengine
tmin
uniquename
vol
##applicationbuilder
##bedeleted
##configrequest
##databases
##firstchild
##keypress
##label2
##ofpoints
##useraccount
##within
##zeros
##chool
##dinclude
##endees
business
defaulttargets
defaultview
nativemethodsshared
throwsexception
validateantiforgerytoken
writeuint32
elementcount
groupbox1this
know
pagecount
returnlist
##adicionar
##browse
##filtertype
##lineposition
##logevent
##mapentry
##nodelist
##postasync
##resourcepath
##reversed
##sdks
##storageaccount
##arse
##edevent
##erstate
##ingmethod
##moji
##ody
##qlquery
##rmode
##rinsics
##rp
##ulse
activated
addservice
executedevtoolsmethodasync
getcell
isabsoluteuri
matrixtransposestate
messagetarget
mvc
paramguard
terrainpatch
unrealtargetplatform
writearraystart
additionalbehaviors
contour
descriptions
exactly
farmerid
originalvalue
ospid
relativeuri
tris
unicodegaps
verifier
##assigned
##codetype
##computer
##exitcode
##filled
##gravity
##matrices
##postalcode
##sep
##singleitem
##stores
##tabstop
##tocache
##errupt
##ingstatus
##isk
##lit
##rap
##unds
0x00000000
begindate
citycode
constvalues
getdisplayname
gotostate
integration
spriterenderer
testexpression
unrecognized
accountnumber
btnstop
checkedlistbox1
dividend
entered
imagebytes
odataquery
phrase
scalex
statustext
vec3f
##activatordata
##album
##bundles
##byuser
##composite
##embed
##fish
##objectdata
##queryparameter
##routedeventargs
##stateexception
##tableasync
##valuename
##viewtype
##workbook
##dfile
##ission
##land
##stitution
codecharts
codecodingsystem
coredispatcherpriority
currentscope
editorif
fileversion
insertrange
loglevels
nome
pathstring
selectall
branding
communication
disposables
exceeds
scheduleid
soldier
thequery
triggername
##activityid
##chapter
##control2
##gender
##parameterset
##places
##readlock
##runspace
##sku
##tournament
##value2
##withirestresponse
##ected
##lugin
##ses
##ython
apiconnection
directoryexists
exporttemplateplaceholder
gamelocation
getbypath
getserviceurl
gettypename
manage
primitive
requirescanread
responseformat
serializetobytelist
stackpanel
tinstancesource
timeunit
topointer
water
attacker
centery
deleterecords
denom
extensionname
eye
oldstate
own
targeturl
unmarshalledobject
##ahead
##authenticated
##below
##buttonstate
##col1
##documentid
##filecontents
##orid
##peek
##resourcesclientdiagnostics
##searchresponse
##servicecollection
##toserver
##typedictionary
##waiter
##ang
##ario
##ention
##eral
##ern
##fied
##mes
##nate
##ocial
##yperlink
binaryprimitives
bodypreference
ensembledata
hostingenvironment
httpmethods
inattribute
objectdata
tolocaltime
caught
coroutine
planes
qname
scaley
statuses
##aborted
##completionsource
##connectionasync
##conventionbuilder
##errormessages
##geom
##inms
##interactive
##kinds
##messagesink
##org
##postwithhttpinfo
##readers
##sitename
##withname
##abletype
##alic
##atory
##did
##erspective
##mtype
##oss
codesegmentgroup
containmenttype
createmessage
energy
getfromreader
toxml
deg
metricname
radio
sourcerectangle
##dados
##methodget
##resultasync
##richtextbox
##rootfolder
##sourcetype
##systemtype
##wallet
##xwsfold
##yield
##tainer
addnamespace
detailedresponse
entityproperty
fixed3d
focused
##accessmode
##applicationdata
##configurationasync
##failures
##guess
##hashchain
##inherited
##most
##mousestate
##nothing
##packagename
##pointcount
##projectdirectory
##rgba
##recommendation
##textblock
##writable
##each
##ens
##illa
##omap
##vs
##ymethod
automatic
buy
dtotype
enumerations
getbaseuri
getproject
gettypecode
iunion
idefector
alg
columnnumber
elt
modes
navigationpage
pagename
##datatypes
##onchange
##ornone
##spacetype
##squares
##subrequesttype
##tablenames
##ingfield
##riend
##scontext
##uzzle
clientsessionticket
downloadfile
enumvalues
filehelper
gettablename
ispressed
mysqldatareader
onenable
operationcode
progresschanged
troot
collectionrid
compatible
descendant
lengths
migration
parentview
propertykey
rad
requestparams
sends
sourceuri
tournament
windowhandle
##asarray
##audiosource
##confirm
##drawer
##keeper
##loggers
##rulebuilder
##secretasync
##sizeinbytes
##anding
##cm
##dad
##ingid
##plication
##sin
backward
fieldref
getgetmethod
gone
ierrormessageparameter
inprogress
nickname
protocols
readtoendasync
recording
selectedpath
userdomain
usermodel
bytestocopy
keyidentifier
selectable
sourceid
##3this
##dealinfo
##defaultvalues
##detailsasync
##expander
##fileid
##packs
##signals
##toend
##ascalcase
##ists
##oom
##riction
##uip
createencryptor
disposeasync
executeevents
extractsubresponse
interpolate
namespaceid
artist
automationaccount
boneindex
expectedfields
metadataname
nextstate
x64
##anomaly
##ball
##collapse
##complextype
##distances
##east
##filelocation
##leader
##neuron
##occured
##qty
##receivedeventargs
##resourcenames
##rolename
##solid
##uploaded
##usecase
##cent
##egatinghandler
##olated
##ounce
##raries
##uble
##ups
addpathresource
checkbookcontext
copyright
formaterror
formatinvariant
getjob
greaterthanorequal
htmldocument
modelproperty
notloggedin
opcresult
operationstatusresponse
rtp
readnulltermutf8
serviceeventsource
etc
hands
paramtype
slope
sock
targetnode
trackchunks
triggers
works
##backups
##databuffer
##gatewayname
##hubclient
##imported
##nil
##propertyid
##resourcemanager
##settingsasync
##toconsole
##toexecute
##uuids
##ates
##dassemblies
##dmessage
##icid
##ises
##iz
##oft
##outing
##uspend
deleterequiredrecords
exitreadlock
krypton
sanitize
texthelper
tracing
appropriate
eval
examples
handlertype
labeltext
modification
peers
postid
quarter
relations
##2b
##buildrequest
##contentloaded
##dataquery
##debuginformation
##notexist
##paren
##requestparameters
##segmentid
##aged
##alinfo
##bo
##den
##ussion
0x03
downloading
generaterandomstring
iemitter
instant
pdfname
reload
servicepath
timeseriesapifordigitalportals
toint
updatedby
crv
documenttype
meetsadapter
navigator
rowstate
succeeds
urlparams
vote
##col2
##configbuilder
##getresults
##hooks
##pathname
##protocoltype
##segmentedasync
##storagefile
##verbose
##ample
##ncing
##oldings
##oupon
##ues
##ules
##urrencies
activitytype
bytestring
documentnode
foldertype
senddata
storageuri
tsourceaggregates
traceinfo
trysetcanceled
writeendobject
cacheitemexpiration
completionsource
endline
ivariableinstanceholder
jsonbody
lead
paddedformat
writebuffer
##argumentlist
##authors
##bp
##insolution
##insights
##itemsresponse
##raycast
##valueprovider
##doll
##jacent
##mos
##sresource
##upied
##urpose
##za
broadcast
datakind
getcategories
iturncontext
initialise
instructiontype
isequalto
logservice
prepend
serviceendpoint
substitute
tresult13
throwsasync
wellknowntypes
writeint32
easy
hashbytes
newshape
newvalues
subscriptiondropped
subtitle
testevent
textbox2this
unitprovider
##ancestors
##contexttype
##grouprestclient
##hardware
##includes
##invalidproject
##policyapi
##sensitivity
##sys
##toposition
##arp
##atabase
##ened
##iment
##iss
##mber
##ogram
##olecule
##partmentstate
##roject
##ropy
##sclientdiagnostics
##sindex
toolstripbutton
transactiontype
translatetransform
virtualmachine
branches
bytevalue
displacement
entryname
graphname
occurrence
patches
portal
rects
took
##bases
##changesmessageresponse
##creating
##employmentstatus
##eventlist
##experience
##generationstrategy
##neighbours
##nullability
##part1
##projectcontents
##sut
##traits
##d1
##efined
##iding
##iving
##nite
##ricted
##uator
##vity
coordinatesystem
createuser
fromhandle
modifiedon
plotmodel
resolvedsdkreferences
stylepriority
angularvelocity
consumed
outputlength
returnnow
trainingdata
trivia
##4f
##accessexpression
##clientasync
##deleterequest
##endian
##entityasync
##gv
##inorder
##isempty
##linkasync
##modelname
##onclick
##selectall
##setindex
##ha1
##ki
##latestream
##weet
asciiencoding
argumentvalidator
bitmapsource
department
ecmps
expanderoptions
llvm
methodnames
objectquery
responseheaders
startcreateorupdate
synchronized
bufferindex
comparand
createditems
estimate
formattedtext
picker
##creationtime
##crv
##desktop
##feeditem
##integrator
##linkname
##readline
##serviceresource
##songs
##story
##textasync
##textsize
##typeconverter
##xmlnode
##ivedate
##rf
##ycle
allowdrop
buffertarget
createrequiredrecords
datahash
encodetype
entitykey
exceptionhelper
icomobject
isavailable
iscollection
objtemplate
parsearguments
saveas
testutil
vmmigration
vendor
writeexception
assignments
attrname
bytesarray
chance
dud
exceptiontype
idvalue
intermediate
projecttype
quest
weightsum
well
##blocked
##buildevent
##built
##changedeventhandler
##classlist
##connectionresource
##eventsasync
##genes
##hostentry
##imageurl
##leftbuttondown
##navigationbuilder
##orupdate
##origins
##parsestate
##part2
##sheetindex
##storeprovider
##alid
##dout
##ename
##ike
##loads
##ubernetes
##xed
adddata
applyasync
createtable
hasattribute
ios
loadscene
paging
securitypermission
asyncstate
bullet
contexts
framebuffer
rumor
scriptpath
segmentid
##charsequence
##clipplane
##container1
##favorite
##flavor
##generators
##leveldescriptor
##lowerbound
##modify
##peak
##playlist
##poses
##theta
##voice
##writers
##aker
##eb
##gent
##ni
##rcode
##ssaging
##tart
##tems
##yn
acceleration
addintegerparameter
cmdadapter
contractresolver
jump
writeverbose
boundaries
ccategory
door
fish
histogram
imagestream
immediate
itemids
loss
newcolor
newparent
oldname
outputvisualmap
serviceid
##atend
##c2
##coeff
##cont
##contour
##doesnotexist
##flownode
##merger
##moduleinfo
##objectidentifier
##ofinterest
##orig
##programs
##tourl
##topics
##translationrequest
##y2
##evice
##rait
##ssettings
##siservice
addhandler
floortoint
getlocation
datasetid
docid
factories
failures
ffmpeg
traceid
##8a
##analytics
##checkparameter
##dataexception
##entitytypes
##getmatches
##identities
##lane
##locid
##operatingsystem
##population
##profession
##readrequest
##taskresult
##transparent
##greement
##icmodel
##istries
##utor
##utton
##xis
connectionmanager
contexttype
datahelper
localize
nulllogger
propertyhelper
serviceconstants
smartreply
bsonwriter
disposedvalue
endregionif
excluded
guids
identification
lbldescription
scopename
##authenticate
##bytesread
##callbackargs
##charts
##clientbuilder
##closure
##fired
##groupresponse
##idlabels
##lockmode
##poolresource
##requesttoken
##tomodify
##toolbar
##tracelevel
##uristring
##ationid
##ilo
##lanation
##olatility
##oth
##rollment
##ster
##td
clicked
clientenabled
farmer
getstringasync
intersectsline
netstandard1
oxwscdata
online
testconfig
testflowchart
lpinput
persongroupid
playername
serviceaction
story
successor
testdirectoryroot
xform
##accesssignature
##answers
##cellvalue
##correctly
##devicetype
##eric
##eventname
##following
##hull
##inpath
##insn
##meshdata
##messagehandle
##neg
##probe
##responder
##serviceproxy
##stops
##training
##hr
##lingrate
##onnection
##rmor
##t1
##ubenamespace
##zy
addgenericparameter
commandutils
generators
geocoordinate
inspireclient
quantityvalue
sockets
activeinhierarchy
argname
authresult
connectionstringname
escaped
exceeded
extends
handling
traversal
voice
##byref
##codeasync
##controlpoint
##detectionsettings
##hashtable
##lab
##matched
##mouseup
##propertyproxy
##rom
##settingsrequest
##stringlength
##titles
##waiting
##cket
##ials
##licit
##tsize
##unicator
asinteger
bigendian
channeltype
datapointer
fontweight
fromhours
inversetransformpoint
keyid
leftbutton
nspiunbind
storagetype
tschema
uploadfile
verifythrowargumentnull
bresult
childelement
currentsource
echo
errorprovider
jsonlightresourcedeserializer
locks
manifests
origingroupname
restrictedtominimumlevel
subscriptionresource
tasklist
zonename
##bold
##changebase
##changeevent
##checkresult
##contractresolver
##denied
##directoryseparator
##equipment
##forecast
##htmlcontent
##quarter
##queryoptions
##requestheader
##tokenrequest
##vaultclient
##cname
##ening
##ience
##mator
##ributedcache
##ylinder
acquire
addif
amazonservicecallback
datetimeintervaltype
doubleanimation
drageventargs
getcontent
ioptions
isverbose
rowdata
version20
domains
engineproxy
layerindex
startcolumn
##asgenericresources
##certificatevalidationcallback
##cop
##domainpropertyid
##entropy
##onload
##operationname
##readerstate
##rebar
##schemavalidated
##selecteditem
##wsclient
##eration
##las
##redit
##sist
##uning
updateresult
##3t
##clauses
##contentalignment
##even
##grouptype
##interact
##itemspec
##periodtotal
##punctuation
##secs
##texture2d
##upported
##ailer
##alary
##rmatrix
##yze
contentpresenter
dataspace
declarelocals
fetchasync
getassetpath
ivshierarchy
imemode
localendpoint
lookat
operands
sunday
typemanager
uia
waitcursor
xna
elementlist
isreturnidentity
pdata
parm
placeholders
resultitem
subtree
versionstring
##appsettings
##cross
##meeting
##membership
##notificationrequest
##patches
##payloadsender
##reen
##readable
##strokes
##translationresponse
##bn
##cil
##hysical
##iance
##ubble
##uy
addjsonfile
codedwithnoexceptions
controllingclient
findpropertyrelative
getdouble
lessthanorequal
organizationname
passwordhash
status204nocontent
unpack
writefile
borders
filespec
hitinfo
inputschema
invoked
memberguid
outpath
synchronize
trainer
typestring
##casesensitive
##configpath
##infile
##intrinsics
##navigations
##nickname
##planedistance
##residues
##serviceurl
##synchronously
##withresult
##mote
##ponent
##uncated
##vice
upsert
featurerange
getsetmethod
hobjectmodel3d
iappbuilder
thenbydescending
updatetags
uploadfromstreamasync
visuallocalizerpane
visualstudioversion
writelogs
writetext
alltypes
buildid
certs
computedhash
configurationfileentries
copyitem
crash
curchar
currentparent
destinationfilename
domainownershipidentifiername
dotindex
entryaction
established
fieldrow
fileoffset
framesize
gethref
heldobject
instanceownerpartyid
linkconnectionname
logprefix
modulebuilder
ncacn
outbytes
parenttransform
permutation
queued
quiet
referrer
savechangesmessagerequest
selproject
singular
startcallback
theresult
##!
##"
###
##$
##%
##(
##)
##*
##,
##-
##.
##/
##:
##;
##=
##?
##@
##[
##]
##^
##_
##{
##|
##}
op
rt
lt
conj
id
200
descend
dt
##tyle
400
ok
401
pk
io
substance
db
##ymbol
403
dc
cover
##elector
questionnaireid
1f
dataflags
hr
pathstatus
fthandle
ocp
ds
policy1
waitforreply
dataspecifications
404
dbentity
##00
##32
##tates
##64
##filtermode
whole
ws
##ntid
##ads
##assignmentid
##crewild
##trategy
##ubsystem
##mentid
##uncertainty
##16
##bookid
##ecret
##egment
##assignmentexpression
##elected
##torage
##yntax
##columnid
##eparator
##ignature
##ror
##232h
##amples
##arget
##awn
##olution
##physicalobject
##assetid
##eld
##odes
##telemetrydata
##blockheight
##blueprints
##etting
##ingobject
##notificationresponse
##10
##ationtype
##ervices
##eventargsicontent
##oy
##uplicate
##vent
##accion
##angleinradians
##cargo
##cheduler
##cores
##elp
##fd
##iten
##memorysize
##objectflags
##playcount
##plex
##uccess
##valuescount
##variableinstance
##12
##ards
##arm
##bj
##casecharacters
##cture
##eractive
##erialization
##erved
##findoption
##hed
##ically
##inbounds
##onstack
##orname
##quared
##tid
##uipment
##urface
##ween
##yname
##bucketname
##coded
##domainname
##eek
##egate
##gbe
##ich
##kin
##known
##lue
##ocket
##ounds
##ources
##ownerid
##rent
##ryption
##settingsfactory
##stale
##ubstance
##umbnail
##usion
##whitelist
##xel
##xists
##11
##60
##ableadapter
##addition
##ationmode
##blanks
##c1
##chema
##cription
##elf
##fileform
##gnitude
##ialize
##icle
##ilepath
##ingitem
##keyboardstate
##kill
##mand
##mentname
##mutations
##nabled
##nitude
##offerid
##oj
##ortype
##ream
##sfield
##tarted
##triggerattr
##uffix
##uirement
##vl
##algo
##ccion
##cel
##celed
##compensation
##contractaddress
##crease
##dating
##ectory
##erences
##ervername
##etype
##ingelement
##ingparameters
##ingtime
##ipal
##itembutton
##lots
##ontract
##orary
##oto
##pecifier
##playerscount
##rowpitch
##stor
##torid
##tribute
##tsource
##tuning
##ucer
##ume
##uriitr
##urrent
##000
##20
##ades
##andvalues
##apsed
##arraysize
##asic
##ators
##can
##cha
##coder
##currentitem
##ecification
##enemies
##ettype
##hapes
##haring
##icalsurface
##icator
##icket
##ides
##ige
##ips
##lider
##manticid
##mixture
##namic
##nded
##nomial
##ommand
##operty
##perline
##roperty
##rty
##seid
##semanticid
##significantdigits
##ticid
##tics
##tnode
##treehelper
##trength
##trings
##ubscribe
##uires
##utors
##valuefactory
##verity
##yer
##35
##accessmetadatarequest
##actionname
##aks
##amble
##andenabled
##ank
##arcindex
##assuccessful
##attern
##authusername
##aving
##calendarrequest
##camindex
##clude
##cmdoptions
##configurationid
##cord
##creatordelegate
##datamanager
##divisor
##drs
##ease
##ecision
##editoruserbuildsettingsproperty
##egments
##etableadapter
##etname
##evalues
##existsasync
##exture
##f2
##ffinity
##ffoldmodel
##finite
##flowconventionsrequest
##fp
##gest
##gle
##hyperedge
##ibute
##idence
##ients
##imator
##imeout
##ined
##ingoptions
##insettings
##ism
##isposable
##istration
##itch
##keyattribute
##kname
##lated
##lyname
##modelelements
##mpty
##multiplication
##ngth
##obs
##ograms
##oll
##omnidirectional
##ondeck
##otableadapter
##oting
##pecified
##peers
##player1
##projectform
##quare
##readsheet
##requestdto
##ribute
##rror
##ryptionkey
##scape
##sharing
##stages
##stances
##tatuses
##timerserie
##tructure
##ttribute
##ubject
##uch
##uilt
##ulings
##ummaries
##updateprocesses
##updateprocessslot
##urringinvoiceform
##water
##whengraph
##wstyle
##yid
##zgc
##1f
##256
##80
##ableid
##actionids
##acy
##aining
##ales
##anager
##assetpaths
##ationmanager
##attrname
##authpassword
##ays
##batalla
##boltsx
##boltsy
##bordered
##breakpoint
##busy
##buttonorsliderscript
##caping
##chname
##ctures
##dfiles
##dns
##ean
##ecs
##ective
##eding
##eduser
##eens
##eid
##eive
##elist
##eme
##ential
##equence
##forest
##formitem
##geolocationobj
##hm
##hole
##holes
##ializable
##iations
##ictype
##ieved
##ildcard
##infovalues
##ingparty
##ique
##ires
##istrator
##iterated
##ivated
##izes
##izex
##izey
##kh
##lict
##logicalname
##luentmethodgroup
##lux
##maxduration
##measurespec
##melement
##mename
##messaging
##mple
##neighbour
##networkid
##nsions
##oadd
##ocated
##oefficient
##oices
##onname
##onversion
##opup
##otion
##ponse
##ract
##rapmode
##reater
##rimitive
##rocess
##sbyfilename
##shearratecorrected
##stants
##sumed
##swith
##teps
##toapply
##tok
##tosort
##ublish
##ubscription
##uggestions
##unitslist
##ured
##uted
##vid
##xelx
##xely
##xist
##0000
##abstractentity
##acity
##acks
##actionid
##ader
##agentname
##akey
##alkable
##alues
##ark
##arplane
##aryexpression
##ationindex
##ationtoken
##atname
##audrate
##bandwidth
##basecurrency
##bid
##bor
##canner
##cardinfo
##cenarios
##certificatename
##cheme
##cker
##cludes
##collectionview
##componentid
##corrected
##crypted
##ctors
##currencyrate
##dash
##dconnection
##desired
##dmember
##dresults
##dtypes
##eason
##eck
##edaccess
##edamount
##edfiles
##edresult
##eds
##eight
##ementation
##endcontext
##ereotype
##etup
##facts
##fieldelement
##gedin
##genericarguments
##groupcondition
##har
##hubname
##igendian
##ildcardpattern
##ilos
##ils
##inchildlevel
##inder
##ingnode
##ious
##iple
##itivity
##itness
##just
##keypressed
##ko
##kpath
##laration
##lationid
##licepitch
##literalvalue
##lobby
##lug
##mapinfo
##multiedge
##ningdate
##nly
##nodeids
##ntrecord
##ocationreport
##ocations
##och
##ompression
##ools
##oomfactor
##oomtype
##ough
##oute
##ove
##ovimiento
##owbtn
##pairstring
##parameternames
##parenthesis
##peakn
##pect
##pector
##perview
##ph
##pickedevent
##planid
##plit
##pname
##pointname
##provideraction
##ptions
##qr
##registries
##rence
##screenposition
##siblevalues
##sider
##specifications
##ssel
##stepsperepisode
##tasktimeout
##toinclude
##toinvoke
##tokencode
##torageaccountconnectionstring
##tracted
##treesize
##ttt
##tttt
##uarter
##ublished
##ublisher
##ubnetmask
##ubstances
##umps
##upperbound
##upport
##utdown
##valuelist
##vclip
##verything
##viscosity
##vms
##web3httpurl
##xelwidth
##xevent
##xture
##ypes
##yuri
##zoneid
##zure