[PAD]
[UNK]
[START]
[END]
0
1
2
3
4
5
6
7
8
9
a
b
c
d
e
f
g
h
i
j
k
l
m
n
o
p
q
r
s
t
u
v
w
x
y
z
{
}
[
]
(
)
.
,
:
;
+
-
*
/
%
&
|
^
!
~
_
&&
||
??
=>
=
==
!=
<
>
<=
>=
<<
>>
+=
-=
*=
/=
%=
&=
|=
^=
<<=
>>=
++
--
?
::
"
'
#
$
@
the
with
type
named
to
given
of
string
inputs
input
for
result
this
is
in
and
if
an
that
be
output
value
object
from
or
specified
returns
method
name
by
outputs
on
int
not
list
all
instance
data
as
will
it
file
used
new
request
when
true
are
use
stringnamed
bool
set
get
can
key
which
user
operation
gets
current
number
##s
token
optional
array
message
code
property
return
values
null
function
task
service
action
into
index
using
should
creates
at
path
response
whether
item
element
event
stream
parameter
byte
add
default
has
collection
call
func
create
false
parameters
time
system
state
one
out
called
returned
otherwise
required
only
context
text
resource
test
adds
source
update
information
##named
position
first
ienumerable
containing
point
any
node
expression
target
long
each
query
you
api
exception
entity
intnamed
command
objects
thisnamed
format
check
was
sets
field
double
buffer
other
start
group
client
provided
do
sequence
content
its
based
must
within
specifies
contents
read
no
size
execute
callback
error
database
filter
order
float
same
server
contains
results
container
support
equal
properties
image
retrieve
checks
after
application
bytes
table
specific
have
items
converts
xml
found
editor
model
elements
length
transaction
we
sender
write
identifier
json
search
url
line
attribute
##id
log
page
dictionary
delegate
azure
designer
updates
valid
account
been
does
modifythe
may
then
two
created
single
entry
options
than
version
associated
window
settings
body
class
up
added
apiresponse
remove
more
end
location
existing
connection
fields
project
where
##type
empty
uri
##request
datetime
convert
passed
document
defined
before
color
objectnamed
level
being
delete
process
necessary
register
see
status
between
change
available
address
date
##name
directory
instances
range
determines
exists
maximum
handler
access
invoked
column
map
represents
##ing
count
removes
handle
multiple
unit
http
ref
view
types
matrix
next
notnull
control
offset
row
endpoint
there
also
so
run
execution
match
session
scope
wait
reference
##d
cache
generic
already
resources
send
character
span
variable
reads
selected
mode
details
tests
stored
sql
custom
filename
component
integer
vector
case
needed
events
parent
last
hash
but
load
points
writes
##ed
about
both
full
your
files
changes
texture
part
running
store
block
device
form
messages
second
copy
argument
specify
starting
keys
changed
core
zero
over
without
unique
record
label
extension
successful
vertex
memory
retrieves
builder
guid
internal
arguments
assembly
provider
cancel
bit
tsource
thread
base
procedure
condition
policy
amount
characters
predicate
completed
template
complete
waituntil
validates
transform
indicates
metadata
find
member
packet
removed
deletes
player
until
width
requested
parse
updated
description
another
frame
public
non
calls
names
queue
tree
height
tag
receive
compare
button
apply
game
supported
encoding
web
attributes
applies
timeout
uint
expected
header
compared
generates
password
rule
calculates
operations
display
include
active
perform
supplied
previous
##data
through
boolnamed
note
network
local
their
storage
app
currently
handles
original
left
global
symbol
save
initial
relative
chart
child
framework
requests
them
config
main
generated
subject
max
models
reader
they
definition
eventargs
moid
selector
nodes
matching
executes
indicating
axis
channel
make
root
space
namespace
int32
args
because
rectangle
direction
cell
##a
limit
rpc
info
package
repository
folder
tries
post
virtual
every
interface
##info
destination
amazon
performs
tuple
release
random
async
executed
profile
deserialize
success
username
open
completes
example
edge
exist
loads
graph
connect
schema
series
void
pool
##r
sent
applied
credentials
char
vector3
headers
##to
floatnamed
minimum
##2
starts
language
some
configure
received
person
tresult
right
prefix
against
matches
calling
menu
notice
setting
##options
security
uses
generate
want
link
domain
correct
##context
build
registered
word
outnamed
thrown
per
##er
box
##the
remote
such
machine
move
segment
throws
equivalent
creating
either
area
boolean
portfolio
services
parsed
threading
host
take
invoking
##value
##1
threads
top
product
how
shape
coordinate
finds
initialized
obj
possible
select
contain
sends
slice
conversion
entries
##key
strings
graphics
allows
flow
region
##e
distance
pointer
under
methods
rows
whose
need
insert
tkey
algorithm
back
phrase
while
defaults
style
supports
provides
tvalue
card
coordinates
timespan
via
different
rotation
batch
screen
scale
serialize
including
separated
##y
converted
email
work
html
written
camera
##list
draw
makes
script
##and
enum
bound
factory
program
pass
show
report
try
mapping
doublenamed
formatted
cursor
once
standard
parses
tasks
initiates
category
encoded
flag
instead
helper
loaded
##response
##ly
attempts
determine
lists
doesn
pattern
userid
##t
controller
role
actual
entities
modified
additional
underlying
just
deleted
##index
opentracing
users
manager
sort
configured
inside
ilist
less
during
structure
poll
##in
decimal
pair
present
site
section
##path
job
runs
customer
binary
greater
down
processing
stop
registers
directly
bucket
cannot
initializes
defines
refnamed
enabled
owner
port
unsigned
render
interval
slot
dialog
identity
seconds
provide
according
fails
##es
asset
particular
validation
title
like
rules
saves
allowed
windows
components
gameobject
asserts
collections
min
signature
formats
logs
##operation
total
option
raw
takes
computes
idictionary
started
statement
short
tothe
stack
contact
mesh
initialize
ids
included
releases
gateway
##object
asyncstate
made
plane
scene
samples
grid
scopevisio
builds
sample
##model
##n
lines
sub
throw
primary
mouse
apis
cluster
correctly
selection
quantity
serializes
replace
culture
previously
##able
rest
##mode
tags
failure
overrides
complex
managed
writer
font
module
net
route
least
lambda
payload
were
children
way
contained
enumeration
resolve
snapshot
allow
filters
pixel
angle
newly
blob
chain
environment
private
##result
sum
console
runtime
world
##o
depth
invoice
##builder
following
signed
append
desired
override
resulting
serialized
errors
progress
close
needs
records
permissions
processed
incoming
step
calculate
draws
most
##eventargs
iterate
projects
returning
these
could
enumerable
replaces
timestamp
verify
##item
many
disk
our
reset
##base
filepath
none
useful
caller
pagination
enable
members
place
layer
##file
always
average
tentity
##or
copies
##message
flags
chat
peer
price
those
fill
connected
logger
click
resolution
standards
basic
period
dynamic
cached
lower
failed
appropriate
unmanaged
invalid
##is
##x
simple
invoke
solution
microsoft
certificate
searches
common
opentk
attached
times
latest
negative
side
please
convention
known
upper
what
comparer
fetch
waiting
absolute
actions
labels
columns
intptr
logging
binding
marshaller
special
why
here
operator
validate
dispose
media
setup
belongs
completion
payment
video
numbers
referenced
off
since
inserts
secret
##count
history
##action
##p
sure
around
animation
would
##of
populated
unity
origin
socket
compares
##m
logic
updating
criteria
##node
proxy
groups
markup
##if
requires
variables
configures
processes
webid
##for
contract
duration
extract
formatting
look
quaternion
rect
ulong
volume
asat
canbenull
specifying
##3
etc
static
references
param
priority
topic
wrapper
retrieved
parsing
usage
clear
ignored
verifies
##l
curve
documents
visual
logged
optionally
registry
src
shows
day
effect
pixels
##handler
beginning
creation
zone
explaining
face
scalar
identify
itself
instruction
lock
tile
icon
##c
filtering
force
clears
square
well
checked
dataset
dependency
behavior
feature
related
disposes
entire
vertices
ensure
invokes
##this
reason
trace
cases
radius
don
paths
offer
performed
endian
orders
reading
debug
typenamed
shader
done
saved
commands
enumerator
tkeyvertex
arrays
tedgelabel
trigger
identifies
alias
begin
expand
upload
assigned
shared
tidedge
comparison
constructor
##i
bot
sorted
inserted
forms
pipeline
##text
normal
rate
##manager
tidvertex
visible
certain
moves
audio
positive
uniquely
##element
mock
opens
##b
##config
serializer
bar
bounds
adding
download
geometry
pairs
##client
score
##event
##version
tkeyedge
assemblies
ensures
tvalueedge
assign
observe
trevidedge
activity
comma
displayed
platform
obtained
positions
##point
immediately
puzzle
##unit
edges
##code
##time
equals
engine
nothing
upon
layout
succeeded
##provider
maps
track
transfer
bits
##group
else
##dto
background
compute
javascript
commit
lookup
phone
getting
inclusive
loop
vector2
webidtype
center
icollection
split
##by
dst
protocol
depending
exceptions
login
sending
timer
##that
failures
plugin
encrypted
datarow
obtain
stride
classes
means
power
longer
triangle
accepted
derived
pack
plan
resets
whenever
attempt
longnamed
controls
put
real
together
begins
consumer
functions
share
##number
clicked
transition
workflow
##filter
commandtype
iqueryable
library
copied
equality
stores
preview
ray
actor
old
opengl
##ize
assertionis
closed
indices
matter
bearer
subscribes
along
edit
enables
forward
tokens
delta
effective
implements
native
auto
displays
detail
pos
room
##settings
aggregate
continue
encryption
images
instrument
external
deployment
##it
chunk
##url
compressed
handlers
int32named
later
live
nextlink
replaced
wallet
filtered
issue
##al
fail
polygon
turn
bitmap
business
cloud
hints
term
closes
trade
int64
kind
merge
soap
syntax
##et
beginasync
parts
tracking
##with
further
includes
ushort
##callback
##instance
##on
modify
occurs
represented
watch
year
##f
str
succeeds
waits
cube
states
csv
scan
##4
inner
pending
checking
export
##from
##position
factor
pre
segments
border
locations
##ion
##method
even
hex
outupt
tab
go
outgoing
sign
generation
skip
##factory
inventory
multi
bounding
executing
loading
ready
##state
blocks
conditions
devices
projection
bundle
counter
disable
encode
numeric
refresh
permission
delay
letters
built
define
grain
stops
frombody
mask
nullable
queries
##g
projectid
val
workspace
appends
backup
connections
units
sensor
building
detection
seed
symbols
analysis
bottom
considered
partial
##h
##map
conventions
drawing
monitor
published
uint32
identified
resolved
listener
matched
navigation
niwlang
auth
disposed
ignore
join
reporting
resolver
resolves
caution
corner
high
onto
pretty
words
works
summary
colors
marker
material
patch
rendering
substring
tablename
degrees
mapped
uuid
big
handling
constraint
cosmos
extracts
tables
##tate
keep
physical
receives
##ettings
drawn
help
comment
head
push
##async
##uri
able
indicate
knowing
interne
nummer
three
##as
##handle
##property
extreme
occur
still
targets
hit
invocation
now
##attribute
recursively
safe
writing
agent
canceled
cultureinfo
passing
products
front
httpcontext
regular
##entry
market
typed
feed
fully
future
opened
sdk
transforms
velocity
base64
identifiers
raises
similar
uint64
##entity
best
embedded
##container
changing
clone
import
represent
calculated
drop
individual
testing
who
wraps
##length
disposing
nested
panel
scenario
inany
measure
mod
ndarray
retry
tangible
thatdoing
##level
browser
cells
produce
usually
##srequest
fsx
holdings
renders
symbolic
##ation
##exception
##k
calendar
constant
tnamed
##address
allowing
bind
contenttype
frequency
letter
sprite
tstate
##0
addresses
relation
satisfies
overridden
partition
performance
precision
radians
yet
##token
addition
aggregates
portion
##content
exactly
looking
own
surface
tolerance
vectors
decoded
places
schedule
working
##string
##values
currency
ends
extensions
links
accounts
separator
chaining
evaluate
sources
actually
exit
management
marked
packages
sink
zip
queried
semicolons
speed
cut
due
incorrect
logical
play
worker
##ment
notes
uintnamed
aws
generator
advance
dropped
moving
raised
##format
above
alpha
describing
everything
heuristic
implemented
making
relevant
##size
assert
strip
versions
filled
installed
ranges
signal
something
##at
##command
##tring
archive
assets
association
connector
evaluates
expressions
startindex
switch
xelement
xmlreader
buttons
days
latin
outside
intended
##v
admin
parser
persistent
selects
##an
clean
describes
diagram
limits
manually
subscribe
beta
clients
fills
fixed
implement
never
parallel
capture
comments
occured
readable
shown
##end
brush
construct
##ate
tevent
typically
affected
capacity
dashboard
disabled
little
pointf
vec3f
pages
definitions
fetches
team
telegraf
uniform
holding
located
third
translation
##types
##will
cards
warning
##policy
effectiveat
linq
maybe
ordered
streams
transformed
accountid
dll
features
free
human
temporary
##flags
bearertoken
es11
overwrite
spaces
##set
css
detected
endtime
handled
master
might
reached
##view
anchor
fit
hierarchy
isn
locationid
phase
print
startup
tool
##date
directories
encrypt
finished
indexes
primitive
unless
collision
missing
oauth
osp
pressed
##field
##form
##parameter
ability
final
org
textwriter
##only
##variable
fromquery
higher
ones
profiles
deep
increment
smart
accept
argb
delivery
exchange
shift
accepts
attach
board
branch
cause
dds
evaluation
manifest
mark
normalized
reply
##z
abstract
cast
keyboard
recursive
validated
##service
again
assigns
categories
compression
entered
faces
frames
important
inattribute
purposes
scheme
##delegate
##params
closest
polynomial
too
utf
##line
clause
descriptor
enough
gallery
multiedge
populates
tpm
utc
allocated
dimensions
principal
##are
##color
##user
balance
cipher
descending
dimensional
pagesize
populate
replacement
##ies
##metadata
##query
exact
exclusive
integers
literal
locale
placed
rhs
round
unicode
advances
country
cross
leading
metric
movement
steel
strategy
##5
applicable
chained
dimension
extended
generating
##image
compatible
converter
exclude
executable
moved
us
bus
expiration
odata
prefab
##filename
##u
codes
hexadecimal
large
pushed
reverse
whole
claim
databases
direct
enter
extra
gametime
iso
month
regex
reports
taskid
ticket
##ic
across
diagnostic
emits
fragment
low
methodinfo
msg
rendered
vertical
##offset
callbackfn
combination
deal
having
opaque
threshold
##reference
book
decode
door
partner
quote
salt
triangles
below
checksum
dates
difference
focus
listing
memberinfo
patient
providing
suitable
##array
##ity
##tatus
atomically
removing
##port
autodesk
bank
digits
endpoints
padding
question
rank
##function
brevity
health
singleton
clip
compilation
coroutine
graphql
indicated
linked
prints
streamnamed
xmlnode
constants
corresponds
horizontal
subsequent
walk
##buffer
##update
candidate
catalog
constructed
diagnostics
lifetime
membership
naming
printed
sound
starttime
##8
##when
circle
injection
intptrnamed
looks
splits
vault
##option
##record
campaign
floating
holder
occurred
occurrence
orientation
passes
primitives
removal
##using
avoid
buffers
mappings
modifies
ofthe
retention
silo
triggered
##nt
##target
clientid
computed
markdown
pen
releasing
consider
explicitly
mean
temperature
applying
attachment
collider
ending
owned
providers
rep
spec
valueformat
weight
arg
channels
formula
modifier
properly
recent
recommended
recording
sequences
stat
subset
todo
toggle
wrapped
xenserver
##bytes
##error
aspect
contacts
counts
datatable
notify
resultset
several
##resource
##tion
analytics
constructs
curves
dns
fluent
jobject
remaining
stats
##condition
hold
holds
indicator
insensitive
packed
raycast
whitespace
##location
assertion
boundary
chars
duplicate
listed
reflection
##control
cancelled
combined
dir
extracted
linear
searching
##args
##reader
##source
met
my
white
cash
constraints
sync
taken
traversal
uploaded
##ized
##up
##w
calculation
cyrillic
init
metrics
prior
publish
rotate
statistics
tiles
##items
##viewmodel
converting
give
overload
sizes
struct
triggers
##ource
##status
ascii
composite
detect
hide
light
middleware
prompt
terminal
tout
utility
satisfy
scheduled
vtl
##input
cookie
evidence
freeing
onexception
resetting
station
##le
##row
##width
assignment
cancels
described
folders
guidnamed
highlight
listening
slider
annotation
assumed
levels
signing
studio
annotations
awaited
detector
inline
lusid
ordering
policies
routine
tcp
##table
ascending
assuming
digit
employee
idx
ilogger
locator
marks
meta
qualified
scaling
scroll
subspace
##ted
activities
colornamed
expense
general
gradient
performing
scripts
typename
advanced
closing
except
family
fix
keyselector
keyword
loglevel
sphere
styles
thecurrent
##ive
attrib
far
fieldname
projected
roles
smaller
sorting
tested
uploads
##typenamed
binder
canvas
dependent
evaluated
gps
hidden
pipe
recorded
rectanglef
statements
upsert
wrap
##api
##range
combines
desc
going
highest
intersect
percentage
receiving
xdoc
##all
credential
downloads
encodes
gift
hashset
instruments
mass
roll
steps
terms
timing
##helper
##st
##window
aggregated
batchsize
choose
cost
dispatch
locate
queued
realm
require
sqlcommand
substance
copying
margin
mime
party
retrieving
##cache
##te
##tree
dbcontext
issues
md5
iemitter
jobs
terminated
appear
buffered
goes
pull
ratio
resume
scheduler
tpmhandle
uint16
##order
##tream
##tyle
alignment
fileinfo
innamed
interfaces
limited
online
proper
recovery
redirect
scraper
switches
transport
##ids
##tag
appended
biginteger
install
persistence
playing
reserved
restore
unknown
##age
chatid
claims
cleanup
cover
google
indexed
inverse
layers
produces
##class
##directory
##us
blocking
caption
listen
prepares
problem
receiver
returncode
satisfied
sensitive
serial
shall
tape
teams
telemetry
##ness
appears
confirm
corporate
emit
fallback
gpu
ins
internally
ipendpoint
iterator
mail
nearest
separate
sortorder
stopped
##6
##template
adjust
backing
behaviour
combine
disposable
dynamo
emitted
gui
iterates
measurement
normally
opportunity
piece
saving
streaming
templates
tenant
won
##height
##stream
concrete
larger
maxvalue
plain
rather
resize
sticker
##en
deletion
extend
fire
friendly
groupid
guild
know
regions
regulation
replacing
reuse
##page
##part
assumes
debugging
determined
filesystem
had
hook
launch
lhs
peers
sharing
storing
##dir
anything
avatar
cart
connects
delimiter
machines
pointed
refunds
reservation
self
servers
shapes
trailing
ttype
udf
variant
##change
##ent
##ms
compiled
degree
driver
eventdata
keyed
leave
pdf
possibly
restrict
review
rgb
scaled
secure
tproperty
editing
four
paging
press
robot
##returns
##ting
meaning
merges
suffix
tracked
very
##component
##ge
adjacency
article
disables
excel
finding
however
inthe
overwritten
potentially
shutdown
thumbnail
ticks
undo
##can
##details
##pos
accordingly
associate
chargebox
chats
chosen
cst
deleting
estimate
objectid
recipient
responsible
tail
tfactor
touch
vectornav
##after
##changed
##ervice
accessible
bearbeiten
belong
clan
ctx
guest
namespaces
privacy
raise
redis
texture2d
theme
xmlelement
##body
##call
##direction
##ts
accumulator
breaks
charge
dynamodb
production
tempomap
##column
##ct
##out
##ter
##writer
activate
causes
decodes
developer
expired
formatter
hours
icomparer
league
operate
processor
submit
tip
verbose
clr
dataframe
disconnect
dot
equation
restart
safely
sortby
systems
tensor
thickness
##document
##func
##ref
clusters
commits
delimited
doing
encountered
faster
fired
hyperedge
queues
regardless
requirement
rotates
scores
sorts
stage
terrain
trying
value1
##ar
##filepath
##json
##prefix
accessed
audit
enumerated
follow
forces
hostname
immediate
minutes
paginated
particle
payments
solid
##password
arbitrary
bulk
clockwise
completely
divide
enumerate
prepare
profilename
renderer
responses
structures
textures
##elements
##kind
##max
##wrapper
binds
destroy
merchant
refund
respond
simply
symmetric
urinamed
visibility
xmlwriter
##auth
##block
##endpoint
##hash
##ise
##limit
##link
##objects
arc
arg1
bad
cleans
clicks
design
dest
did
ftp
git
prevent
randomly
synchronous
turns
unix
various
##9
blank
declaration
defining
doc
excluded
held
ilocal
invoices
players
trades
##enum
epoch
flush
followed
listeners
money
pop
publisher
servicetype
small
viewmodel
##ata
attempting
axes
circular
compile
convenience
credit
imports
near
notifies
persist
persisted
picture
puts
reject
rfc
rights
taking
tostring
wish
detailed
downloaded
enumerates
exports
intersects
languages
probability
secondary
shard
towards
##ex
##fields
##less
##profile
##server
ask
beam
city
configuring
cookies
decrypt
disks
easing
hub
intervals
minus
movie
newvalue
notation
pitch
pointnamed
skill
##category
##ip
adapter
chunks
comparing
computer
distinct
httpclient
inherited
instantiate
opening
timezone
translated
unchanged
##7
##ers
##folder
##ization
##log
analyzer
basis
colour
declared
enqueue
increase
issued
revision
significant
simulation
viewport
##ant
##flag
##frame
anonymous
automatic
calibration
correspond
digest
finishes
hashes
hits
hwnd
recurring
##create
authority
break
clearing
expects
facebook
modules
patches
rectangular
released
searched
seller
submits
variation
views
##box
##device
##header
##nd
##se
complex32
cycle
favorite
interaction
ipaddress
iteration
plus
pointing
preferred
presented
selecting
severity
skipped
translates
wire
##first
##queue
bin
bytenamed
cdn
endasync
enemy
entitytype
exported
hand
interpreter
messageid
methodname
much
prop
sessions
supply
targettype
tick
uid
unpack
##account
##check
##host
##output
comes
datatype
dynamically
fast
indexing
interceptor
orderby
photo
waveform
##ian
calculating
deals
earlier
encoder
encrypts
explicit
gaxgrpc
identical
increments
legend
outer
playback
posts
spawn
supporting
tmodel
unexpected
##ble
##ible
##ping
chord
connecting
destroys
dispatcher
ignores
major
methodbase
palette
parents
placement
replication
retries
value2
##button
##obj
##re
android
angular
canonical
columnname
com
foreign
home
mongodb
permanently
pie
rates
refreshes
textreader
urls
userdata
##alias
##elector
##interval
##rule
##ue
arg2
better
httprequest
interest
plot
sbyte
slicenamed
week
wide
##mask
##xml
accesstoken
batches
circuit
groupname
mobile
nextcommand
owns
pause
people
scales
texels
##amazon
##ap
##ure
##which
areas
consume
daily
discovery
heap
nodeid
overlapped
placing
pose
rating
subscriber
widget
wrapping
xaml
yaw
##extension
##rate
##tags
##use
advice
become
capability
col
customerid
delivered
drag
ellipse
hole
infinite
license
lowest
paginating
plans
prefixed
protected
recently
shares
specifier
tells
translate
turtle
voxel
##2d
##process
##ps
##ry
activation
alert
alternative
angles
customers
detects
dto
fires
indent
jsonobject
obtains
params
plugins
routing
weapon
zoom
##ance
##ating
##db
##tart
activated
correlation
firewall
geopoint2d
hmac
identifying
merged
overlay
portal
rng
schemas
semantic
shifts
tempo
treated
watcher
affect
aligned
await
becomes
consecutive
digital
displaying
edits
endianness
escape
expectation
express
histogram
messagetype
mvc
oldest
pagenumber
paramname
prices
sheet
subimage
training
xms
##ally
##results
##root
##ual
##val
adjacent
ast
broadcast
clicking
cloned
finish
gives
hashed
idatareader
joined
loops
minvalue
observable
personal
potential
produced
relations
respect
trading
uint32named
validator
##cope
acknowledge
acquire
adjusts
anzeigen
blend
conditional
depends
envelope
expressed
falken
fee
grouped
likely
mandatory
measured
ttarget
weights
##files
##report
##resolver
##rs
##style
asp
bone
dedicated
documentid
draft
eye
foreground
icomparable
implicit
itemid
minute
ndarray1
percent
pname
respective
secrets
stock
things
toggles
transfers
valued
##has
authorized
bindings
composed
compound
counters
decorated
elasticache
exceed
geopoint
inherit
localized
locked
purpose
resides
sha
snapshots
statuses
telement
throwing
valuetask
##bar
##headers
##io
abort
biometric
bucketname
callbacks
candle
combo
dashboardid
dispute
effects
follows
initializer
legal
let
middle
offername
overlap
pin
primcount
reload
resultcode
ruletree
sharepoint
shortcut
social
stamp
swap
textbox
visitor
wants
xpath
##ates
##channel
##interface
##names
##one
attaches
confirmed
decrypted
descendant
gesture
historical
past
propagate
rectangles
rename
saga
sales
sites
submitted
temp
wrong
##os
##task
##ve
blueprint
cds
consumed
employees
env
guaranteed
joins
lla
modelflowid
nsobject
objecttype
plaintext
recipe
retrieval
rigid
scans
shadow
steam
succeed
transitions
trees
tstep
wall
##be
##ial
##test
author
awaitable
bag
buffersize
collected
drops
duplicates
embed
grouping
inbound
initially
invoker
joint
nth
observer
operand
operating
patterns
querystring
red
refer
schedules
setter
telegrafid
tkeynamed
transparent
visit
##char
##ified
##used
aliases
bucketid
datasource
decoding
del
destroyed
inject
invite
lyrics
ports
privileges
showing
submission
therefore
wonka
##factor
##ised
##selector
##transform
arg3
buy
catch
checkpoint
cleared
desktop
doubles
drone
ecef
fourth
happens
hot
injected
legacy
locally
metadatakey
multiply
omitted
ptr
reduction
supplies
voice
##back
##ities
##match
##min
contracts
damage
decrypts
edited
enqueues
exclusion
fashion
flux
hour
ignoring
insertion
interpreted
labelid
mutation
png
quad
reduce
ruleset
##arguments
##events
##listener
##num
##ype
alive
billing
caching
consisting
durability
fetched
few
ftd2xx
hashtable
lazy
leaving
macro
mat
orderid
others
owners
purchase
quality
reward
seek
shell
shipment
sqlite
subscribed
unsubscribe
##grid
##per
##start
##where
authorize
backed
bug
cmd
coupon
deprecated
disconnects
expanded
feedback
getter
glyph
hosting
imessage
largest
lifecycle
loader
maxcount
modes
orgid
pawn
played
positioned
recipients
requesting
skips
subtract
taccumulate
validity
verb
##connect
##generator
##ist
##ns
##right
##word
allownull
assignments
caused
dict
etag
expands
finally
foundation
fraud
green
invariant
magnitude
mipmap
modal
mods
nonce
scenes
sku
slug
snap
spawns
tproducer
##ce
##dialog
##graph
##ine
##int
##into
##its
##note
##red
##vector
##you
ahead
allnamed
asc
audience
caret
describe
drawer
granted
happen
ping
sid
subtree
tfield
utf8
webhook
website
wildcard
##algorithm
##behavior
##def
##ir
##label
##me
##null
achievement
adaptid
adjustments
backend
challenge
concurrent
coord
discover
dump
int16
jtoken
newest
ownership
projectile
rfsg
rounded
song
startdate
thegiven
titem
willbe
xmldocument
##access
##area
##guid
accuracy
apiversion
backups
bigger
cold
criterion
deviation
drive
endstring
excluding
ext
guide
htmlhelper
jid
me
msbuild
num
persistto
pick
plays
requesturi
timed
verse
weather
yield
##ary
##based
##case
##izing
##ll
##mapping
##points
##space
1auth
acquired
captured
diff
eeprom
estimated
examine
farmer
good
got
inspector
keeps
longitude
minimal
overriding
pane
pricing
props
returnvalue
rigidbody
signals
ssh
trans
txt
unused
whatever
winbio
yes
##amount
##datanamed
##do
##no
##parent
##ty
##um
activates
aprs
associates
bitwise
black
compiler
consensus
cpu
enrolleeid
fact
games
independent
multiplies
pet
reach
replicateto
sampling
settlement
spans
startstring
statuscode
strongly
ttl
tuples
visited
##ated
##day
##ding
##ical
##keys
##pec
##project
##return
accountname
answer
attack
consumers
datapoint
directions
edgefilter
enrollee
escaped
existence
fitting
fromroute
hard
helps
hint
imu
inspect
instanceid
internet
issuer
java
mac
mechanism
newline
partially
ram
redeemed
spacing
spritebatch
tenum
tmessage
vessel
##ay
##before
##ch
##player
##predicate
accessor
allocates
ambient
analyze
blocked
burst
coerces
company
compliance
discovered
dom
fetching
half
item1
leaves
logevent
lost
manage
paged
preceding
promise
protection
quick
recursion
sha256
tagged
tell
tracker
truncated
verbosity
##face
##ged
##pool
##we
##weight
arrow
baseline
boundingbox
cellid
clones
customize
domainname
dropdown
eventid
flows
garbage
generally
hresult
intent
music
pay
planes
popup
repeated
stammdaten
truefalse
unregister
##editor
##language
##ling
##net
##un
##vm
appointment
automation
awake
away
ball
belonging
casing
changebase
clipboard
clock
consistent
decorator
deviceid
expect
expr
jscontext
libraries
listview
loyalty
manual
multiplier
nethereum
programs
propagates
pushes
quotes
rsa
scopes
stated
telem
terminate
ulongnamed
yyyy
##accessor
##est
##ger
##infonamed
##ot
##ring
##session
acceptable
ancestor
bots
care
come
containers
deck
decorate
descendants
dice
examples
ieee
imagesize
increases
kernel
magnetic
openid
outposts
packets
pdu
portable
positional
publishes
registering
resized
sessionid
startpoint
uuidnamed
##act
##assembly
##converter
##layer
##messages
##nce
##rect
##role
##specified
##timeout
##uid
##userid
caches
classname
commandtext
compaction
debitor
iexpression
inheritance
iterations
kept
lexmodelsv2
namestring
navigate
noise
paint
placeholder
producer
programming
prototype
pure
recipeid
rooms
routes
servername
subclass
tright
union
vrtk
##any
##erver
##ia
##ification
##im
##paths
atom
buff
choice
easy
enddate
fade
favorites
hardware
hyperbolic
ibm
intercept
logarithm
numerical
oneach
physics
plate
reasons
refs
requestid
slots
suspended
testcase
tooltip
uppercase
visits
wether
##equest
##load
##progress
##th
ack
andthe
answers
asks
backward
cas
cashflows
chords
consists
consuming
derive
dpi
emoji
foreach
formed
gas
hashing
idempotent
joints
lease
lowercase
office
optimal
publickey
repo
slices
smallest
student
stylesheet
tinput
underscores
unlock
verified
##ame
##envelope
##infodto
##izes
##member
##otherwise
##payload
##q
##read
##scope
allocate
allocation
checkout
competing
critical
english
filenames
his
idisposable
ifthe
inactive
initiate
locker
locks
manner
mapper
matrices
notified
periods
probably
processid
signaled
sizef
supergroup
upgrade
vtlparser
xdocument
##entries
##namespace
##pair
##pattern
##tor
adjustment
ads
aka
assume
backwards
blockchain
boxes
charging
checkbox
division
early
flight
foo
forwards
holes
influxdb
migration
nonzero
ofdm
outstanding
passphrase
perpage
restores
robin
rounds
rowkey
snippet
subscribers
t10
tobject
tools
validatable
vds
##ability
##ave
##bus
##contains
##domain
##formatter
##groupname
##ifies
##ile
##ke
##off
##ped
##region
##rt
##rules
##search
approximate
arm
captures
charnamed
coin
collisions
computation
exchanges
fake
heading
https
icontent
ifis
isolated
latitude
maxlength
mixture
moment
occurrences
opposite
paused
ppdu
randomized
repeat
sale
scoped
slash
treeview
troot
twhere
vector4
workbook
##axis
##ide
##ite
##ments
##ng
##tore
act
barcode
clipping
committed
confirms
creator
debugger
decide
deployed
dequeue
elapsed
expire
fits
float3
gamemode
idtypecode
idtypescope
interactor
jsonnode
jump
localizer
monster
newer
offline
pad
pid
quads
rectnamed
reported
swagger
tracer
twice
yields
##found
##gateway
##ime
##ode
##pan
##registry
##texture
##tr
begintime
broker
chartarea
ciphertext
concurrency
conn
deadline
decrements
detached
divisor
easily
floor
frees
fromthe
ignorecase
imported
itemtype
meshes
mysql
navigator
overlapping
overwrites
peak
prevents
productid
recognized
registries
reminder
season
sketch
squared
t1named
tabs
tdlib
throttle
tid
trim
unregisters
##actions
##email
##engine
##ess
##getter
##ld
##methods
##ml
##new
##ning
##ptr
##script
##snamed
##title
##volume
alpaca
buf
carrier
cleaned
combobox
dash
def
divides
established
forthe
fov
hart
heartbeat
hyperedges
ienumerator
ini
intensity
journal
jwt
octet
offsets
ordinal
ospid
phonenumber
pod
polling
presence
refreshed
remarks
rotated
sequential
signatures
ssl
though
timestamps
trend
usedefault
withthe
##am
##amed
##does
##groups
##ions
##lines
##loader
##module
##nodes
##ur
accessing
alarm
approved
aren
arg4
balancer
bitvector
bivariate
colliders
compress
convex
deploy
edgeid
fieldinfo
grab
jsvalue
kill
kvmpolicy
launches
layermask
midi
minimizes
multiedges
nat
niwlan
nor
padded
pivot
promotion
react
reflect
relying
roots
scenarios
serves
smtppolicy
snmppolicy
solpolicy
spline
startfrom
telegram
texel
texts
timecard
treturn
tvertex
uielement
userfields
vision
warnings
##basenamed
##board
##mapper
##ne
##ned
##op
##ss
##username
##utc
algorithms
arn
chance
countrycode
deposit
distributed
fifth
geofence
he
httpmethod
indirect
item2
lead
learning
lsn
measures
minimumd
msdeploy
operands
paired
peering
pkm
profession
seen
simulate
siteid
sockets
staking
suggestions
tangent
terminates
terminating
tkey2
treenode
win
##available
##byte
##catalog
##edge
##el
##ify
##strategy
acl
aes
age
arcore
blue
boundaries
calendars
customdata
decryption
discount
dock
enters
exe
exits
explorer
fromheader
gltf
ground
iresponds
len
mastercard
modifying
monad
namefilter
nms
occupied
older
presses
reaches
reaction
resourceuri
servicekey
servicename
ship
shuts
sine
subnet
switched
thevalue
toolkit
vector3d
xyz
##datatype
##ging
##left
##lot
##resources
##schema
##then
##threshold
appdomain
biospolicy
brain
centre
charts
componentid
diagonal
directive
dirty
eth
eventname
explosion
flushes
folderid
gizmo
mine
modifiers
onmessage
planet
playlist
prompts
python
ris
sha1
shallow
sshpolicy
strict
ta1
tfirst
tkey1
treturntype
tsecond
tuplewriter
vpe
wasn
##ase
##cell
##ction
##ds
##ection
##ession
##feature
##have
##icon
##ient
##override
##plane
##ration
##ta
##tive
##ut
accumulated
ace
animal
animate
compartment
dummy
exponent
filetype
firstname
flip
floats
goal
inputstream
integral
itimespan
iwebelement
leaderboard
leaf
lets
life
listbox
lobby
marshalas
mediatype
meters
modid
operando
picker
pred
premium
redemption
referred
router
serviceid
serviceimpl
svn
tint
unhandled
viewbase
##ck
##de
##distance
##ets
##ish
##izer
##ous
##pace
##runtime
##spec
##sresponse
##store
adjusted
animations
attachments
cachekey
collects
compiles
con
couchbase
crop
demo
determining
downloading
ethereum
eventually
fan
flat
forbidden
forwarded
gateways
hosts
immutable
invitation
ipconfig
lastname
lean
marketplace
matcher
messaging
ndarray2
outline
pageindex
peek
pixelformat
prepared
questions
readonly
routed
sandbox
sections
sms
subsystem
super
suspend
today
tracks
validating
weighted
whitelist
yaml
##asset
##batch
##card
##core
##flow
##il
##over
##parser
##true
aad
bitstring
blog
decides
delegates
deltatime
denied
dispatches
disposal
escapes
extraction
failing
fullscreen
geo
globally
grant
increasing
indarray
inputmodel
insights
markers
often
outbound
poco
printing
receipt
remainder
roi
rtf
shards
skpoint
targeted
tin
topics
train
tservice
vendor
wheel
##3d
##binding
##camera
##cion
##cript
##each
##ice
##ie
##ied
##ks
##logger
##matrix
##modenamed
##owner
##processor
##qospolicy
##renderer
##treenode
##ui
actionid
actionnamed
among
anomaly
apps
artifacts
backslash
boot
chains
cil
datastore
department
differences
discussion
fft
forecast
grpc
guids
injects
interior
invisible
lens
loss
merging
migrate
notebook
offers
onthe
remains
resizes
scanned
sector
serilog
signs
similarity
soon
sso
sts
subtracts
t11
thus
uncertainty
usages
zeros
##activity
##actor
##added
##changes
##detail
##ence
##ignature
##schedule
##ular
##ymbol
acquires
aggregation
ansi
arg5
candlestick
codenamed
course
dead
depend
entitiy
expires
exposed
hasn
hides
icontainer
inclusivity
interested
minor
pcr
pops
predefined
referencing
reg
rich
screenshot
spawned
stencil
ta2
timeframe
transient
trie
trims
tween
uvs
##ask
##database
##down
##ect
##encoding
##false
##iate
##identity
##menu
##nodenamed
##priority
##setting
##trigger
##within
agreement
appid
arraylist
bezier
bridge
canceling
centered
coefficient
contactid
cosine
crc
discarded
efficient
exclusivity
github
graphs
hl7
iam
installs
launched
logentry
lustre
mutates
overwriting
persons
policy1
policy2
population
recalculate
rgba
ruleid
sas
semantics
shipping
skin
soft
solve
stable
tombstone
transpose
trueis
usable
ushortnamed
war
##behaviour
##bits
##bucket
##clause
##default
##depth
##der
##must
##person
##so
##storage
##va
##valued
##write
align
assignable
bandwidth
bindingmode
bodies
bounded
bson
candles
channelname
charged
chargify
cmdlet
concatenate
contextual
correlating
devops
figure
fold
gender
gradle
hooks
hybrid
ina
incremental
infos
initiated
instant
involved
keyname
keywords
lang
linkto
multisig
natural
navigates
ndarrays
nuget
php
pinned
pipelines
plug
preferences
queryfield
remain
runner
strong
sums
suppressed
t2named
tap
templateid
traces
traverses
udp
uris
vec
volumes
waveforms
went
xname
##ator
##backup
##created
##ext
##get
##hould
##not
##required
##topic
##ule
##updated
##ward
banner
brightness
buckets
bundles
decrement
descriptors
docs
dotnet
elastic
energy
exif
expiry
fewer
gameobjects
gather
gravatar
htmlnode
incomplete
inputted
inserting
meets
meter
newindex
normalize
notnullwhen
optimized
pointers
posted
publication
radio
raster
really
recall
recover
redirects
rel
replies
restored
revit
scrolls
sns
sortfield
sparse
targethost
thing
till
umbraco
vanilla
vpn
##angle
##ber
##bot
##but
##calendar
##display
##eventtype
##indicates
##j
##network
##other
##sing
##statement
##symbol
##tch
##toadd
##vertices
##was
analyzes
approach
attributeid
banned
broadcasts
camel
compareto
conflicts
cycles
enabling
enqueued
euler
exposes
finite
geolocation
grating
grow
hashcode
hdc
initialise
lat
lazily
meant
meet
mft
neighbors
para
pauses
posting
prim
printer
querying
referrer
reloads
requesturl
resolving
resourceid
shortest
swaps
syntaxnode
tagname
textual
theclass
theta
throughput
triple
valuetype
whom
win32
wise
##alignment
##children
##contact
##delete
##font
##itive
##mass
##packet
##param
##radius
##ro
##send
##system
##until
##ute
##variables
##ze
assessment
beatmap
branches
capturing
coins
consumes
controlling
detach
dialect
dwflags
enemies
exceeded
fatal
folds
fraction
funds
genre
grabbed
graintype
hbase
icons
ilgenerator
itable
iterating
ldap
lengths
months
ndarray3
nirfsg
parentid
persists
polygons
polyline
preset
proposed
queryable
reused
scanning
sci
sentences
serve
shoot
simplified
speech
sprocname
stopping
sudoku
supergroups
terminator
texto
tlimit
tpixel
tracing
websocket
##build
##character
##chars
##completed
##current
##errors
##eventdata
##her
##instances
##may
##members
##period
##should
##than
##tracker
##ust
##ver
##zone
aas
adapt
ancestors
apple
billable
carry
collect
collector
conjunction
consistency
controlled
cylinder
datacontext
dbtype
delimiters
displayname
distances
dots
ever
exponential
externally
federation
filling
fractional
img
materials
math
mnemonic
modulus
normals
opacity
openapi
operators
pulls
reverses
runid
scoring
sec
sitemap
sized
solids
spatial
subkey
subquery
subtraction
suggestion
summarizes
targ
tleft
toolbar
traverse
welcome
##ac
##ample
##bit
##capacity
##child
##contents
##duration
##ihi
##inclusive
##len
##locations
##machine
##package
##product
##program
##public
##ql
##rotation
##snapshot
##ult
addr
arr
asking
atomic
basedata
browse
budget
capable
coming
decision
declares
declaring
detaches
efficiently
elasticube
experience
extent
firmware
flattens
fluid
harmony
hosted
incremented
initialises
integration
interact
invertex
ios
ipv4
joystick
manages
onwards
outvertex
overall
overriden
participant
partitioned
positionin
problems
publishing
pushconfig
quickly
quota
recommend
replay
reporter
reside
revokes
scrolling
secretname
shopping
shut
sophoslabs
sought
stages
teamwork
tinner
tinstance
turncontext
vectornamed
weak
xor
##binder
##bs
##cent
##classes
##delay
##fieldname
##filters
##ful
##here
##ics
##oid
##pi
##provided
##received
##services
##shape
##ture
##way
a2b
aligns
allocator
ban
behalf
behaviors
benchmark
casted
catalogitem
charges
codec
commandline
coroutines
countries
difficulty
discord
dumps
elementid
ephemeral
fall
flatten
foldername
fourier
gameid
gamma
guarantee
httpcommand
idatarecord
identities
idestudio
imagen
inputvalues
inspected
mirrored
monitors
motor
mutations
npc
paper
permitted
pointwise
preference
privatekey
radix
readflags
regarding
renames
repetition
sell
sixth
slave
spanner
spot
stays
stuff
synced
t12
tableclient
temporal
tinterface
tls
traffic
tresponse
uniqueness
unsafe
usingand
vec3
vec3d
wanted
xoffset
years
##bject
##codetype
##cs
##ctor
##ded
##existing
##framework
##fs
##ifier
##itemnamed
##manifest
##move
##oc
##ol
##ount
##ow
##ra
##ress
##term
##thread
##tile
##ud
##ul
##ung
##vertex
1x1
allgemeine
appending
arg7
blobs
blur
booking
bookmark
breadth
bythe
callers
claimed
clamped
completing
crash
creature
crud
cumulative
designed
effectively
endpointid
ensuring
establish
existent
expenses
feeds
finalizer
forget
highlighted
href
inequality
invalidate
iobservable
jsx
keeping
mocked
monitoring
mono
newname
nombre
obscured
obsolete
obtaining
onsuccess
opcode
operandos
patientid
perspective
plantuml
postings
projektteam
purge
recreated
regulator
req
restricted
ring
roleid
sagas
searchterm
species
spname
spreadsheet
star
substrings
tax
theand
tidentity
trackchunk
tspoc
tsql
understand
vms
workshop
writable
##ack
##ad
##app
##being
##cing
##commit
##copy
##creates
##currency
##defined
##equence
##ff
##generated
##iation
##ined
##ises
##ium
##late
##nding
##nse
##om
##ors
##proxy
##random
##ses
##sets
##tack
##top
##trategy
##viewer
acts
affects
analyzed
beyond
biosunit
bsonreader
cert
clamp
cli
compliant
compresses
corners
covers
denominator
density
derives
dev
divided
easier
elem
enums
exceeds
exclusions
fault
fish
franchise
iamazons3
idbcommand
imgui
lex
linking
logon
masked
masstransit
medicare
msal
nice
ongoing
opts
orbit
originally
periodic
preserve
pseudo
quaternions
ratings
registrykey
resumes
sense
skus
sometimes
specialized
teamid
themethod
typeof
una
unlike
uploading
usedto
xuri
##acion
##ag
##ain
##between
##book
##bound
##complete
##criteria
##etting
##he
##init
##ler
##onerror
##pad
##req
##ric
##run
##tablename
##tablerows
##ving
##ware
##ystem
acpi
alter
altered
alternate
apns
asin
blending
bmp
brackets
broken
bsonvalue
ca1021
cameras
capitalized
clamps
closure
combining
compose
composition
contexts
createmodel
dataentity
decreases
delayed
elevation
ended
facing
flattened
friends
gamelet
gpustate
granularity
hue
improve
inform
initialised
interactive
invert
ion
jsonvalue
lies
monitored
motion
newpassword
ofuser
overflow
pdb
pidi
prefixes
recognize
reliable
seriesnamed
skeleton
smpp
software
spliton
statistical
successfull
surrogate
temporarily
testpackage
themselves
theproperty
timeline
trimmed
tuning
typeinfo
unityengine
widgets
##amples
##argument
##art
##ative
##capture
##chain
##contract
##days
##ef
##enabled
##hape
##hint
##led
##ls
##meta
##ner
##next
##panel
##parts
##rc
##returned
##scheme
##section
##sequence
##targets
##torage
##two
##uses
##uuid
##wait
##yntax
affinity
alg
almost
animator
apikey
appsettings
archived
arrayindex
bias
bitmask
callable
carriertype
central
channelid
consent
controllers
delim
deposits
development
dragging
earliest
elementtype
employeeid
eventtype
facts
falls
freedom
frustum
gdi
geovector
guard
guards
idle
indication
informs
inputvalue
integrity
isrequired
iwolfclient
jpeg
kontakte
listens
locates
locking
los
maintain
muscle
normalizes
packs
parentnode
partitions
passport
permvalue
picks
pools
populating
prepend
preserved
publicly
refers
retained
rulesetname
sentence
setups
sip
stickers
t3named
tender
tobe
truncate
unlocked
value3
versa
vmname
web3
webrequest
wizard
yoffset
##active
##add
##cale
##commands
##doc
##em
##entifier
##gram
##hand
##history
##ination
##istic
##kb
##layout
##lists
##mail
##nametype
##open
##origin
##pm
##tep
##tes
##timestamp
##ually
##ulation
##uth
##ys
acs
adfs
album
arg8
asthey
aware
behind
bitarray
capital
cargar
casting
casts
color4
compact
compass
contiguous
continues
cronjob
cubic
dateranges
doors
dtos
emitting
enclosing
entering
excludes
expansion
fixes
float4x4
grainid
graphic
highlights
hover
indexer
inputseries
keyid
learn
mailbox
maintenance
mimo
modeltype
ndarray4
nearby
neighbour
nodenamed
norm
operated
outcome
owning
passwords
pennamed
pieces
pointfnamed
pointindex
polls
possibility
preceded
pressing
productname
projections
protect
proto
que
reachable
rebuilds
redo
replymarkup
requestbody
resultant
resumed
sagemaker
searchquery
searchroot
shield
shorter
shrink
shuffle
sides
simulates
skipping
slow
sourcepath
sourcetype
specifed
sprites
stopwatch
strength
structs
substringof
sufficient
summing
synchronize
teleport
texception
tlabel
toutput
trevid
turned
tweens
understood
unload
unloads
unspecified
v4named
variations
view3d
viewer
##contour
##enter
##entityid
##force
##given
##html
##ically
##ific
##ign
##int32
##job
##labels
##links
##loaded
##mb
##metric
##normal
##og
##osition
##pointer
##pt
##selected
##threads
##toremove
3rd
achieved
actors
allocations
animated
annotated
anymore
aspnetcore
avi
blobname
circles
ctor
dayofweek
dbquery
dft
encounters
enforce
enumerating
essentially
establishes
extends
fileid
float64
fms
fog
forced
formulas
frequencies
gaze
impact
instructs
integrated
iot
iprogress
iscreated
jobid
keycode
linux
lparam
mdg
meanings
mixed
netapp
networks
notbe
nwidth
observed
ofas
optimistic
packedkey
parseresult
pascal
paste
photon
platforms
precedes
preserving
primarily
projectname
pub
quadratic
rebate
reduces
reflected
reloaded
rewarded
risk
rolled
scanner
scheduling
shear
shouldn
sibling
spectrum
startangle
stdcall
steelobject
storyboard
stub
subtype
sup
svg
tcontext
thestored
theswitches
trequest
twin
typical
uint256
vertically
visa
wave
wpf
##af
##ard
##assertion
##bounds
##creator
##family
##favorite
##infos
##ins
##join
##opt
##ose
##rating
##reason
##velocity
##warning
##web
##whether
##without
##your
adaptive
approval
arrive
base32
basket
bitcoin
brokerage
bytespan
caught
checkpoints
cleaning
collidable
cone
connectors
consts
contexttype
contrast
correction
createuser
crm
dbcommand
dequeues
devuelve
dicom
discard
downward
edm
efs
elapses
embeds
enterprise
errorcode
existed
exp
failover
families
five
giving
gyro
hovered
hubs
idornumber
indentation
indicators
inherits
inputfile
interprets
invalidated
iset
kubernetes
localizes
loggerroot
menucommand
mousebutton
neighbor
notifying
objectsor
observation
onerror
pageable
permanent
picturebox
postfix
propertyid
reasonably
redirecturi
repeatedly
reprsenting
restarts
rolename
rollback
separators
slope
specifiedin
stanza
streamand
strips
tabcontrol
taskname
tcpclient
tilemap
tone
topology
transmit
tstatedata
tthird
unavailable
universal
usingthe
vector2int
vice
voxels
ways
wires
##buf
##cts
##curve
##documents
##esult
##expected
##fied
##hierarchy
##ier
##ink
##izable
##light
##ma
##mesh
##msg
##na
##now
##pane
##place
##post
##price
##props
##ratio
##sink
##sql
##structure
##success
##supported
##ther
##try
##ues
##ummary
##updates
##versions
appearance
appender
assertions
asterisk
autoack
awaits
bars
basically
cellsize
concept
confidence
corrected
counted
crypto
destiny
determinant
diameter
disputeid
eight
endings
executor
fix64
forum
fuzzy
gap
hotkey
hourly
iamaccount
icommand
imageformat
indexname
invalidates
invoiceid
ioc
ipgroups
iwebdriver
jpg
lights
linetype
maidenhead
masks
menus
migrations
mosaicids
multiplied
neutral
numerics
odd
oldvalue
omit
omitting
originated
ovf
papr
parity
pif
plant
playerid
plotting
postgresql
prepended
primarykey
queuename
remember
ribbon
saturation
seventh
sex
shaders
singular
skills
spouse
stacktrace
streamer
stringand
subtitle
supposed
tex
threaded
thumbprint
tower
underscore
waited
witha
workers
xpayer
##also
##defaults
##degree
##deleted
##esponse
##export
##gene
##holder
##hub
##hz
##ication
##intent
##ition
##ject
##levels
##memory
##operator
##payment
##print
##rp
##sion
##some
##step
##todo
##tries
##trip
##usernamed
##words
abstraction
accumulate
acquisition
amounts
arg9
artifact
ass
attaching
avro
band
bbox
bold
bones
borders
causing
chinese
cropping
datareader
decoder
deny
deployments
deque
devicecodes
didn
disabling
dtls
enumtype
ethgine
fingerprint
footer
gain
grainstate
guess
httpcontent
ikernel
ingredient
inputstring
installer
intercepted
interpolate
ipackage
isused
itrace
ivs
jarray
jquery
keyproperty
lineage
logout
lon
looked
loose
magic
managers
median
micro
neither
objectname
opposed
orbitclient
pictures
planar
point2d
profit
proof
ran
randomize
reflects
replica
res
revisionid
rig
rolling
rotations
rounding
rulename
s3control
says
scriptable
separately
shuffles
sin
snake
snowflake
solves
spin
stacked
straight
subarray
subsection
substances
sumd
sysintx3
t13
tangents
tcollection
tdata
teammember
telephone
tension
theserver
tparameter
tpayload
triples
trusted
uninstall
universe
unloaded
userids
utterances
valuecannot
vehicle
vertexid
withdrawal
##ak
##anager
##center
##chema
##cy
##done
##ecret
##edges
##elected
##elegate
##empty
##ends
##entities
##eries
##folders
##idnamed
##include
##internal
##isation
##lated
##local
##modifier
##napshot
##none
##pack
##pipeline
##po
##present
##prop
##px
##rd
##res
##scale
##screen
##sh
##site
##tal
##ural
##usage
##vent
accurate
activator
andis
andreturns
anyobjectid
asyncaction
attr
axisname
books
brep
bsonwriter
buyer
buying
came
chooses
codeword
collapse
columnindex
computing
conflict
contentitem
costs
deferred
designated
dividing
dragged
echo
editable
evenly
exited
expose
ffmpeg
filtermode
fixture
flash
float3x3
formated
formdata
friend
fullpath
fund
gcm
gravity
hull
iff
igrainstate
implicitly
importance
incorrectly
initiating
inlet
instanceids
interpret
ints
ischeduler
isession
islivemode
issuing
kimono
ledger
linearly
mat3f
matrix3
matrix4x4
maxdepth
mention
mqtt
multiline
ofand
outputdir
overlaps
pathname
paymentid
permutation
pointis
prediction
proceed
projekte
quit
raycasthit
recognition
regression
revert
sampled
scheduleid
seems
simulated
singlenamed
smooth
snapped
standalone
tdocument
theto
titles
totp
touching
transferred
traversing
unbind
water
weekly
whichever
whos
yvalue
##ages
##already
##ash
##ass
##attr
##bility
##browser
##collector
##ctx
##dc
##df
##ear
##ec
##enable
##erializer
##fill
##find
##ges
##go
##ily
##ipaddress
##ix
##lation
##les
##lied
##lock
##maker
##mark
##master
##media
##menuitem
##minutes
##ncy
##ny
##od
##orders
##ote
##ound
##passed
##pecified
##queryable
##register
##sclient
##through
##tic
##tions
##typename
##uct
##uring
##valid
##verse
2nd
analyzers
anywhere
arrives
assembles
audioclip
authhandle
beat
bigdecimal
bonus
branching
bullet
canceltoken
clauses
colmap
commandid
comparator
complexity
contractthe
ctors
deleterule
differ
dim
dividend
elementname
engines
episode
evaluating
factors
fecha
fees
greatest
historic
iclient
idxnamed
iedmmodel
ientity
inference
invocations
iprincipal
irepository
ireuse
january
kas
knowledge
kontonummer
led
lenght
loc
loggers
lsl
maxdistance
maximal
mini
minlength
necessarily
nominal
overloads
pairing
paragraph
patron
pdfdocument
picked
pooled
presents
producing
provisioned
quarter
querygroup
renderers
responds
restricts
revoked
rgba32
rhino
rom
secured
selectors
slower
spherical
subclasses
suite
supplier
tangential
thesame
ticker
trained
unresolved
validaton
vectori3
vote
wal
walls
wireframe
worksheet
xenref
xvalue
##according
##ants
##atch
##buffers
##close
##coding
##contain
##counter
##dd
##driver
##drop
##dx
##earch
##ens
##exclusive
##gs
##hold
##iction
##iff
##ifying
##inal
##inate
##lo
##models
##modes
##ollection
##plan
##pose
##rm
##roleid
##score
##sd
##sed
##sid
##slot
##sp
##symbols
##uch
##visitor
##work
accounting
advertised
agents
andmaximum
andthen
andto
asked
backtest
bankaccount
bid
bubble
calculator
cancelable
cartesian
circuitname
commercelog
continuous
csstoken
ctrl
currentpage
datasets
db4o
discards
emails
enc
enrich
exceptional
experiment
extractor
fading
filestream
finder
fine
framerate
galleryname
generators
getvalue
gossip
grabbing
handshake
happened
hero
hiding
hmenu
hyphens
ientrymodel
iframe
igeoobject
imapview
iquery
itreenode
joining
lift
limitation
log4net
logo
lsp
menuitem
mightnot
missingthe
mix
mutable
nativearray
newinstance
nheight
nickname
nominaltype
official
orleans
outlet
overloaded
passwordbox
point1
point3d
precedence
proximity
rebuild
reconnected
resharper
restarted
resultis
reverts
rowindex
safety
seeded
sensitivity
settlements
showhidden
silos
situation
slightly
spaced
stderr
subscribing
surfaces
sweepangle
ta6
tapes
targetname
targument
tasklist
tasktype
technique
thedefault
thelist
thereturned
tkey3
typing
vector3int
vimeo
vlan
vulkan
wiki
xunit
zones
##agent
##ail
##ancy
##arg
##balance
##bing
##blob
##bly
##cast
##cert
##columns
##compress
##da
##double
##ering
##ervices
##formation
##groupid
##how
##ica
##inside
##invoker
##irection
##metrics
##mp
##nts
##pe
##peer
##placement
##platform
##positions
##possible
##projects
##requests
##rn
##route
##rows
##share
##tatement
##tocheck
##turn
##uation
##uing
##ulating
##ulator
##umber
##ves
##visible
1st
acd
actuator
ago
algebraic
allowable
amqp
atlas
automaton
backoff
bfactory
billed
bins
bloom
bluetooth
buildtarget
busy
bythrowing
canexecute
cfrv8value
chrome
classified
clustername
commandname
commerce
companyname
contenturi
convertible
convertir
credits
daterange
ddindex
deactivated
decrease
der
devtools
domains
dword
eccentric
eighth
firstpoint
flushed
forview
gamestate
grants
hacker
hence
impulse
indexof
int16named
intact
inverted
ishighly
itraversal
jar
kafka
keyhandle
kronos
lineloop
linestrip
longest
lpparam
lykke
manipulate
medium
membertype
minimized
mission
muid
mutate
navigated
ndarray5
nservicebus
objectquery
occurence
origins
orm
outpath
overhead
pem
percolate
performedon
point2
policyname
prefer
preparing
pressure
printable
propertykey
psweb3url
randomizes
readers
relating
reserve
resizing
resolvers
respecting
retried
retuns
revocation
rewrites
rulesets
ruletreethe
searchmode
sectors
serializing
shake
shortguid
shutting
siloaddress
sitecore
skia
solved
someone
soundex
spanish
statefulset
styling
submissions
substitute
suggested
summaries
sweep
targeting
targeturl
thatthe
theis
timeunit
torque
trial
tutorial
unset
unsignedint
unwrap
variants
verifier
wearables
##ax
##click
##codes
##connector
##consumer
##cursor
##datetime
##don
##dy
##eader
##ended
##fix
##full
##geofence
##global
##icator
##igned
##inseconds
##ism
##lly
##loop
##marks
##mod
##nameoneof
##objectid
##old
##protocol
##put
##py
##runner
##segment
##si
##tle
##ton
##ude
##under
##units
##uple
##var
##variant
##ved
##via
##vr
##year
##zero
##zip
absent
accepting
apache
articles
asyncresult
averages
awaiting
basedon
battle
behaves
beizer
bgra
blacklist
cancelation
capitalizes
cmf
cmfpackage
collecting
converters
cron
cvr
dbname
delivers
derivation
derivative
descendents
dialogue
documented
droplet
encapsulate
entrypoint
equipment
everest
focused
fullname
gedcomx
gpuva
grabs
grammar
greaterthan
haptic
hire
icao
iconset
igenerator
imaginary
increased
inertia
inferred
isactive
isnot
jsonreader
knows
lista
listings
literals
lua
lucene
mainly
manifests
marc
mediator
meeting
mentioned
midpoint
mostly
multiplying
nats
normalised
numberof
nunit
objeto
observers
osu
partyid
physically
prime
propagated
propagation
pulled
purchased
quoted
race
rational
ravendb
reconnect
recreate
register2
registrar
remact
resultmap
rethrows
reversed
rolls
routingkey
said
scored
secondpoint
sensible
sep
simplify
situations
six
sleep
slide
solutions
solver
spaceship
splitting
storagefile
strictly
submodule
suggest
surrounding
t4named
tear
threadid
tiff
tightly
tlocal
toadd
touter
trailer
tried
trinity
ttoken
usercontext
valuation
variableid
verifying
viewed
walking
xri
##ams
##ast
##chart
##chunk
##collider
##cost
##culture
##des
##desc
##dimension
##eed
##encoder
##eration
##exists
##fails
##fragment
##generic
##ha
##ines
##installed
##ites
##ively
##ker
##keyname
##king
##lifetime
##literal
##logentry
##login
##many
##maps
##marker
##ming
##mm
##nodeid
##once
##ons
##ore
##overwrite
##pending
##pin
##polygon
##proc
##quantity
##rated
##rectangle
##ruleset
##sample
##save
##side
##socket
##tates
##theme
##ticket
##tics
##tokens
##tool
##uffer
##uted
##v2
##valuetype
##watcher
allvirtual
andan
armtemplate
athat
attacks
auxiliary
basetype
beg
beingused
bookmarks
bring
btc
bytestring
celsius
changeset
cherry
closer
cloudtable
coarse
comic
communicate
considering
consumption
contour
coords
cubes
datatypes
dbset
deactivate
differs
disputes
docker
doctor
enforces
escaping
estate
exiting
explanation
filemode
foldout
fonts
frequently
gem
geoobject
geoobjects
guicontent
handleref
headername
hkey
idocument
iendpipe
ifit
imdb
ipolicylist
istarget
jagged
jsonelement
kws
leb128
lensamazon
leverage
lexer
linewidth
lookups
macros
mailmessage
mainframe
marking
maxresults
mentions
millimeters
mosaics
movements
msi
mutually
mygeotab
nbt
newenable
newlines
odataquery
ontap
optimize
oriented
outstream
overrided
playerprefs
plural
preparation
proxies
quantize
raising
razor
recycle
register1
rent
requiring
resolutions
restriction
reviewdto
rewrite
rfsgsession
routename
scenarioid
searchtext
seeks
sfdb
signer
sinks
sizeof
spendable
spritefont
stale
std
steamid
subfolders
subgroup
submitting
succesfully
supplying
tableau
targ1
targ2
taskbar
tdbcontext
tgt
thefile
tquery
transmitted
treat
tsuccess
ttuple
tvaluenamed
twitter
uncommitted
undone
xmpp
xps
youtube
##ada
##aliases
##anchor
##argsnamed
##ception
##comment
##constants
##coroutine
##dex
##did
##dk
##during
##ector
##eparator
##equal
##ernamed
##failure
##frequency
##groupdata
##his
##ick
##ield
##ings
##invalid
##inventory
##ision
##just
##kill
##lm
##locator
##lottype
##mation
##med
##multiple
##ocket
##packages
##pass
##pixels
##policies
##procedure
##ries
##rpc
##sure
##sync
##tatenamed
##tatistics
##throw
##times
##timezone
##traversal
##uated
##vable
##valuepair
##xx
##ying
4x4
actionname
advancing
advertises
afterwards
am
amplitude
anywaydo
apicall
arrows
aspects
asserting
attempted
attention
automapper
avm
award
backtesting
balances
basepath
baud
breaking
bynamed
candidates
ccw
centroid
checker
checkid
clips
cng
collider2d
committing
comprise
conforms
consulta
contentsof
contextmenu
conversions
covered
cultures
dark
datawriter
datenimport
dbschema
deletemodel
dont
duplicated
embedding
emoengine
endindex
entirely
eol
epsilon
equations
extents
fahrenheit
fence
financial
firing
flagged
flange
fontsize
food
forcing
forevery
formato
frameworks
fromform
frontier
fulfilled
gathered
gremlin
headroom
iequatable
ilabel
incident
intends
isnull
jsonstring
junction
kelvin
kick
killed
kinect
late
likes
localize
locals
logically
logininfo
logmessage
maintained
mappers
maxwidth
mdi
measuring
modelstate
mongo
mousestate
navmesh
negated
neighbours
ninth
nodename
nullnull
oncomplete
orif
orig
overview
pins
pipes
playerinfo
plotter
polycurve
prev
projectpath
pulse
rankine
recurse
regexstring
reimages
renaming
repeating
retain
rid
savegame
scid
securities
seeds
selections
sentiment
slack
smoothed
sourcefile
spell
spring
stacks
stdout
steering
stuple
tcl
tech
termination
timeentry
timegrain
todate
topicname
trixels
tunnel
tviewmodel
unitofwork
unordered
upgraded
useragent
userstate
utterance
vhd
vocabulary
watching
wich
##adapter
##analysis
##answer
##bind
##bj
##border
##brush
##cashflows
##cl
##comparer
##controls
##convert
##devices
##ectory
##ee
##ender
##ep
##erable
##ey
##float
##geometry
##greater
##hat
##heet
##ials
##idtype
##iness
##ising
##iton
##keynamed
##kit
##lement
##man
##mic
##odel
##ome
##ored
##ort
##ply
##private
##selection
##sum
##support
##tables
##timer
##tudio
##ulate
##ution
##would
11n
agentid
anda
announce
arg11
arriving
audiosource
bans
breakdown
bufsize
bypass
byref
carriage
cased
classifier
coded
codefix
const
counting
cubism
decided
decoration
dentro
detailing
discrete
downstream
edgeby
encounter
encrypting
entryname
equity
erase
errortype
especially
evnt
evse
factorytype
falling
filepaths
finalized
fourcc
fresh
ftplistitem
gagvr
gfx
gldf
guarantees
healthcheck
huffman
imperial
inorder
insight
intents
iproduct
isthe
isymbol
itype
jsonwriter
keypair
laser
lockout
lose
maparea
metafile
microting
midifile
momentum
mongoserver
natvis
numbering
nvector
obtainedby
ofqueued
onboarding
opsitem
orphan
ose
paints
pan
paragraphs
particles
phrases
pizza
polynom
powershell
procecess
proceeds
processname
pulling
queryparams
raiseevents
rangei
raspberry
recognizes
rects
recurrence
referencein
refspec
registed
rejected
remembering
repos
reuses
revoke
rooted
runnerinfo
say
scorer
scrollbar
semaphore
shop
shuffling
signhandle
simulator
sliding
smb
sourceid
sqlquery
stay
streamid
subgraph
subtracting
switching
ta7
tedge
telling
testfilter
tfourth
theuser
toast
tokenized
tol
touches
tparam
tprop
travel
trelem
truncates
uml
unnecessary
usd
uuids
variance
vary
vdi
viewing
volatility
waf
widths
withinthe
workday
xamarin
##acc
##addr
##animation
##arable
##arn
##assets
##bin
##branch
##bykey
##cargo
##chedule
##cheduler
##codec
##coded
##delimiter
##ected
##edto
##env
##execution
##fo
##forward
##frames
##front
##fully
##fx
##guide
##hing
##hit
##http
##idx
##iler
##import
##inbytes
##ived
##lay
##lib
##listing
##lit
##loc
##mer
##messaging
##modified
##namenamed
##nothing
##olution
##pp
##rio
##rl
##rnamed
##room
##running
##runs
##secret
##segments
##slider
##stat
##ster
##tip
##tly
##tofind
##toupdate
##ulated
##unique
##uris
##vars
##vice
##while
##wide
##witch
##workspace
3x3
adeployment
amex
appname
archivo
arithmetic
arrayschema
arrived
backcolor
bases
beused
binomial
bolt
booleans
boxed
capitalize
cardinal
chartgraph
closely
cloudwatch
codebuilder
colon
colours
community
comparisons
configs
cropped
customized
dbrpcreate
defer
deliver
destroying
determins
dialogs
disposables
distinguish
dog
drawable
drivers
dxf
elevated
emanating
entityid
equalto
estimates
eventsource
executions
fades
ffxinav
filtertext
flipped
focal
funding
galoisfield
genome
haven
holidays
honeycode
hsm
htm
idataview
identifer
ifilesystem
ihi
iis
ikeyencoder
indirectly
inode
interrupted
introduced
ioperation
iscsi
isolation
italic
item4
itemstack
itis
itransducer
jobstatus
kiicloud
las
latency
lengthtype
lesson
licence
listof
lldb
loses
lot
memo
microphone
mimetype
mocking
modop
movies
nameand
namespaceid
news
nexttoken
nfs
numerator
onedrive
openroad
opt
osppolicy
pageid
payout
pdata
peeringname
pfx
playernode
polar
portfolios
protocols
provision
prune
radial
raii
reacts
rec
receipts
recovered
recreates
refinements
relay
renew
rented
repair
resistance
runmode
sanity
schemes
sddl
seperately
seperator
sidebar
simd
sizenamed
smtp
songs
spent
splitted
stmt
stocks
svc
swarm
t14
tconsumer
tds
terror
theevent
theobject
thethat
thetresult
thetype
tiledb
timers
tmember
tokentype
took
touched
transfered
translator
trap
uniqueid
unsupported
usb
v2named
valuetuple
vector3i
vitals
walks
warn
wasm
wcf
winner
wrappers
www
##abridged
##ading
##aes
##allowed
##alue
##ana
##ange
##apply
##archive
##ations
##ature
##authority
##bias
##blocks
##building
##cal
##called
##calls
##cene
##cluster
##co
##ctions
##edit
##egment
##ek
##employee
##enobject
##entryform
##eq
##execute
##extent
##failed
##focus
##haredkey
##hp
##indices
##instead
##iving
##kes
##languages
##last
##lient
##low
##matches
##material
##month
##most
##my
##nable
##neath
##ock
##ops
##orm
##oting
##pre
##principal
##ptions
##qos
##rank
##rap
##records
##ree
##refund
##release
##removed
##rray
##rth
##sa
##series
##sible
##since
##solution
##stack
##ters
##track
##tracking
##trength
##tx
##typeid
##uate
##uck
##uding
##unt
##usion
##utility
##vation
##vision
##vo
##world
##ws
##zing
11ax
aero
alphabet
alt
anime
asa
assigning
avoids
balanced
balancing
bgr
bitfinex
bodyhandle
borderwidth
brute
calc
cancelling
caps
careful
categoryid
classic
clientdata
clipped
collectable
complement
conflicting
continuing
coordinated
csproj
cssclass
currenttime
customizing
dacl
dashes
datatables
datev
decisions
dequeued
displayable
docnumber
dos
dsa
dsn
edgeaction
edocksite
emitter
enclosed
endpointurl
entityname
entropy
eof
estimator
existance
expensive
exporting
finalizes
findindex
flights
flips
forever
fragments
frontend
frozen
fuente
fulfill
funnel
fur
gaussian
gedcom
geometries
grows
hack
halfway
heads
homed
house
httptrigger
icapability
ifthere
implied
innerstate
inscheme
instream
interacting
interesting
keyand
keybundle
keysize
ldr
legislation
linenumber
lptstr
maybelazy
mempool
metodo
mind
modelbinder
monthly
nanocontext
nanoseconds
newstate
nextpage
nil
nugget
oid
oneof
p2s
packagename
panels
peeks
peptides
personid
photonview
photos
pipereader
planname
pods
polish
potenziale
practice
prepends
preserves
preventing
principalat
privilege
probe
prodgestpay
proxied
qualifiedid
rechnungen
recieve
recognizer
referral
referring
regenerate
relativeto
relies
rely
remotevalue
rental
requestpage
research
resourceset
responded
resting
retreived
returntype
rotating
sanitized
sanitizes
scaleview
screens
scripting
sdl
seasons
sectionname
seriesname
shifted
sight
sitemapnode
spread
stripped
strongest
tdms
testgestpay
tied
tilt
timecards
timeouts
totype
tprogram
tspocnamed
unencrypted
unitprice
unread
untyped
upn
upstream
urn
v1item
valueof
vat
vista
webservice
webview
weeks
whenthe
willinvoke
writers
zipfile
##ables
##addition
##adds
##ade
##ale
##atic
##backups
##begin
##bi
##buttons
##cade
##calling
##cation
##cess
##checks
##cies
##closed
##cloud
##country
##creen
##dbcontext
##disk
##due
##effect
##encoded
##enumnamed
##erior
##extended
##extractor
##gas
##ght
##gment
##handlers
##haring
##increment
##ind
##indexes
##ird
##ited
##ivity
##izers
##la
##lating
##layers
##limits
##lk
##ller
##loads
##lookup
##lots
##lt
##mo
##mq
##mtype
##ndpoint
##nr
##observer
##ong
##ories
##original
##pet
##play
##ple
##ponding
##prefab
##rator
##receipt
##receiver
##render
##requested
##ributor
##rmation
##rulename
##s3
##sender
##states
##templates
##there
##they
##tosearch
##transfer
##tte
##tting
##ub
##uce
##uent
##uity
##ume
##unk
##ventargs
##wise
##wm
##worker
abandoned
activityid
admins
aliased
anid
anyway
arrangement
arraytype
assetbundle
attrs
auditing
averaged
avoiding
bak
baseuri
bindable
blockheight
bordercolor
boss
breakpoint
brushnamed
buildings
cable
cef
charset
cnn
collapsed
colliding
comply
conform
containthe
convertion
corrects
cotangent
crc32
createdtime
dataform
datamodel
datapoint3d
datos
doesnt
dropbox
duplication
ebs
edition
effort
endorsement
enhance
equalizer
eskt
eto
examines
extending
facets
factories
fifo
fileaccess
firstcolumn
forecasts
fuse
gamepad
gate
graphnode
greek
gridtile
hdinsight
hsv
iappbuilder
idandkey
imagename
imagesource
infer
inspects
instantly
intothe
iplayable
isreturned
isurface
keydown
keypoints
kiiobject
localarray
logfile
margins
matrix4
meshnamed
minify
minx
moniker
mounted
nmea
nullif
observing
octets
operationid
originating
pagetype
painting
parties
perimeter
phpvalue
pointa
pointb
portrait
posicion
pot
presumably
pricesource
priorities
processors
protections
pushing
putting
qname
questionid
randomizer
randomseed
ranks
reduced
referer
regid
remoting
repeats
respects
responseto
retrying
returnsthe
rewritten
routevalues
routines
rowset
ruta
scintilla
seat
sendcontext
sensors
shardid
shorts
shouldbe
silent
similarly
specs
spend
sqlagent
sqlbuilder
sqlparam
starty
suppliers
tcommand
tenantid
tenth
textfield
thatis
thisis
throughthe
timeseries
tipo
tips
topof
toremove
tracewriter
trackables
tradeable
traditional
trajectory
tself
tval
txid
typesymbol
uintptr
unwraps
upcoming
usefull
usernamed
uwp
var
versioned
vertexnamed
vibrate
voltage
watermark
wav
wheter
wildcards
willcarry
wparam
xbox
xslt
##admin
##ake
##aly
##anomaly
##audio
##bitmap
##both
##botlocale
##bundle
##ca
##cards
##classname
##connected
##coord
##counts
##crc
##creating
##cture
##custom
##dataset
##degrees
##delivery
##disabled
##ea
##eds
##eference
##either
##equals
##ery
##estimate
##executing
##fee
##ference
##flux
##game
##gle
##gui
##handling
##holdings
##hostname
##ialize
##idad
##ig
##igation
##images
##imation
##integer
##invoke
##iql
##itude
##joint
##js
##ky
##lf
##lier
##linear
##listnamed
##llable
##logging
##mappings
##measure
##messageid
##monitor
##nc
##numbers
##orderbody
##orderid
##ously
##ove
##patch
##peed
##producer
##publickey
##published
##qr
##quire
##ranges
##receive
##replaced
##rid
##rise
##roll
##ron
##sc
##scene
##seconds
##select
##sive
##span
##speed
##tasks
##textbox
##throws
##timespan
##tylenamed
##tyles
##uario
##ull
##unity
##upplier
##urn
##uting
##vel
##writing
##xy
##ync
aapi
achieve
adapters
aim
alters
aobject
arcs
arrange
backlog
balloon
baseaddress
basevalue
baudrate
becalled
beeing
beencreated
beneficiary
bindertype
blittable
brand
btn
buffercolor
bundled
bytearray
bytebuffer
cachemode
cadability
cam
campaignid
cat
cbc
celebrities
cellupdate
changedtime
cloning
coerce
coerced
colored
composes
constrained
crab
crashes
dbparameter
dbrpid
dbrpupdate
debris
declare
defaultval
deltas
dense
deploys
directed
divination
doughnut
droneclient
dte
elliptic
engagement
enrolment
entbb
enumerables
equally
exposure
facility
familyname
faulted
feet
fileshare
fisher
fixer
fork
fps
framebuffer
fuel
funcname
functional
geographic
geometric
gestures
glue
gracefully
graphid
halted
iconsize
icurve2d
ilog
imageframe
inbox
inclusion
influence
influxql
instanced
intercepts
interfere
interleaved
interop
intrinsic
introduces
invited
iprimarykey
iproperty
irequest
iresult
isvalid
itemnotnull
kills
kinematic
legalentity
lives
managing
markets
mem
memtable
mid
migrated
millipoints
mirror
missed
multipart
mygeotabapi
neighboring
nest
networkid
neuron
north
nvindex
occurences
onboard
ondata
oracle
packageid
pads
par
parsedfunc1
percentile
petid
pets
phases
pile
pipewriter
poi
pointd
polycut
predicates
prefabs
principalid
profiler
prompted
province
pstn
ptr1
pxie
quartz
queen
quotetype
rankings
rebuilt
recieved
redirected
reducing
remotely
renderable
repaint
requestsfor
restaurant
resulted
resx
retreive
reviewid
road
roman
schemehash
sdksmap
searcher
selectable
servidor
shardregion
shorthand
singletons
slashes
slrequest
somewhere
sourcetext
spawning
spherecast
staging
stationid
story
subreddit
subtracted
symbol1
tcard
technology
textarea
tfrom
thedelegate
thefirst
think
tokenizer
topmost
touri
trackable
trackableid
traits
transducer
transformer
typeid
typewhen
udn
unable
unconfirmed
unescaped
unprocessed
usedin
vec2d
vector2d
verbs
verses
vpnsite
vts
walletname
wan
waypoints
whereas
windowed
wired
worlds
xcsrf
yourself
zag
zig
zipentry
zlib
##4x4
##acing
##ado
##algo
##als
##appender
##arent
##ater
##aves
##await
##axes
##budget
##bution
##cancel
##cd
##checksum
##col
##colors
##common
##cover
##currently
##detector
##dle
##dom
##eer
##energy
##entation
##ero
##etter
##every
##exit
##features
##fit
##folderid
##forms
##fullname
##gb
##hashes
##hive
##icies
##ides
##ight
##imum
##inated
##iner
##ining
##isted
##ival
##jo
##make
##mapnamed
##mean
##minimum
##mnamed
##mresp
##nection
##need
##non
##our
##pages
##pay
##pid
##pr
##qdn
##raph
##raw
##review
##rge
##ribe
##rname
##roles
##ronously
##scription
##security
##sent
##sharp
##sk
##specify
##styles
##subsystem
##tance
##tex
##tf
##toprocess
##trings
##truct
##ubsystem
##udf
##unes
##uniqueid
##utils
##variation
##verify
##yper
aborted
accounted
acrylic
actualtype
adapted
addhandlers
additive
ado
ajax
although
archiving
asm
binded
bitbang
bitmapnamed
blind
blocksize
bufferbrush
builders
bypasses
bytecode
callinvoker
callsthe
cents
changescope
chess
cidr
clans
clipname
club
clustering
collided
commitpoint
comprised
couponcode
createdand
csharp
cuts
dateonly
dbnull
dealing
defaulted
deliveries
denote
depthmode
descriptive
digitsbase
disclaimer
dlls
dna
docked
domainevent
easyrequest
eleventh
emv
endyear
equipped
everyone
expecting
extracting
falseis
filedata
float3named
folderpath
fromsql
generatinga
gif
glfw
gone
graceful
grade
groupby
groupcallid
heightmap
hovering
hubid
idtoken
ientitytype
igrid
illegal
imodel
importing
inactivity
indented
infinity
inits
inquiry
iorder
itemcount
itemdata
itemname
iterative
iuser
jira
jsonpath
jumps
keycomparer
kimonostyle
leagues
leftmost
lerp
lessthan
locales
lookout
looping
lsd
luis
mag
marshals
matrix2
maxsize
mef
meshdata
messagebox
mining
modelname
narrow
negation
nesting
newchild
newid
newnode
newposition
newusername
ngit
niwlana
nlog
noerror
notecard
obstacle
occurance
ofin
operates
osprequest
outputonly
overlays
packing
param1
param2
parametric
parsedfunc2
parsers
popped
predict
prestiged
promises
propertyset
qos
queueid
quirks
ratecard
rdf
reboot
recipes
recipientid
reconfigure
reddit
redraw
restsharp
resultclass
resultof
revenue
rfs
rot
rownamed
rtp
ruling
runmanually
salary
scim
sdksetup
searchscope
secant
semi
semicolon
ser
serving
shuffled
simplifies
siteurl
slip
sln
smoothing
speak
splitter
spritemap
sqlite3
statenamed
stations
stl
storename
streamed
street
strike
stud
styleex
submenu
superset
tails
targetid
taxonomy
tdest
tenants
tensorsinfo
terminals
testdata
textchunk
threadpool
throttling
throughout
thumb
timeslot
torrent
tradebars
triggering
trophies
umask
unbounded
unpacked
updater
upnp
upwards
vox
whereclause
workspaces
worldapi
xdpool
xsd
zigzag
zoneid
##2named
##abilities
##ace
##acl
##acon
##acted
##ah
##allows
##alta
##arameters
##aver
##because
##bed
##bone
##bool
##canner
##chance
##charge
##circle
##console
##cookie
##cp
##crypt
##cted
##customer
##deadline
##delta
##detect
##disable
##draw
##eded
##een
##ency
##erator
##erid
##escape
##essage
##etail
##even
##executor
##exist
##expr
##extview
##fat
##fc
##fd
##filtered
##finder
##functions
##gence
##gly
##harp
##having
##hm
##iable
##ician
##icle
##ictionary
##ido
##ifempty
##ik
##ill
##impl
##ina
##initial
##intents
##ipfactor
##ipped
##ison
##iter
##itioned
##itization
##ivo
##ken
##ku
##library
##lling
##lobby
##long
##managed
##matcher
##migration
##more
##mpty
##nal
##nation
##nded
##nge
##ntity
##ob
##ormat
##ost
##pc
##phase
##pier
##ployed
##poolnamed
##proto
##push
##queries
##queues
##recovery
##refresh
##rel
##replace
##reporting
##resp
##ri
##rip
##rk
##roduce
##sable
##second
##self
##serialize
##sort
##sorted
##stamp
##steps
##str
##summary
##taining
##tats
##teenth
##tem
##tests
##timeutc
##total
##touch
##trace
##tuning
##ua
##ught
##uilt
##uite
##ula
##ura
##users
##usted
##wards
##zer
accel
actornamed
addmethod
ammo
analyses
anexception
animates
argreader
artist
assembled
assumption
astnamed
augmented
badge
baseurl
beapplied
beeping
benull
bitstream
blits
bom
brace
bytecount
capsule
car
cashbook
cashflow
categorize
challenges
classifies
cmp
codeaction
collide
collides
commodity
commonly
complicated
conjugate
contentid
corrupted
crossed
cubicbezier
currenty
custommeter
dayoff
dbrpget
ddthh
deadlock
defaulting
demand
deselect
differently
dig
dist
dockable
dollar
doomed
drawline
driveid
driveitem
drives
ease
ecdsa
eitherlazy
elasticubes
elemnt
endtag
etradetype
evaluator
eventinfo
evt
ews
examined
exisiting
existsmode
exposing
extradata
facelistid
ffa
filepos
filterlists
fixedupdate
forceupdate
ftdi
fulfillment
futures
gamestring
gauge
generalized
genesis
gethashcode
getmodels
ghost
gitobjectid
glsl
goto
gridview
gzip
headset
heavy
hello
helpful
him
idtaginfo
ieventbus
ifilter
iformfile
ilogfile
implies
inc
infix
injecting
insertar
interrupt
ipport
itsstruct
itypesymbol
keydata
keydefaultvalue
keyvault
kinds
latter
libcurl
licenseaccountlicensedata
limiting
lin
linepattern
logarithmic
loginprovider
maintaining
marshal
masking
maxheight
maxx
maxy
memberreference
memcmp
messagepack
millisecond
minification
mochaq
modelflowchartextension
modelstatedictionary
modifiable
monday
monoscript
msgpack
myproject
nav
newitem
notstart
npgsqlparameter
numeral
oauthtoken
objectas
octave
octree
ontimeoutasync
openal
optimizations
orchestration
ordernamed
originname
outlets
outputformat
outputpath
ownerid
packageinfo
packettype
pagetoken
panning
parametertype
parsedfunc3
patients
pcm
pdfcleanuplocation
perlin
personstate
pnpcontext
podfile
pointsortorder
postgres
pprefix
prescription
principle
printout
productgroup
professions
profiling
progresscallback
progressmonitor
projectcreate
propertysheet
proportion
protects
providedand
purchases
putpolicy
qualifier
quantities
quaternion1
queryresponsemessage
quite
rainbow
rangef
reconnects
reconstruction
recoverable
regional
registerd
rendertype
replicas
requestdata
requestinfo
requesttype
reservations
resulttype
ret
retaining
retryable
returnurl
reversal
rheogram
robodk
robust
roomid
roomname
sampledvalue
satellite
savechanges
scaffold
scriptname
seats
securitykeyidentifierclause
seekorigin
segmentid
separates
seq
serialisation
servicebinder
servicebinderbase
serviceenvironment
setto
sha512
sharedsecret
shipmentid
shortnamed
shot
showwindow
siblings
skiptoken
slicewriter
specifiedsqltransaction
speechrecognitionresult
spelling
sqltransactionusing
startat
starttag
startx
stereotype
stiffness
storageaccount
stringsplitoptions
stroke
succes
supergroupid
suppress
swapchain
swipe
syncpoint
tablenames
tabular
targetapplicationuri
targetposition
taskwork
telemetryclient
testid
textureinfo
theirs
thekey
tilex
tiley
tnode
toa
tocreate
toptions
trains
trait
transactionflow
transactionflowoption
treelist
trip
tsb
turning
tvdsmessage
twitch
typesymbolnamed
uname
unauthenticated
unknownfieldset
unsaved
unspent
unsubscribed
unsubscribes
urlbase
useto
v1alpha1certificatesigningrequest
validationerror
valor
value5
valuewill
versioning
versionstamp
vertexselector
verts
violated
virtualnetworkgatewayconnectionname
virtualpath
visualisation
voximplant
vsix
wagesetting
webdav
webjobname
webnamed
wonkarefenvironment
worldspace
xcorrelationid
xmltextreader
yearly
zipped
##acket
##activation
##aneous
##ased
##ately
##ath
##atible
##atom
##authpassword
##authusername
##aws
##bandwidth
##bl
##botalias
##botversion
##cachesubnetgroup
##canvas
##cashflow
##changing
##checkoutresponse
##cipher
##cise
##coming
##completes
##copied
##creationcontext
##cripts
##dict
##different
##digest
##doesn
##dr
##duplicates
##edeventargs
##endent
##ending
##endpointnamed
##eo
##erate
##erating
##ervername
##etnamed
##ever
##exchange
##exe
##extra
##fa
##factorynamed
##finity
##fn
##gating
##gc
##gr
##gradeprorationscheme
##grain
##hello
##hi
##hole
##hot
##ict
##ieve
##ift
##ii
##ilter
##inant
##ino
##itor
##iv
##izingsettings
##keypair
##lable
##let
##lish
##llow
##lname
##lts
##lying
##made
##matic
##maximum
##mdocument
##metricdata
##mock
##modelbuilder
##nav
##negative
##nical
##oa
##objectflags
##obs
##ocument
##odata
##oken
##oobject
##optionsbuilder
##oses
##osity
##own
##ownership
##paciente
##party
##picker
##picture
##posed
##profileschemadto
##projectcontext
##proper
##propertyflags
##propertyinfo
##quality
##queued
##quired
##quote
##reachable
##ready
##referencetype
##reload
##reports
##represented
##responsejson
##retry
##rom
##rop
##s2
##serverconfiguration
##settingsrequest
##signal
##smap
##soft
##specification
##ssociated
##stance
##statuscode
##syntax
##tableresponse
##tapes
##tatusnamed
##templatename
##tern
##them
##threadid
##tick
##tl
##tofile
##toggle
##toignore
##tors
##tostring
##transport
##triangle
##tribute
##tter
##typenamesenum
##typesymbol
##ubnetmask
##uction
##uledata
##union
##unknown
##updaterequest
##urls
##usecase
##utable
##utation
##uto
##uv
##validate
##versiondata
##vestigador
##walk
##widget
##wire
##wn
##x1
##yclic
##zed
##zes
aabb
aar
abbreviated
accommodate
activedirectoryservicesettings
adal
adaptor
addconditions
addin
adorner
akka
anchored
andand
anew
anim
aninstance
antenna
anti
anyof
apimessage
applicationbasepath
applicationcontext
applicationroleschema
approximated
arabic
architect
argcount
aspecific
assemblypath
associative
astring
attemps
atthe
attributed
attrname
atype
authorizerequest
autofac
automated
awaiter
basename
bearing
bill
blueprints
bounce
callor
callthe
cameranamed
canbe
cardfiledbcontext
cardlink
cdata
centers
centerx
centery
cfg
chainthe
chessboard
circumstances
clientconfiguration
cloudevent
codedom
codepoint
comfort
commentid
committer
compareinfo
componenturi
compressiontype
configname
configurable
conqat
considers
consolesystem
constrainthandle
consumerkey
convolution
cooldown
correctness
correspondingelements
cosmosdb
countdown
covering
cpf
createdby
crow
cubename
currencypairnamed
currentuserid
daemon
datadescriptioninstance
datapointnamed
datareceivedeventargs
datatablenamed
datatemplate
datatoserialize
datemodified
deallocates
decodedcodeword
decompose
degreeofparallelism
delegatetype
dependencytelemetry
des
detailled
deviate
deviceconfiguration
diagnosticbagnamed
dialed
disallownull
discarding
disposition
distribute
dotsubgraphendpoint
drectangle
dumb
dyn
east
eckey
efcachepolicy
elf
eligible
eliminate
elmah
emulate
emulates
emulation
endy
entityuid
enumvalue
equivalents
eslint
eur
eval
exhibit
exporter
expressionsyntax
faceid
factorial
faker
farm
fasterkv
fat
father
fieldtype
filelist
fillcolor
finger
focusable
forth
forwarding
french
fromdate
fromindex
fromits
fromunit
ftpclient
generics
genes
geterrorstring
getters
gizmos
glb
glob
gradients
graphicsunit
graphml
grayscale
great
grids
guilds
hasbeen
highlighter
holders
httprequestnamed
ibd
iclientapi
icomponent
icontext
icurve
icustomerattributes
idea
idynamickeysubspace
ielement
iexplorerviewmodel
ifdbdatabasenamed
ifieldbuilder
ifullnodebuilder
igameobject
igenericpropertymultiedge
ignoreunknownpropertytypes
imageurl
includesthe
income
ingestion
initialstate
innertext
instace
instancetype
integrations
internalname
invites
iobjectfactory
ioptions
ipblocks
ipfs
isa
isagcustomproperties
isilobuilder
itelemetry
item5
itransitiondefinition
ivariableregistry
keyframe
lack
lanes
launcher
levelname
levenshtein
lightness
linestring
listname
listviewitem
lived
logeventdetails
longs
lots
lpclassname
lpstring
lstm
luisresult
luminance
machinekey
mapid
massive
maxitemcount
meaning0
mediatypeformatter
memberid
merkle
methodpost
methodsymbolnamed
mines
minisignpublickey
mirroring
miss
mixtures
mockbehavior
modulo
monsters
mother
mount
movieid
mutating
mute
mutex
mvcsitemap
namedin
national
nature
newfilename
notices
numero
observes
octomap
opensearch
openzfs
operationis
ops
optimizedway
orderto
ordinary
osm
ours
ourselves
oval
packagemanagerregistry
pager
parallelism
parameterless
parametertypes
paramlist
paramters
partitionid
partnered
pathtype
pawnnamed
peerip
peeruniqueid
persona
pffxinavclassobject
phonetic
pii
planned
playcount
poly
poses
positionnamed
postal
predicted
presenter
preservationmode
producttype
publickeys
querychannel
quiz
randomname
rcon
reaching
readcondition
readprogress
realistically
realtime
recommendations
reconstruct
redrawn
referencetype
refunded
relays
requesthandler
resourcestate
resp
responding
responsemessage
returnsdeployments
reviews
rnd
rootnode
rosette
rpgcharacter
rtmesh
rumble
runtimetype
samplerate
sbytenamed
scalefactor
scenarionode
sceneview
schemaname
scratch
screenpoint
scriptableobject
sellersku
semanticworld
sendevent
sensesource
seperated
servicesettings
setupaction
shapefile
shiny
shipments
simplexwrap
sitename
snappy
snippets
sobject
sourceproperty
spanning
spo
sqs
srcnamed
stackpanel
startpos
stashed
strategies
stripe
structured
subfolder
submeshes
subscriptiontype
substituted
successive
successpositive
sugarcrmcredential
summarytype
suspending
svncommitresult
tableauserversignin
tagsobject
targetdirectory
targetfile
tconfig
teammemberid
teardown
temena
teventargs
textspan
theory
theresulting
thisvalue
thresholds
timeoutms
timestep
tlds
todetermine
todos
toggled
tooltips
topath
tpmalgid
tpriority
transactiontype
triangular
tscanningactivatordata
tsingleregistrationstyle
tstatemachine
typesystem
uint64named
unformatted
unhandledexceptioneventargs
unlocks
unmapped
unparsed
updatesourcetrigger
updatevaluefactory
usedby
usercredential
useridentifier
useridentity
userprivacypolicy
usethe
utilizar
uuid80
v1order
v2alpha1job
validators
validfrom
versionof
vertexlabel
viewid
viewportheight
volumeto
vsitemid
vulnerabilityassessmentname
warningsnegative
watches
webbrowser
wheather
wherereading
wherethe
whichare
withoutchanging
wlb
wmg
workload
x509
xmlnodenamed
xmlstring
zahlungsbedingungen
zipreader
##2dnamed
##2x2
##5r
##ablenamed
##ably
##accountform
##accountpreferences
##acher
##adminaccount
##ados
##align
##allback
##alues
##ands
##annotations
##appropriate
##appslist
##arget
##arm
##arraysize
##ases
##attempts
##attributename
##average
##bases
##browsersidebar
##builderoptionsaction
##cacheparametergroup
##callmessage
##cardsresponse
##categoryid
##cc
##changesrowfilteroption
##chapcredentials
##ching
##cia
##claim
##clusterrequest
##completedeventargs
##contentinstance
##createstruct
##creatingreturns
##creation
##curves
##customerresponse
##dds
##dealoperations
##ders
##descendants
##descriptornamed
##deviceposition
##diagnostic
##directories
##discsivolumes
##dobject
##download
##drive
##dtonamed
##duct
##earches
##eature
##efinition
##encode
##endants
##ene
##ening
##ensure
##entryresult
##ents
##ered
##eroptions
##eventargsnamed
##executedcontext
##exnamed
##expired
##faces
##fail
##favoritesdata
##fe
##filedialog
##filternamed
##finding
##finished
##formatting
##formed
##fullpath
##games
##gatewayrequest
##geofences
##gistro
##grade
##herence
##hip
##ho
##hours
##ht
##iampolicyrequest
##iant
##ibility
##icating
##ications
##ider
##ience
##igibility
##imagedata
##inactive
##inates
##inboundconnection
##included
##includes
##inforesponseserializer
##infotype
##inite
##initializer
##inkprovider
##instancesrequest
##integrationassociation
##interested
##ipe
##ipsis
##isputeevidenceresponse
##itation
##itemmodel
##iterator
##ivables
##ivate
##iver
##joined
##kmsencryptionkey
##lane
##launchprofile
##launchprofilemembers
##lice
##lider
##lifecycle
##listrequest
##lon
##lute
##mazon
##mber
##mbfileshare
##md5
##measurespec
##mediate
##mentrequest
##mission
##modeloperation
##motor
##mple
##mt
##multiplication
##namingconvention
##nfsfileshare
##nickname
##night
##nodegroupsinglobalreplicationgroup
##notifications
##ntifiable
##nue
##objectname
##ocation
##ok
##olver
##omain
##ond
##online
##opsitemrelateditem
##optionnamed
##orpayload
##ory
##osed
##oth
##ounds
##outcome
##oy
##paint
##passes
##phone
##pixel
##pl
##placeindexrequest
##plate
##plicity
##portfolioaccessmetadata
##portfoliodetails
##ports
##pped
##preference
##previously
##processornamed
##profilerequest
##profiles
##protocolslist
##provideroptions
##proxyoptionsbuilder
##ption
##rable
##rain
##ram
##referenced
##registries
##related
##reliable
##representation
##requesttype
##resourceshareinvitation
##resourcesharepermission
##responses
##restclient
##rf
##rice
##rict
##rix
##round
##routecalculator
##rowkey
##rr
##rts
##ruct
##scan
##scount
##searchresponse
##searchstring
##securitytoken
##setup
##sheet
##smanager
##srequestnamed
##station
##stop
##successful
##suffix
##sult
##tabledataimportjob
##tablerowsrequest
##tage
##tainer
##tangent
##tapepool
##targetnamed
##tatuses
##tax
##tbox
##textwriter
##tform
##tical
##ties
##tn
##todate
##tolerance
##toolstripmenuitem
##toragelensconfiguration
##toragelensconfigurationtagging
##toread
##touse
##treamingimage
##trongtype
##tudiocomponentrequest
##tudiomember
##typeenum
##uad
##ubject
##uir
##uming
##ummaries
##ump
##uncertainty
##unch
##une
##usergroup
##usly
##variance
##vectors
##verified
##vious
##viscosity
##visor
##voice
##windows
##x4
##xel
##ym
accelerationunit
accountnamed
aceflags
acknowledgerequest
acknowledging
acrcloud
actiondescriptor
activationtype
adaptivefiltering
adaptivetuning
addedto
additions
addressed
addressfamily
adjusting
aligning
allocating
allocatingany
analyse
analyzerreference
anonymousrequest
aoi
apart
appdata
approve
aquired
arenot
arraybrowserdata
arxivar
assembler
assemblydefinition
assignmailform
asymmetric
atentensor
attacking
audiotype
authcode
authorizationrulename
autocompletion
backslashes
bands
barrier
basestat
basetuning
battery
became
beep
bidirhashtable
binaries
bitmaps
blazor
blockhash
blocky
bootstrap
boundexpressionnamed
bower
branding
breaktype
browsable
bsonvaluenamed
buildnr
builtin
bungienet
callee
callsign
callsite
camerasetup
canbeacknowledged
cap
catalogitemvariation
catches
cdf
cefsharp
celltype
changedto
changetype
changingfrom
chatmessage
checkoutid
cid
clantag
classscope
coalesce
columncaption
comparemethod
compiling
comprising
conceptual
configureservices
containment
continued
conventional
coredispatcher
cosecant
courses
crabpot
createrule
creatures
customname
cylindrical
datafile
datagrid
dea
deactivates
death
decorators
decremented
delays
deletedetector
denoting
depths
destvariable
developers
devicecode
dftlength
diagramobjects
diameterhole
dicomtag
differential
disallow
discounts
discovers
discoverymethod
disturbance
docid
documentclient
dotted
dsss
dumped
dynamicinvoke
eagerly
earn
efficiency
efqs
empties
encompass
enhanced
enrollment
erased
err
eventnamed
evidently
exceptionhandler
exceptionif
excludetag
expander
expensecategoryid
facet
faction
factorymethod
fals
fastersession
figures
fileproperty
filesize
filterstring
finnish
fktable
forceunit
formatters
friday
gamedata
gen
geometrycollection
geovector2d
geovectornamed
german
gettargetvalue
givenname
gmt
gold
gotten
grantaccessdata
granting
gridlength
guessed
guideto
hair
havebeen
haystack
hclsupporteddrivername
hdcusing
heat
hexidecimal
hfile
histogrambase
hooked
hotools
humidity
icache
iconstructorbuilder
iconsumerregistration
icontextmenu
icouchbasecollection
idatabase
idataviewnamed
idenfier
idextractor
ifno
iinvoicenamed
illuminance
imageattributes
imagedata
imagehandle
imagetype
imemorycache
imethodsymbol
imf
impersonalaccounts
impl
implementer
inamedtypesymbol
inch
incomingmessage
inconsistency
indata
inf
infers
informing
initializeit
initializers
inotifyingproperty
inputarray
inputfilepath
inputseriesnames
insidethe
inspection
instrumentationkey
intcube
interac
interpolates
intersected
inventoryrequest
inverts
ipaddresses
ipendpointnamed
ischemaregistryserializerbuilder
iselectinsertable
itemlist
iterated
itext
ivirtualnetworkgatewayconnectionsoperations
ivsproject
japanese
keyidentifier
kimonocolor
kimonoportfolio
koordinata
ladder
lastindexof
lastplayed
leagueid
leg
lengthedobjecttarget
lexical
licenses
limitations
linenamed
liquid
listitem
livenodepacket
localised
localpath
logexclusion
logsignature
logtype
luascript
mailslot
maintains
mapfn
matnamed
measurespecification
mec
mediasession
megabytes
mentalcommand
meshfilter
messageproperties
metervalue
methodbasenamed
micheline
mined
minimize
minimumvalue
minisignsignature
missile
modbus
modifieroptions
moneynamed
monomial
moreinformation
mycluster
myinstance
nameid
nameproperty
namespaceids
needing
needle
netresource
newappid
nextverse
nhs
notificationid
notspecified
nulls
oco
ocr
offsetx
oofsettings
opencv
opscenter
organizationuser
outbox
outdated
packagelabel
packagemap
pageddatasettings
parameterize
parameterprops
parcel
parentnameoneof
parsedfunc5
partnercardinfo
pathstring
pathtobuiltproject
paymentcollectionmethod
pdfcleanup
peptide
permits
permute
persistedfaceid
persister
pings
pinnumber
pinvoke
pktable
plist
plots
poacher
pointstoprincipal
poolfirst
postdata
postion
preconditionnotmet
preloaded
presumption
principals
processoptionsffmpeg
productcatalog
projectinfo
promote
propertytab
propertytocolumn
protobuf
provenheaders
proxyroute
quantized
querymetrics
querymodel
quizzes
rangenamed
rapid
reacting
readerwriterlockslim
reasonable
redacts
redraws
reducer
reduceright
reflog
regexes
regionname
register3
registeroptions
registros
relational
requestmethod
requiredservicetype
ressource
resulterror
revenuetype
revoc
rightmost
robots
rotator
roughly
rowdelegate
safemode
sampletype
satisfying
saveas
schemename
scm
searchresponse
searchspecification
secretstorebuilder
securityitem
seem
semantically
semanticmodel
serialised
serializerbuilder
setters
setthe
shaped
shardresolver
sharetype
sheetname
shelf
shiftid
shooter
signingsettings
silohandle
sim
simpler
skipifexists
skterrors
smapi
socialnetwork
socketclient
sorteddictionary
sortedset
specflow
specificwhen
speedunit
spentat
spins
splines
stand
startaddress
startline
stateful
statusnotificationrequest
stmtnamed
storedprocedure
students
submesh
subscriptionstate
subsscription
succesful
suitability
sun
suspends
swedish
symbol5
synthesized
table1
tableobject
tagvalue
talk
targetcolor
task2
taskform
taskscheduler
tcm
tcollectionitem
tcontroller
tdelegate
teamworkfileform
templatetype
ten
tenor
tensornamed
text1
textblock
textboxes
tgroupkey
thecorresponding
theerror
theone
theresult
thisparameter
threema
throttled
tickets
tinput1
tinput2
tinyioccontainer
titlebartab
tld
tnewvalue
toan
totals
touppercase
tpropertyvalue
trail
trainer
transactionids
transducers
transferconfig
tsearchresult
ttransition
tuser
tweak
unfolded
unitcategory
unlimited
unpivot
unwrapping
updatesnapshot
upsertable
upto
usefulto
userinput
util
uuid64
v1page
validatednotnull
validtill
valuationschedule
valuename
varnombre
vaultname
vector3wide
videos
viewmodeltype
viewportwidth
virtualstream
visualization
volumefrom
volumeunit
vpc
wantto
watchdog
weapons
weighting
whencomparing
whitelisted
windowheight
windowwidth
wintellect
wiring
withdrawals
wmi
workaround
workercontext
worth
xmlnodelist
xpsdocument
yellow
yielded
yml
yuv
##232r
##3named
##ableobject
##actioneventargs
##actoring
##addresses
##afe
##aging
##allocated
##allocation
##allow
##alpha
##alt
##amespace
##apnamed
##arity
##around
##asstring
##assumes
##aterequest
##atically
##ats
##awaiter
##ba
##background
##bag
##bank
##been
##boarding
##bug
##buildkey
##calculator
##categorydto
##channelnamed
##chatid
##checking
##cillator
##clientoptions
##cmd
##collectionitem
##commandbuilder
##compliancerun
##contactflowmodulerequest
##contactrequest
##corporateactionsource
##could
##dataframe
##deal
##debugger
##decorators
##density
##descending
##desired
##directly
##dirname
##documentid
##duty
##eat
##efficient
##elated
##elementtype
##else
##endpointconnectiondata
##ened
##enger
##ense
##ente
##enums
##eptor
##erform
##errorcode
##etup
##eventsresponse
##ew
##except
##executionresult
##expressionsyntax
##exture
##factors
##ffix
##fies
##filenamed
##filenames
##fileprovider
##flush
##frombackup
##fromfile
##generate
##geofencerequest
##gg
##gis
##gma
##grab
##guids
##gy
##hashset
##hes
##holding
##hood
##hook
##hoursofoperationrequest
##house
##hrounously
##ially
##iated
##ices
##ief
##iency
##igabytes
##ild
##iling
##ilio
##implements
##inary
##inator
##inder
##indicator
##insert
##insertdto
##inspector
##int16
##interfacetype
##ionally
##iontype
##ios
##ious
##iring
##irl
##irth
##iscount
##iso
##itize
##itself
##ives
##jection
##kh
##land
##large
##lected
##letter
##lg
##like
##lled
##loggeroptions
##logy
##lottyperequest
##lst
##main
##mentsoperations
##methodname
##mnidirectional
##moving
##multiedge
##mutations
##nabled
##ncies
##ncing
##ndo
##needed
##needs
##ngle
##nter
##obstructed
##ocate
##occurs
##oe
##office
##ogram
##oint
##olor
##onpage
##ontext
##oon
##ord
##ordefault
##ormal
##orrow
##ourcefile
##packettype
##pect
##perpage
##places
##plus
##pment
##pointertype
##pproved
##preview
##protected
##prototype
##proxynamed
##pu
##pubkey
##que
##quoteaccessmetadatarule
##rams
##rant
##readernamed
##reds
##referenceexpression
##refnamed
##requestoptions
##responsexml
##retrieval
##rgb
##riate
##ribed
##rical
##rights
##rium
##rng
##rocess
##rolename
##romium
##routedeventargs
##rovider
##rulebase
##ruple
##rypt
##sb
##scores
##searches
##seed
##servicename
##shed
##sis
##sm
##sourcenamed
##sources
##stability
##starttime
##stion
##streamnamed
##struct
##substance
##successfully
##supplied
##tab
##tk
##tled
##tomatch
##tools
##trainers
##transactionresponse
##transformer
##transitions
##treeiterator
##triple
##typespecified
##ubscriber
##uery
##ugh
##ully
##ulus
##unce
##unchanged
##uns
##upon
##urance
##urity
##v8handler
##validator
##vdata
##vector2
##vidence
##virtual
##volumerequest
##volve
##wave
##ways
##webid
##well
##were
##wrappernamed
##written
##x2
##x3wide
##xpression
##xtype
##zza
aaddomain
abnormal
abstractentityvalued
ackdeadlineseconds
acquiring
activo
actorsystem
addvertex
adult
air
alternating
amend
amended
analog
anexisting
angularspeed
argumentexceptionmessage
art
assemble
assetpath
assumptions
atoms
attitude
attributevalued
aunt
authenticationproperties
authenticationresult
authorid
autoid
automationid
averaging
bankconnectionform
bare
bas
basing
bat
beach
becreated
beginmode
behave
bethrown
blade
brazilian
bttnfe
bucketedcashflowrequest
buffering
cadena
callinvokernamed
callout
capacitance
cardtype
carousel
carries
cassandra
catalyticactivity
cecil
channeltype
chapter
characterid
chargeboxid
chartid
chartnamed
chatlist
childelements
choosing
classify
closepositionbody
closetradebody
cloudblobcontainer
clustercreateparameters
codeanalysis
collisionmask
combinator
commas
complexmarketdataid
conductivity
conf
configurationname
configurationscope
configureaction
connectinstance
consumertag
contest
copyright
cosmositemrequestoptions
counterclockwise
countername
creditcardattributes
crossconnectionname
crossing
cryptographically
csg
currentitem
currentstate
currentuser
customconvention
customizebundle
custommeterdimension
cyrilic
databse
dataencryptiontype
datain
datetimes
dbtableschema
deactivating
dealid
dealt
decimals
decompression
decreasing
defaut
defect
deg
deletedocumentrequest
delivering
departments
deselected
destinationdirectory
destruction
detectedapp
devicetype
dimensionstyle
directives
distinguishingfactor
div
divisible
dlaccessentities
dnsaliasname
domainorganizationrole
driven
durable
dynamicentitymetadata
dynamicnamed
dynamics
educationclass
electricalconductance
electriccharge
elementselector
ellipsis
encrypteddata
encryptiontype
energyunit
envelopetype
equalitycomparer
erasing
errorcategory
errormode
establishing
exceptionmessage
existingvalue
explorervariable
extensionto
extractexistingfile
facebookdelegate
factored
fastest
fax
feel
feerate
fhir
fileexport
fileextension
filepathnamed
finalize
findings
firsttemp
flashing
flexibility
flipping
fontfilereader
footing
forceperunitless
fore
foreignkey
forestcell
formatspecifier
forpost
frameeventargs
frist
froma
fromangle
fromid
fullindexsearchrequestdto
gac
gamejolt
gatewayname
gemologist
generatedassetsdir
getphonenumbercategories
gherkin
glu
glyphs
gradientstyle
graphicsdevice
gray
gridcell
grpccore
gsstar
guildid
handy
hashalg
hatchstyle
hay
headingmode
heart
hierarchynode
hinstance
hive
hotspot
hourregistrationcreate
hpio
hsimode
hsioutput
htmlnodebase
httpclientnamed
httpconfiguration
huge
ialgorithm
iamdomaingroup
iauthorizationpolicy
icontentnamed
icreditcardattributes
icurvenamed
idatareadernamed
idbcontext
ideally
identifications
idholder
iequalitycomparerto
ifile
igraphqlbuilder
ihealthchecksbuilder
iid4msservicebuilder
iinvoice
ilinksource
imagefile
imagenamed
imfmediasession
immutabledictionary
immutablelist
imodelinspector
impossible
inches
inconsistent
indeed
index1
inductance
inertial
infura
inspecting
instanceof
instanciate
integrationframe
interactables
interfaceinto
intervaloffset
ip4
ipv6
iqfeed
isclosed
isdefault
iservice
iserviceregistry
isessionsummary
isourceblock
isqlmapper
issueing
istestmode
isubspacelocation
isupdate
it4directive
itemsthat
iterable
ivariableinformation
javascriptvalue
jerk
jobdetails
jointype
jumping
key2
kimonocore
kunostack
lcd
lengthperunitless
lifespan
lifestyle
lightsail
line1
line2
linkedlist
listnamed
listtype
loadable
loadfast
localposition
lockerstationid
logins
logkey
losing
luminousintensity
mania
mapnamed
marketplaceid
maskprofileschemadto
massflow
maximize
maximumlength
maxwaittimeinseconds
mechanisms
memorycache
merchants
messagedata
messagesender
methodis
mfd
midnight
miny
mismatch
moderators
modulename
mosaic
movingaverageconvergencedivergence
mtexture
multiplexer
nation
nestinglevel
nodemodel
npgsqlconnection
nullptr
numberstylesnamed
numpoints
nyquist
objective
objectto
octal
offsety
ofis
ofto
oftype
onlythe
ora
orchard
outercomposite
outermost
outlook
outputfilepath
ouyasdk
parsedfunc6
parserinternalstate
partitioncomparer
partners
paymenttermform
pbkdf2
pdfpage
ped
penalignment
percolaterequest
perfect
personnamed
pettype
pixeltypenamed
placeholders
planetary
playbackhandle
polled
poolname
positioning
positionz
postcode
ppssource
precede
preprocess
prioritize
prism
processdocid
processstartinfo
productvariant
progressbarparams
promotes
propertygraph
provisioningstate
psweb3httpurl
pumped
punctuation
pvoid
qualifiers
quat
querybatch
queryforlist
queryjson
querytriggerinteraction
quotas
rasd
reconciliation
recordset
recordthe
recovers
recreating
rectint
referencedby
reflecting
refreshtoken
regexpattern
registrationeventnamed
regulations
remactportservice
removals
replays
replicates
repositoryid
resetcache
resourcedictionary
respectobservers
retrives
rgb32value
rough
routecollection
routefiltername
rpg
runsettings
russian
safefilehandle
safehglobalhandle
savedwithout
scanningactivatordata
scenebrep
searchvalue
securitysettings
seeworkingwith
selectedobject
selectquery
separating
seperate
serializerformat
serviceendpointnamed
sessionconfig
setoptions
settingname
seven
shells
shortcuts
showdown
significantdigitsafterradix
signingcert
sigschemeecdaa
sigschemeecdsa
sigschemeecschnorr
sigschemersapss
sigschemersassa
sigschemesm2
skcanvas
skilltype
slab
smt
socketnamed
solving
sounds
sourcecontext
sourcetextnamed
specificvolume
specifiedfile
specifiedposition
spinner
splash
sport
sqlmap
sqsqueuename
srs
sst
startcontactrecording
startnode
startoptions
startyear
statename
stdin
steeldbobjectnamed
stringify
subrow
subscriptionrequest
substancevalued
succesfull
sucessfully
suspendingeventargs
syllables
sym
syncinedge
syncinmode
syncoutmode
syncoutpolarity
tabla
tableview
tabpage
tangibleobjectbase
targetentitytype
targetpath
targetprincipalname
targetrealm
tbl
tecture
templatecontext
templatespecversion
tend
tensors
tentry
testrun
textmanager
textview
tgraph
thanthe
thatit
theapplication
theattribute
thebuffer
thecursor
thefunction
theparameter
thepassed
therein
theunderlying
thisfunction
thisoperation
threemaid
tier
timerange
tipe
tmock
tmodelnamed
tocamelcase
tojson
tokenize
tokensecret
tolowercase
topascalcase
tor
toreplace
totally
tracelistener
trackablehit
trackball
transactionnamed
transferconfignameoneof
transparency
transports
traversed
treenodenamed
trimming
trophy
tryparse
tryte
uma
unchecked
uniquename
unmodified
unpacks
unsecure
unwrapped
updatesource
upserted
userdefinedfunction
userlogininfo
userqueue
usertoken
usertype
utf32
validationexception
validations
valueis
valueselector
valuesof
vector2dint
viewmodelmapper
visualelement
visualstudio
volumetricflow
voronoi
wallets
wavefront
wavenumber
weekend
whichprofession
whitespaces
winforms
winning
witch
withdraw
wlan
workingwith
writeline
xrbaseinteractable
xrnode
xsl
zeroes
zyan
##1named
##2232h
##232h
##2b
##4232h
##accessexception
##accountid
##accounts
##ached
##acial
##across
##actualizacion
##adjustment
##agentname
##aking
##anchorposition
##ardtemplateitem
##arms
##arse
##assetpaths
##asynchronous
##asyncresult
##atamodel
##atarepositoryassociationrequest
##atawriter
##attached
##attack
##atus
##ause
##authenticationticket
##av
##availability
##availabilitymonitortest
##baseline
##bat
##binary
##books
##boolean
##botrequest
##bottom
##boundary
##break
##brew
##buildnamed
##busconfigurator
##byindex
##cacheentry
##caller
##cannot
##cator
##ccessary
##changeeventargs
##channels
##ched
##chunks
##cial
##cid
##city
##classification
##cle
##closingeventargs
##clusions
##cm
##compaction
##compiled
##contentnamed
##contextprovider
##continuationoptions
##converts
##cord
##countrycode
##credited
##cting
##ctured
##cube
##currencies
##datareader
##dclient
##ddress
##delegatenamed
##den
##detectors
##digits
##digo
##dimensions
##dist
##dit
##dl
##dn
##downloaded
##downloader
##dump
##eddata
##efault
##effects
##elete
##elf
##ellation
##els
##ember
##encies
##entifiers
##ept
##ersonal
##etch
##etectorversion
##eter
##ettingsrequest
##eve
##eventid
##evice
##externalmodel
##fector
##filesystems
##fire
##fish
##fnamed
##following
##ga
##generictype
##gestion
##graphic
##graphics
##green
##gregate
##groupsrequest
##handlernamed
##handles
##hare
##heetnamed
##helperbase
##hesis
##hic
##hift
##highlight
##historyrequest
##hits
##hod
##hooking
##hostbuilder
##httpclientfactory
##httpresponse
##hubname
##ialization
##ialog
##ians
##iating
##icated
##icio
##icular
##idswhen
##iesrequest
##ieved
##ifiers
##ifnotfound
##igator
##ights
##ilarity
##ilobytes
##imal
##inamed
##inchildlevel
##inforce
##ingdata
##injector
##inspected
##instancestorageconfig
##intentrequest
##intervaltype
##intion
##invite
##invoiceresponse
##ional
##ior
##ipal
##iq
##irectional
##irectory
##isabled
##isticalunit
##iting
##itute
##itution
##ivating
##je
##jobs
##jsonschema
##kin
##lab
##lambda
##lame
##lass
##lateral
##lazy
##leave
##lefono
##lers
##licate
##licepitch
##lineitem
##lining
##lities
##live
##llman
##lls
##localidad
##logicalname
##lood
##loss
##lready
##macaddress
##maprequest
##mastermapping
##matched
##mentname
##mentstatus
##meter
##metry
##minator
##modelversion
##modifieroption
##modules
##mpl
##mpt
##namefilter
##namespaces
##nant
##nent
##networksettingobject
##ngine
##nodeleft
##noderight
##notificationchannelrequest
##notificationresponse
##npi
##nslation
##nst
##nto
##numberrequest
##objectstatusmessage
##objectvariable
##ocated
##omanager
##ommand
##omp
##onal
##onfailure
##ontent
##onutc
##oo
##ood
##oper
##optional
##ordered
##orderupdate
##org
##ornumber
##osing
##osite
##outputs
##ox
##pagingprovider
##parallel
##parametertypes
##paramsnamed
##parator
##partdefinition
##parture
##pdf
##performed
##performs
##pic
##plcorrection
##plicative
##plies
##plification
##pmsg
##pod
##poolgenerated
##posing
##pot
##primitive
##processid
##profileresponse
##progressbar
##protocolsetup
##proxyoptions
##pulated
##pus
##qual
##qualified
##querybuilder
##quickconnects
##raised
##ral
##rand
##rangenamed
##reads
##recoverable
##redeemeddealinfo
##refundresponse
##regex
##registered
##renderinfo
##rendering
##representing
##requestdata
##requestid
##resetevent
##resourcedata
##resourcemanager
##resourcepolicy
##resourcesharerequest
##rg
##rily
##roject
##ronous
##routeparameters
##rulegroupbuilder
##samples
##sand
##sdk
##sequences
##sequent
##sequently
##servers
##sex
##sfor
##shared
##sibly
##sign
##signature
##sinkoptions
##sist
##sites
##skill
##son
##standard
##startindex
##static
##statustypes
##sub
##sue
##symbolnamed
##tablerequest
##tape
##tartup
##taskcontext
##taskrequest
##tator
##ten
##tenant
##tendee
##tener
##textures
##thing
##tice
##tochange
##tocreate
##toinvoke
##toparse
##torageaccountname
##tosend
##trackerrequest
##transition
##tre
##tributions
##tringlytypedpathoperator
##tructing
##ttings
##type1
##ubscriptionresponse
##uced
##uckload
##uctor
##uilder
##ularity
##umb
##unciation
##unitofwork
##unmanaged
##upd
##uploadbuffer
##urable
##uration
##urfaces
##urns
##usive
##uter
##uture
##v1
##v8accessor
##vailable
##valueconverter
##valuenamed
##vance
##vbuilder
##vents
##verifier
##versing
##viation
##vide
##visual
##vp
##win
##writernamed
##xception
##xis
##xn
##xproject
##ydrate
##ymbols
##zar
##zation
2auth
31t23
59z
80211n
aborts
absolutepath
accountentity
accountindex
accumulates
acting
activatable
activations
adb
additionalfromclause
adjustlastpagewhenexceeding
adspath
advertisement
aggregator
alerts
alformat
algo
allowedmentions
alone
amazonfsx
amazonfsxclient
amazonweb
analyzequeryresponse
anchors
andrequesting
andtimeout
anif
annotationsexporterparameters
ansible
answered
appserviceserver
apra
archetype
arereturned
argname
armor
assemblybuilder
assessed
assist
assistant
associateadminaccount
asynctask
attacker
attemp
atwhich
audioframeconverter
authenticationtoken
authorizationcode
authorizationname
authtoken
autostart
backgroundcolor
backgrounds
backimage
backimagewrapmode
backsecondarycolor
badparameter
barchart
becoming
bindingexpression
blit
boards
bond
boost
brainspecbase
browsers
bsonexpression
bttclaim
bufferoffsetinbytes
buildingid
buildkey
bulgarian
bundler
buttonpressedeventargs
buttontype
byname
cacheprovider
cake
calgo
calledwhen
calltype
cameramodel
camlquery
capped
cardfile
carried
casenumber
castable
catmull
cbddnode
cdc
cellposition
centraltendency
chacha20
chap
chartcontrol
charthatchstylenamed
chartimagewrapmode
chessmove
childwindow
chronological
cim
cities
classpeernetworksettingobjectnamed
cleanupproperties
clearingnumber
clienttype
cloudqueuemessage
cloudstorageaccount
cmac
cms
codefixes
codevalue
collision2d
coltype
commodityid
commonelementsnamed
compundshape
concat
concurrentqueue
conference
confirmationmode
conformingto
connectionitem
connectionnamed
connectorid
consolestring
constantexpression
constrain
consumersecret
containedwithin
contenttypeid
contenttypes
convenient
conversationid
cope
cores
correlates
cosignature
couple
crear
createbackup
createfilesystem
crust
csla
ctr
currencies
currentis
currentnode
currentposition
cursors
danger
dangerous
dappchain
data1
data2
databaserid
datas
datastream
datatosend
dataview
daterangetype
datum
daws
dayentryid
dbrp
deallocate
deciding
declaringtype
decrypting
deletebot
deleteinstance
deletemodelrequest
demonstrate
denotes
depthimage
describevolumes
desire
destaddr
destinationchain
destinationrowpitch
devbuild
devicehandle
dfa
dia
diagnosticresultlocation
dictate
divider
documentquery
downloader
drafts
drawitemeventargs
dscp
dual
duck
dukascopy
dwoutputstreamid
dynamicobject
dynamicregistrationstyle
dyngeometry
easter
ecc
eddbid
edgeselector
editors
elasticpoolname
eliminating
elsewhere
encodingtype
endorse
endx
ensurethat
entityview
enumerators
essential
estudio
etimeframe
eventnumber
evicted
expectedassetsdir
expectedreference
extensibility
extention
extern
facenamed
fdbpath
fdbpathsegment
featurename
filecontents
filtertype
findtext
floors
fluidsegment
folding
forgetypeid
forked
formid
forums
freed
fromeach
fromscratch
ftpclientnamed
fullfilename
gathers
genericservices
geocodes
geofences
getdata
getscreendata
getsourcevalue
getstreamingsession
gid
giventype
globals
gpsfix
graphserviceclient
graphset
gridsquare
grove
handed
happiness
hats
hearing
heights
helpers
hms
holiday
hwndparent
hyperedgeid
iactionresult
ialpacadatastreamingclient
iasynccommandservice
icanexecutesubject
ichannel
icollectionview
iconsole
iconventionentitytypenamed
icredentials
icssvalue
idatacontext
ide
ideal
idefector
idorkey
iencounterable
iestimator
ieventfilter
iflurlrequest
iinvokeactivity
iio
ikeyedinput
ikeyencoding
iloggingbuilder
imember
imfsample
imongodatabase
imonitor
impersonation
inboundnatrulename
includeassignabletypes
inetworkpeernamed
inflate
informationabout
informed
ingredients
initalizes
initialcp
initiator
inlinecollection
inotifycollectionchanged
inputarraynamed
inputdevice
inscreen
inspectors
instancedescriptor
instanceis
instruct
interference
internalerrorexception
invokescreenautomation
iorganizationservice
iothub
iplayernamed
iproviderconfiguration
ipubsub
ireadonlygenericpropertyhyperedge
iresponsefactory
irunnable
iscalled
iscriptcommandnamed
isegment
iskillbinding
isnmpmessage
ispersistent
isset
italian
ite
itemnamed
iteratively
iterators
itestframeworkexecutionoptions
itransactioncontextnamed
itransformer
itwith
iupnpdevice
ivalueinsertable
ivaluewrapper
iview
jitter
jobjectnamed
jsastnode
jscontextnamed
jsondata
jsonwriternamed
kerbal
key1
keyframes
keypress
keyvalue
kii
kimonoshape
landscape
lane
latidude
layoutedge
layouts
lcid
leak
leftcorner
lighting
linkedlistnode
listif
listqueues
listtransactionsresponse
localhost
localizedstring
localname
localonly
locationids
locationnamed
loganalytics
logprobs
longitud
lookahead
luisresponse
lumina
magnifier
marketplacewebservice
marketplacewebservicenamed
matrixnamed
mattervalued
maxlen
maxpagesize
maxretrycount
meaningful
mehtod
membertypes
messageboxbutton
messageboximage
methodcan
methodsince
methodwill
metric1
metric2
miliseconds
mipmaps
modfile
moduledefinition
mongodbwatcherconfiguration
morethan
mp4
msgout
proc
multiaddress
multidocumentquery
multiedgeid
multiedgelabel
multipartformdatacontent
musicfile
muted
mutual
naive
nameof
negate
negates
nerr
nettool
networkcredential
neurons
newdocument
newenabled
newsize
nexus
nibble
nicely
nitrous
nodebase
nonserializablecontent
nosdb
notidempotent
notifier
notregistered
novel
nsudo
numfolds
objecthandle
objectstoconnect
obstruction
occlusion
occupy
odbc
ofproperties
ofthis
openshift
operatingsystem
operationcanceledexception
operationprocessorcontext
optionalvertex
optype
ordernumber
originator
orthe
ospprivacypolicyinput
outputfile
outputting
packagemanagerclient
painted
parallelizes
parametros
parented
parenttaskname
parsedfunc7
partialvalidationsucceeded
participate
pathsegment
patientvitals
paypal
pdupropertydetail
perferred
permit
persisting
phx
pidl
pointat
pokemon
policybuilder
pong
portuguese
posible
positiont
postingdate
postpone
precesses
predictions
preload
presigned
propinfo
protector
prototypeloader
ps4
psettings
publicaccesstype
purged
pyramid
quickreply
rabbitmq
rangemode
ranked
rawvalue
rays
reactions
reactjs
reconfiguration
redeem
redirection
regionid
regioninfo
regvalue
reloading
renamed
rendercontext
repeatable
replacer
reponame
requesttoken
requisite
rescale
resend
reservationtype
residence
respawn
responsetype
restoredbucketmappings
restoring
restricteduser
resultproperty
retains
retrievalmode
returnes
reusable
reveal
rewards
rewind
rfc3339
richtext
rmim
robotprog
rocksdb
rootdescription
rootpath
roslyn
roster
routeprefix
rowfilter
rulesmaster
runworkercompletedeventargs
rus
safehandle
saml
sampler
schoolbus
scrolled
sea
sealedenvelope
searchid
searchihi
searchparameters
seating
secretkey
seeking
separation
serialise
serialises
served
serverid
servicenamed
serviceurl
sessionname
sha384
shapesnamed
shipped
shoots
shuttle
signaturetype
siteextensionid
sitting
skillstat
slippage
solutionpathname
sourcefilepath
sourceindex
sourcereader
sourcerowpitch
spanbyte
spectra
speeds
spuriously
sqlquerydependent
ssid
sslpolicyerrors
sslstream
startdatetime
startimport
startswith
statedefinition
statemachinedefinition
storetype
streammetadata
stringformatnamed
structurecomponent
successes
svm
symbolnamed
symbolset
symmetric3x3
syncing
synthetic
tactivatordata
taginfo
targetobject
targeturi
targetvalue
taskworkid
tclaim
teamname
telemetryconfiguration
testnet
textbase
thin
thisobject
threw
tilenamed
timeoutprovider
timeperiod
timeslots
timethe
timetype
timezoneid
timezoneinfo
tinfo
tinyhandobject
tlayer
toodata
toolstripmenuitem
torder
totalcount
tour
toward
tparam1
traced
trackablehitflags
tradebar
tradepair
transformbuildercontext
transmitter
treevieweventargs
treflectionactivatordata
trueif
truetype
tsixth
ttriggerentity
twokeyhashtable
typethat
typeto
typetoconvert
udfinfo
unary
unlinks
unloading
unmatched
untiladdress
updatedocumentrequest
updatemask
upnpstatevariable
upvalue
upward
upwindow
userdataentity
utilities
valueauth
varint32
vector2fnamed
velocities
vietnamese
viewname
violation
virtualmachine
vmfirst
vsid
w3c
waithandle
waittime
wake
walkable
warns
wasset
watched
weaved
webcam
webp
webpack
wherenecessary
wherewriting
wild
wishes
withrepeats
wms
wnetenumresource
wonkaethsource
wordid
workbookchartareaformat
workspacemodel
writeable
x509certificate
x509certificate2named
xdt
xmlelementnamed
xmltextwriter
xna
xnamespace
xrds
xxx
yarn
yaxis
yielding
zune
she
laughter
applause
thank
her
thought
school
women
love
believe
million
imagine
science
thinking
talking
kids
told
man
okay
young
saw
myself
living
education
dollars
amazing
men
billion
earth
society
learned
everybody
stories
knew
africa
united
heard
hope
government
night
reality
saying
companies
woman
study
yeah
cars
century
disease
cancer
hear
powerful
thousands
beautiful
difficult
felt
trust
ideas
happening
worked
fear
somebody
american
perhaps
guy
gave
america
economic
violence
eyes
economy
blood
china
happy
york
technologies
realized
anyone
humans
seeing
animals
began
god
born
incredible
teachers
absolutely
hundreds
political
ted
feeling
poor
carbon
hands
nuclear
industry
law
growth
oil
europe
millions
eat
girl
scientists
realize
climate
growing
teach
india
tiny
wonderful
developed
guys
dream
kid
understanding
brought
modern
everywhere
lab
explain
girls
schools
university
land
mental
truth
biggest
journey
cool
crazy
incredibly
literally
computers
hundred
revolution
societies
wrote
miles
obviously
south
nobody
democracy
baby
nine
die
developing
showed
pain
loved
mom
solar
teacher
institutions
suddenly
fun
son
extraordinary
scientific
innovation
medical
wife
crisis
medicine
college
died
leaders
truly
electricity
grew
park
sit
anybody
communities
exciting
fly
teaching
creative
fight
politics
thousand
brains
certainly
hospital
individuals
morning
talked
thanks
african
governments
malaria
ocean
particularly
poverty
taught
wonder
biology
forest
drug
film
speaking
worse
driving
humanity
military
museum
police
boy
clearly
dance
diseases
standing
##ists
compassion
develop
decades
drugs
peace
experiences
remarkable
west
fundamental
helped
matters
village
ancient
colleagues
himself
insects
surgery
treatment
wind
familiar
female
glass
highly
nearly
doctors
evolution
somehow
bed
bees
religion
silk
victims
coal
hey
paid
unfortunately
citizens
daughter
emotional
era
passion
serious
streets
terrible
bringing
dad
engage
excited
molecules
brings
farmers
genetic
moon
obvious
quantum
afghanistan
beings
epidemic
gene
investment
king
president
stars
bacteria
chris
classroom
cultural
decade
ice
rain
rise
strange
survive
urban
experiments
extremely
mechanical
noticed
sat
seemed
sky
worry
healthy
sorry
surprising
sustainable
cheap
civil
laws
mathematics
tissue
creativity
european
husband
lie
risks
scientist
brother
bunch
designers
despite
feels
higgs
legs
stress
beauty
bread
career
famous
iran
spider
studies
town
western
afford
afraid
artists
believed
birds
birth
feelings
helping
illness
importantly
industrial
john
justice
kilometers
plants
popular
river
waste
##ans
army
bang
depression
everyday
invented
nervous
prison
surprise
engineering
evolved
israel
microbes
sand
studied
walked
california
chemistry
choices
consciousness
eating
electric
intelligence
joy
willing
agree
arab
benefits
british
enormous
inspired
london
majority
moral
oxytocin
professor
san
sister
ultimately
worst
brazil
collective
curious
economics
fantastic
harder
imagination
lying
minds
prove
religious
slowly
soil
stuck
summer
americans
cognitive
einstein
spending
tough
trillion
voices
babies
cheaper
dry
dung
experienced
explore
fascinating
ignorance
moments
silence
suffering
tons
valuable
vast
##lin
20th
accident
aging
chemical
citizen
cure
fairly
neighborhood
rock
sick
spirit
underneath
awesome
billions
biological
carefully
economies
faith
gut
immune
iraq
male
marketing
meat
mountain
narrative
opportunities
phenomenon
phones
rural
savings
sexual
stick
suicide
terrorism
vaccines
virus
wealth
arms
atmosphere
belief
canada
civilization
flu
france
galaxies
giant
hate
institution
japan
kenya
lucky
mars
molecule
mosquitos
photograph
poetry
principles
struggle
teeth
##ked
aid
bought
brown
childhood
chip
deeply
enjoy
hiv
papers
patent
politicians
religions
reputation
strangers
surprised
asia
bear
blah
britain
egypt
election
fair
gdp
germany
homes
paris
possibilities
prize
radiation
roads
scared
september
shame
threat
toilet
tumor
waves
##ology
artificial
brilliant
cooking
cyrus
disability
domestic
dying
elephant
hospitals
invest
nations
passionate
protein
studying
survey
violent
worldwide
boys
broke
dinner
dreams
elections
fighting
funny
grandfather
grandmother
honest
hum
labor
mexico
outcomes
planets
profound
proteins
smell
sold
stood
suffer
versus
younger
##ft
argue
australia
constantly
emotions
engineers
environmental
fell
fundamentally
generations
hopefully
increasingly
notion
proud
shoes
survival
talks
tomorrow
transportation
viruses
wearing
##sts
awareness
bright
convinced
crispr
debate
deeper
doubt
ears
explained
foot
grown
hotel
leader
mouth
mystery
rare
seriously
therapy
thinks
wow
##tain
21st
adults
advantage
anger
benefit
comfortable
court
designing
disorders
diversity
experts
exploration
fellow
fossil
garden
goods
haiti
honor
laboratory
leads
loud
manufacturing
mile
organized
perfectly
personally
practical
struck
sudden
tens
trouble
vulnerable
##ures
abuse
agriculture
bomb
businesses
consequences
deaths
democratic
disappear
disaster
educational
emissions
fibers
hell
interests
killing
march
mistake
mistakes
naturally
oceans
pig
pleasure
quiet
ride
sanitation
soul
wondering
##car
##hed
##ished
coffee
connectome
cortex
desert
ear
empathy
figured
forests
hall
jealousy
lay
magazine
marriage
married
mice
organ
remind
sees
southern
stayed
stem
stronger
technical
techniques
washington
wear
worried
##ama
##ka
aids
alzheimer
bet
church
conscious
curiosity
ecosystem
embrace
faced
inspiration
introduce
memories
molecular
mortality
obsessed
richard
stone
thoughts
traveling
voting
##bia
##bling
affordable
amongst
challenging
chose
classrooms
council
drove
emerging
engaged
entrepreneurs
fiction
fought
grateful
humanitarian
hypothesis
indian
lessons
microscope
organs
perception
sad
television
tradition
ultimate
vaccine
variety
wanting
admit
ages
anderson
babbage
beetle
clinical
commercial
cook
crying
cutting
earthquake
elderly
electronics
exercise
galaxy
heroes
innovative
interview
mit
opinion
pakistan
planning
pounds
prostate
staff
surely
surgeon
tom
tonight
traveled
wheelchair
##men
19th
afternoon
angeles
bird
breakfast
commitment
crime
crucial
deception
disorder
flying
fuels
gates
graduate
gun
harvard
implications
island
jail
james
lady
lecture
milk
nobel
personality
poorest
prosperity
radical
selling
sir
spiders
spreading
taste
technological
tissues
truck
##ars
##ire
##ney
##rative
badly
barely
bee
birthday
camp
coast
confident
continent
convince
essence
francisco
george
globe
hurt
industries
iphone
judge
leather
nerves
nowhere
offered
oxygen
painful
paintings
practices
researchers
saudi
scary
suggests
tremendous
trick
uncle
usual
victim
wars
##ell
##ners
##pers
academy
agreed
colleague
competition
concerned
courage
drinking
ecosystems
emergency
engaging
england
evening
fabric
ghana
hoping
houses
illusion
improvement
intelligent
june
leadership
mothers
paying
pocket
rapidly
relatively
rice
severe
soup
stands
sweet
symptoms
vehicles
weird
wondered
##ality
##aries
##ators
##ological
##ologist
##ray
##ria
##tation
##ured
##zy
bicycle
capitalism
clarity
clever
comet
contribute
crops
dancing
diagnosed
dignity
dozen
expertise
fortunately
grand
horse
hungry
inevitable
infection
injustice
inspire
intellectual
largely
literature
metaphor
neighborhoods
occasionally
offices
organic
poem
populations
precisely
productivity
rats
sophisticated
speakers
taliban
teenagers
thomas
treatments
uncomfortable
wisdom
yours
##atory
##fi
##ography
##rine
##ug
angry
apartment
awful
boat
burning
centuries
co2
coach
coke
colony
contrary
crowd
david
deserve
director
eastern
electronic
figuring
flexible
flowers
goals
insurance
islands
leonardo
literacy
mad
mustache
organize
plenty
polio
prisoners
rocket
roof
secondly
spinal
staying
swimming
telescope
universes
warming
wherever
##etic
##iest
##iles
##lands
##nia
##rging
##stic
##uous
appreciate
aside
capita
celebrate
clothes
collaborative
convey
cup
cybercriminals
debt
definitely
drill
edi
encourage
exploring
farming
fascinated
flower
frankly
grave
harm
investors
involves
joke
journalist
leap
liked
manhattan
movember
musical
newspaper
plastic
rarely
retina
retirement
rising
shelter
subjects
theater
trials
tricks
trucks
van
##fy
##imize
##ley
##zi
apparently
autism
bell
bow
breath
burden
cambridge
chicago
concepts
conclusion
congestion
damaged
deadly
diverse
dramatic
ecology
efforts
engineer
expanding
expert
focusing
folks
frank
genius
healthcare
horrible
institute
jeopardy
ladies
loves
metal
nanopatch
neural
oyster
penis
physician
pink
poet
refugees
relate
reminded
renewable
singing
stanford
struggling
stupid
subway
suggesting
sustainability
swim
tesla
trends
underwater
universities
voters
warm
youth
##acy
##cus
##ility
##nate
##ntial
##pel
##rey
##ris
##uit
activist
agenda
airplane
anatomy
arts
baseball
bats
beetles
believing
blow
broad
bush
carrying
chaos
chips
climb
compete
concern
coral
corruption
cry
cute
defense
doodling
drink
emotion
empowering
epidemics
fallen
fiber
forgotten
former
generous
genomes
graduated
harbor
immigration
influenced
invested
journalists
lord
marry
mess
minister
multiverse
obesity
pace
parking
paul
personalized
picking
pigs
rat
richer
schizophrenia
sciences
sculpture
shit
shooting
spoke
stability
surrounded
teenage
tony
tragedy
ugly
ultrasound
vital
wider
winter
witness
yesterday
##ach
##ads
##amine
##bo
##ike
##iled
##mon
##olve
##otic
##race
##rian
##rted
adoption
announced
artwork
bathroom
beautifully
breathe
brothers
buses
ceo
collagen
comedy
conclude
cooperate
diet
discuss
distant
donor
elected
entrepreneur
facial
fusion
guilty
headed
hearts
herself
imaging
infected
ink
intervention
israeli
knock
lake
luxury
makers
mathematician
methane
michael
microbial
morality
naked
nasa
northern
nose
nutrition
overcome
paradox
participation
passive
photographs
professionals
punch
robotics
russia
sadly
safer
shock
shoulder
sisters
sits
speaker
surgeons
surveillance
sweden
syria
tackle
thick
threats
unusual
ward
##ari
##ational
##atts
##berg
##bert
##cence
##dies
##eers
##gen
##ils
##lan
##lap
##lic
##nes
##orn
##rises
##ti
##ucked
##unting
agencies
altogether
anxiety
approaches
archimedes
balls
begun
besides
blindness
breathing
cage
christmas
clue
concerns
corals
diarrhea
dogs
dozens
dramatically
economists
educated
egyptian
electrical
ethiopia
experiencing
extinct
fabulous
footprint
foxo
golden
hanging
homework
incentives
jewish
jews
kingdom
laid
landing
laugh
letting
lovely
medication
mexican
muslim
muslims
nelson
nerve
organism
organisms
ought
parkinson
parks
physicist
pole
propose
rwanda
saharan
sebastian
shifting
shocked
shy
silicon
smile
smoke
spiritual
spoken
sports
stranger
suit
terrorist
terrorists
toy
traditions
ubiquitous
veterans
viral
websites
##gan
##gate
##gation
##head
##inating
##ips
##ired
##lize
##mi
##ole
##omy
##ony
##ope
##ota
##plied
##pression
##rates
##ridge
##sions
##tric
##unted
##wing
academic
africans
astronomers
behavioral
biases
boom
bottle
chair
chances
chemicals
collaboration
compelling
condoms
confused
congress
contemporary
crack
darkness
december
designs
dioxide
disabilities
disappeared
dominant
drew
dust
earned
educate
empire
evil
evolutionary
excuse
fears
fingers
flew
forgot
gathering
gentlemen
gradually
grandchildren
grasp
grass
guns
happier
hardly
highway
horizon
hormone
imagined
interestingly
invention
lawyer
mammals
mandela
mate
mathematicians
minority
monkey
motivated
neanderthals
ngos
obese
philosophy
pretend
ptsd
quarters
quest
remarkably
resilience
revolutions
satellites
selves
senses
slowing
smarter
smoking
someday
stepping
subtle
suitcase
suppose
survived
survivors
talent
tank
tie
ties
trauma
trustworthy
tuberculosis
villages
volunteers
whatsoever
##cks
##cular
##hs
##ila
##ki
##lies
##logist
##nating
##oked
##oration
##plication
##rous
##sia
##ubs
##uts
##ux
##vating
##vity
administration
adventure
advocate
airbnb
alien
andrew
archie
arctic
armed
artistic
boson
buried
challenged
charles
coding
costa
darwin
demands
depressed
diagnosis
downtown
dutch
economist
emerges
eric
evolve
excellent
exhibition
fed
football
freespeech
fruit
gabby
generosity
hang
hormones
huh
hydrogen
innovations
invent
joel
lego
liberal
luck
lung
mary
meal
miracle
musicians
nets
nights
officer
pasted
patience
petition
philosopher
photographer
photography
pollen
pollution
poop
poster
pregnant
primate
primates
profits
programmable
promised
resist
saturn
shouting
sing
solly
somewhat
speaks
spectacular
steve
storm
storytelling
surprisingly
tall
tears
texas
thirds
threatened
tired
trustworthiness
uber
vessels
visualize
wedding
wolves
wood
##ades
##ang
##che
##cho
##ctive
##esis
##fuse
##han
##iac
##ilia
##lessly
##lessness
##mal
##mise
##mons
##nated
##olation
##pa
##pathy
##rade
##ream
##rence
##ressive
##ried
##rove
##sity
##vasive
##water
accent
agency
agricultural
airport
ambitious
anniversary
antarctica
appeared
architects
assistance
attacked
august
beer
beliefs
blame
borrow
boston
bother
bricks
briefly
cares
cave
chest
clinic
clouds
competitive
congo
conservation
corporations
cow
crushed
curriculum
daf
dose
ebola
ecological
electron
embracing
emerged
empowerment
explains
facilities
fate
fibonacci
finance
flies
freely
frustrated
garage
gay
glacier
grades
halls
healing
honestly
hurricane
impression
insect
inspiring
islamic
jesus
kansas
kilograms
labs
laughing
learns
lied
lit
lunch
males
manuscript
mechanics
memorial
mobility
mosquito
mountains
neck
netherlands
nigeria
nowadays
nurses
officers
openness
opinions
paradigm
paralyzed
perceptions
perspectives
pete
pilot
posters
powers
productive
proved
pump
reasoning
refused
remained
retired
robotic
rocks
secular
selfish
significantly
singapore
sons
sounded
sperm
spots
sticks
stolen
stones
syringe
tattoos
tedtalk
thirty
tragic
treating
understands
valley
venice
virtue
whoa
widely
widespread
##ab
##ane
##arily
##berry
##cination
##clusion
##ctic
##elling
##ement
##ern
##ert
##fted
##fying
##gain
##herent
##ibly
##lity
##nder
##ni
##nic
##ones
##orous
##ploy
##rawl
##raying
##rial
##runk
##rus
##rush
##tend
##tended
##tling
##tory
##ttered
##tude
##ubling
##ups
##urse
##ury
##vated
##ven
##ville
##vis
##vised
##vy
accountable
activists
adopted
alternatives
appeal
arrested
attractive
audiences
australian
authorities
banks
barrels
barriers
bhutan
biodiversity
bite
bla
blast
bob
bombs
brian
brooklyn
cables
cats
civic
clues
coca
cola
consequence
county
couples
crew
dancers
dating
decline
defend
deforestation
demonstration
disgust
eaten
egyptians
exploitation
fancy
february
feeding
females
films
flowing
foie
fortune
founded
fueled
gaining
gore
gras
guinea
habitat
homeless
housing
hunger
impacts
improving
independence
infections
infectious
injury
innovate
insecure
interventions
intimate
islam
killer
kitchen
korea
lawyers
lifted
limestone
listened
mainstream
marine
martin
meetings
merely
millimeter
ministry
narrator
novelty
november
nutrients
obama
olds
pervasive
powered
presidential
prey
prosthetic
psychology
rainforests
rape
recognizing
regularly
remembered
renewables
replicate
ringing
rivers
rna
rose
rush
shadows
shine
shops
slides
slums
soldier
soldiers
soviet
stomach
stretch
suffered
sunday
supermarket
suspect
tea
terrified
texting
theoretical
theories
titan
traditionally
transit
traumatic
tunneling
twenty
unbelievable
unprecedented
visiting
visitors
vocal
watson
wealthy
wikipedia
william
wireless
workforce
worm
##alin
##ason
##au
##away
##beration
##bic
##bra
##ci
##dication
##duced
##ere
##gh
##icides
##irs
##ith
##las
##lets
##lie
##mit
##mmer
##mond
##nald
##nces
##olate
##ool
##power
##ptic
##races
##ribute
##rious
##sisted
##sty
##tail
##take
##ths
##trating
##tt
##ued
##unction
##und
##unding
##vise
##wed
##za
abilities
accomplished
advertising
alongside
als
amazed
analogy
arabia
astonishing
atlantic
babylon
barbershop
basement
basics
bears
bike
biologists
blowing
boring
breakthrough
breast
broader
cairo
calculus
ceiling
chairs
cheese
chef
clay
communications
constitution
controversial
cooked
cooperation
cord
countless
criminal
crystal
damn
delight
desk
despair
diffusion
dirt
distinction
dragline
emotionally
employment
evan
exploit
farms
farther
flourish
fool
forming
gained
givers
graffiti
gravitational
guests
historically
hitting
horror
hurts
immigrants
indigenous
insane
iranian
iron
jean
jihad
kit
korean
labeled
landed
laptop
lasted
lectures
libya
losses
magical
magnificent
mario
mastery
meanwhile
medications
metronome
monkeys
motivation
murder
obstacles
odysseus
organizing
palestine
panic
parliament
partnership
passenger
peaceful
perceive
phenomena
philosophers
physicists
pockets
practically
pride
proposition
proust
psychological
realization
reef
revealed
ridiculous
risky
ships
significance
silks
silver
socially
spends
staggering
sticky
sunlight
synapses
syndrome
teenager
terrifying
thrive
tide
tiger
toll
tomato
tongue
trapped
trash
trips
truths
tube
tumors
twins
upside
utterly
youngest
##aa
##aded
##aks
##ards
##aze
##bration
##ches
##door
##dus
##east
##eeks
##eering
##eral
##ette
##hips
##iary
##icious
##icity
##inning
##ishes
##iss
##itions
##ius
##kers
##lia
##mes
##nap
##nny
##olis
##onia
##pes
##pies
##pressed
##quity
##ren
##rged
##rians
##rified
##rify
##rim
##rming
##thy
##uating
##ucks
##ucky
##ules
##vin
abortion
absence
abundance
accelerating
accidents
adam
affairs
affecting
altruism
ambulance
approaching
arabs
astronauts
authentic
bacterial
bamboo
beating
bend
brands
bridges
budgets
canadian
cartoon
cathedral
charity
chile
chimpanzee
chronic
circuits
cochrane
collaborate
combat
confined
daisy
dan
dare
dear
decent
deepest
delicious
dental
desperately
devastating
disagree
discoveries
discussions
dominated
dress
eggs
electrons
emma
empowered
encouraging
endless
engineered
exercises
extroverts
feminine
fifty
fishing
fitness
foster
germ
girlfriend
grandparents
greece
handful
happily
healthier
heforshe
hemisphere
henry
herd
heritage
histories
hometown
honey
hopes
hotels
household
improved
informal
injured
investigate
jane
jaw
jennifer
jerusalem
judgment
july
jumped
jungle
kicked
kidding
knees
lifelong
luckily
lymph
malarious
mall
masters
mere
mic
missouri
mouths
muhammad
myth
neuroscience
nike
norway
october
offs
onstage
optimism
oxford
palestinian
passions
pasting
peoples
pharmaceutical
philadelphia
pity
planted
politician
poo
portraits
precise
prince
programmer
programmers
propaganda
protecting
proven
pursue
rainforest
receptor
regime
rescue
revenues
riding
sacred
sandy
sarah
saturday
scholars
seemingly
sexting
sexually
sexy
shirt
shortly
silly
skeletons
smells
smith
spain
spheres
staring
stealing
straightforward
structural
sugar
sustain
tale
tendency
tends
terribly
textbooks
toilets
ton
transplant
tuition
tunisia
twist
uganda
upset
urge
ushahidi
vibrating
virtually
vivid
weigh
whale
woods
##ague
##aring
##asis
##boards
##dam
##dled
##ections
##eologists
##fold
##fuge
##fulness
##gar
##ginable
##hade
##ham
##hop
##hore
##iance
##idal
##igating
##ima
##inable
##inted
##isms
##itch
##laws
##li
##nds
##nied
##nster
##ntities
##oids
##ois
##ologists
##oms
##oring
##piece
##plify
##ptive
##rch
##rds
##reed
##rifying
##rill
##robable
##roid
##ruce
##scopic
##sters
##tee
##tel
##tone
##tra
##uba
##uins
##urge
##urs
##ursor
##wood
absorb
absurd
accelerate
actively
advent
alcohol
amazingly
apartments
april
arranged
ashamed
attending
authenticity
automobile
autos
awkward
basketball
beloved
belt
bicycles
boyfriend
bruno
bubbles
bump
burn
burned
calories
carnegie
catastrophic
celebrity
charter
chemist
chimpanzees
chocolate
citizenship
cleaner
communal
conor
contribution
convincing
cosmic
cracks
critically
daniel
deaf
demographic
demonstrated
devil
diego
diplomacy
discipline
discrimination
district
disturbing
doodle
dopamine
drawings
emerge
encouraged
enormously
faint
faiza
fans
fathers
federal
feminist
foods
footage
friction
frightening
gallon
gear
glad
gods
gon
goodness
guitar
habitats
hamburger
hannah
hat
headlines
hebrew
heroic
hired
hollywood
holy
honesty
honeybees
ill
illnesses
imagining
immense
immigrant
impressive
improvements
incomes
indonesia
intangible
intense
intriguing
intuition
ironic
italy
jam
johnny
joshua
journalism
jupiter
kidney
kilos
knife
laboratories
lander
liberia
liberty
littlebits
lungs
maker
manuscripts
mohammed
mood
motors
mum
museums
neanderthal
negotiate
nurse
oecd
offering
overnight
pacific
parasite
pathway
pathways
peculiar
persuade
philosophical
pigeon
planting
pollination
popcorn
pound
practicing
precious
predictable
pregnancy
prevented
prisons
privileged
protests
psychiatric
psychologist
pursuit
qualities
realities
refuse
reinvent
relatives
relief
reporters
retire
rezero
romantic
rubble
sarajevo
secretary
seduction
shaking
sighted
singers
skull
skype
slavery
socioeconomic
somalia
sooner
spacecraft
squares
steal
stimulation
storycorps
striking
supreme
sydney
tablet
teen
temple
territory
textbook
thrilled
tim
tsunami
tweet
tweets
ultra
underground
unhappy
unintended
urbanization
urgent
useless
victorian
vietnam
virgin
vivian
weighs
whales
wheels
whoever
wings
wins
witnessed
wives
worms
wrist
yard
##ains
##aked
##akers
##amination
##arl
##asant
##bc
##berate
##brate
##care
##cha
##cipe
##cities
##cles
##clusive
##dance
##dden
##dder
##dor
##duce
##ductive
##elor
##eology
##eric
##fusion
##gers
##graded
##gue
##hew
##hy
##icial
##igorous
##imate
##imeter
##istrust
##istry
##itimate
##itors
##legic
##lete
##listic
##lix
##los
##lum
##makers
##mates
##mented
##minate
##mine
##nial
##obe
##ods
##oke
##ola
##omical
##oning
##ots
##oyal
##ph
##pia
##rass
##rassed
##rist
##rit
##rize
##rosion
##scent
##sta
##sy
##tification
##tles
##uard
##uded
##uel
##uistic
##ulous
##urfing
##uum
##yan
##yl
abundant
accenture
accountability
acids
activism
adopt
aged
alex
alexander
allies
amen
antibiotic
antibiotics
asian
asphalt
ate
atlanta
attracted
bacterium
bake
barrel
batteries
bay
beaten
believes
beneath
bites
blown
boil
boltzmann
brave
brief
bronx
campaigns
campus
cared
carol
catholic
celebrated
cerebral
chasing
circuitry
classmates
cloth
coined
compassionate
conditioning
connectomes
conservative
conspiracy
cousins
cruel
cues
curator
dangerously
daughters
deer
denial
deserts
desperate
determination
devastated
difficulties
digging
displaced
dive
documenting
donna
dropping
educators
egg
enforcement
enzymes
equilibrium
ethical
excitement
exhausted
exile
extinction
famously
favor
fixing
fluctuations
folded
foundations
fragile
friendship
functioning
gandhi
gaps
genocide
glaciers
governance
gowanus
guilt
hackers
harry
harvest
heaven
highways
hip
holmes
honduras
hop
hunter
iceberg
idiot
illustrate
imagery
inherently
initiative
injuries
innovators
inorganic
instinct
institutional
intention
intentions
interviews
intrigued
inventing
inventor
investigation
investing
invisibility
irrigation
lamb
lee
limbs
livestock
loans
lolcats
looting
louder
marduk
maria
marriages
marrow
meerkats
membrane
messy
millennia
mimic
mirrors
moreover
newspapers
noises
nonetheless
officials
orb
orbiting
originals
outward
participating
partly
pee
phenomenal
phoenix
plasma
polarization
politically
prayer
princess
procedures
professors
programmed
promising
prosthetics
protest
psychotic
punishment
purely
purple
radically
reactor
realistic
rebuilding
recession
refugee
reinventing
reminds
researcher
resilient
revolutionary
rises
roger
rubber
sake
scholar
scream
screening
senior
settled
sheets
shining
shower
sierra
skeptical
smartphone
snow
spark
specimens
stake
stigma
stockholm
stressed
stretched
struggled
stuxnet
surgeries
surgical
surplus
surveys
surviving
systematically
talented
tanks
tehran
tenderness
threatening
thriving
toes
towns
toxic
trafficking
tribal
tribe
trillions
trivial
ups
vacation
verbal
volunteer
voyager
wasted
wine
wing
wound
yale
zimbabwe
##aid
##ainable
##alized
##ament
##ao
##ashed
##att
##avor
##aw
##azz
##bbie
##bian
##bled
##bm
##born
##bow
##cidence
##cinations
##cist
##con
##crew
##ctuation
##dar
##dest
##dic
##diction
##die
##dified
##doors
##ees
##eg
##elves
##ensation
##ensible
##eological
##eous
##eping
##ese
##eze
##faction
##fall
##fes
##ffle
##fic
##gic
##give
##giving
##graphy
##ground
##harks
##heads
##heat
##hou
##iaries
##ich
##icted
##ilation
##ilized
##ingly
##ini
##iny
##iously
##iped
##ipes
##isa
##istress
##itative
##itched
##iture
##ivable
##ivor
##lain
##lash
##lave
##lee
##lizing
##mart
##mas
##mate
##mill
##nging
##nity
##nna
##ntly
##ographic
##ologically
##olving
##omic
##orate
##oric
##oss
##ought
##ows
##plete
##plicitly
##pling
##ploded
##posal
##production
##quez
##rading
##rals
##rands
##ras
##rations
##rection
##requent
##rest
##ret
##rick
##ride
##riving
##rture
##rude
##ship
##sional
##stitute
##structive
##sume
##suming
##tach
##tar
##tarian
##tent
##think
##tie
##uana
##ubble
##ucted
##uiz
##ulsion
##umble
##umbling
##umen
##ums
##unts
##uo
##urbs
##usable
##vans
##vator
##venient
##vine
##vio
##vitation
##wind
##xed
##xious
##zzing
abused
accurately
advantages
adventures
afghan
aiming
ambition
amino
angels
annoying
answering
appreciation
argentina
assembling
asylum
attract
backyard
bali
battles
bedroom
ben
bimetal
biologist
bizarre
blew
boiling
bonds
bonica
brick
bucks
butler
camps
captain
chad
chernobyl
christian
cinema
clothing
collaborators
colorful
coma
complained
conductive
confession
confronted
consciously
continents
corrupt
couch
coworkers
cream
creatively
crimes
cultivate
dances
daycare
defending
delighted
deserves
diabetes
dinosaur
disrupt
domingos
dude
dvd
eager
elementary
embraced
emergence
empower
enjoying
entrepreneurial
ethic
evolving
exhausting
expressing
facilitate
fantasy
fashioned
filming
filmmaker
fingertips
firm
fled
florence
fluorescence
fooled
formation
fracking
fright
futureless
gasoline
genetically
gigantic
glimpse
golf
grading
grains
grandma
gratitude
greenhouse
gross
guided
gulf
hacking
hal
hardest
harmful
heavens
heel
hill
hoped
hug
ian
imperative
implanted
implication
impose
impressed
inadequate
indoors
infect
intensive
intricate
introverts
irony
jealous
jeff
jet
josh
kepler
kiss
koran
lastly
laughed
leaning
lethal
lion
liver
loan
logistics
longing
magnets
mankind
maslow
metabolic
milky
millennium
minded
miners
modest
mud
muscles
mysterious
nanotechnology
newton
ngo
nightmare
noisy
noticing
numeracy
nutritious
occurring
olympics
opec
opera
origami
overseas
packaged
palm
pants
paralysis
parenting
passively
perceived
phd
physicians
pill
piracy
posed
potter
pour
pouring
problematic
profoundly
prone
punched
realizing
recruit
reefs
reinforced
relentless
renaissance
researching
resistant
responsibilities
restaurants
revenge
rides
robert
rockets
roofs
rosetta
scares
scotland
seas
sensing
sensory
shocking
shoe
shots
shout
sidewalk
spare
specialist
speeding
spill
spiral
spoofer
spreads
stakes
stephen
stepped
strive
sustained
tanzania
taskrabbit
taxi
temples
terrific
theft
thermal
thermo
throat
tight
transformative
transported
tricky
troll
tropical
ubuntu
ukraine
undergraduate
unpredictable
vantage
veteran
virginia
virtues
volunteered
voted
wash
weaving
wheat
woke
wooden
zealand
##_
##!
###
##$
##%
##&
##'
##(
##)
##+
##,
##-
##.
##/
##:
##;
##=
##?
##@
##[
##]
##^
##`
##–
##’